<unk>	0
<s>	0
</s>	0
<|user|>	0
<|assistant|>	0
<|system|>	0
<|environment|>	0
<|end|>	0
▁	-3.47319
.	-3.58926
,	-3.65009
▁the	-3.73948
s	-4.08123
:	-4.47359
▁a	-4.4831
▁of	-4.49693
▁and	-4.56822
▁\	-4.64687
▁to	-4.68234
▁=	-4.68293
▁is	-4.75786
)	-4.80858
▁-	-4.82788
_	-4.86973
▁in	-4.99504
▁(	-5.02977
-	-5.05853
(	-5.1229
▁**	-5.15361
▁"	-5.23332
▁\(	-5.32833
▁The	-5.37866
▁for	-5.37893
▁+	-5.54219
'	-5.58449
{	-5.59749
}	-5.61926
":	-5.63341
t	-5.63684
▁with	-5.65914
▁are	-5.78908
▁`	-5.82061
▁that	-5.82597
**	-5.87378
i	-5.87666
n	-5.88967
▁1	-5.93918
▁\[	-5.97593
▁\]	-5.9765
▁\)	-5.97974
x	-5.98594
▁A	-6.02476
’	-6.02611
▁or	-6.02794
d	-6.07508
frac	-6.11319
▁2	-6.1164
/	-6.13432
▁on	-6.13995
▁as	-6.14261
▁by	-6.1439
▁be	-6.17507
ing	-6.1909
▁I	-6.19477
▁you	-6.19898
▁from	-6.19968
e	-6.30631
text	-6.35745
:**	-6.35912
▁3	-6.36139
▁it	-6.37402
a	-6.37893
▁0	-6.38064
▁{"	-6.39551
",	-6.39725
▁|	-6.42325
▁if	-6.43404
ed	-6.45793
[	-6.47854
▁can	-6.49333
▁5	-6.5077
▁at	-6.51723
\	-6.5326
▁x	-6.5459
▁each	-6.54865
?	-6.54874
▁an	-6.54913
▁this	-6.54969
`	-6.56094
▁person	-6.56409
`,	-6.56551
"	-6.56743
▁function	-6.56971
y	-6.61269
2	-6.62827
]	-6.65683
▁'	-6.66352
▁4	-6.66482
▁number	-6.69183
▁not	-6.69748
▁You	-6.73715
▁who	-6.74252
;	-6.74446
A	-6.75023
m	-6.78294
▁has	-6.7879
1	-6.81918
▁“	-6.82198
▁your	-6.82636
▁B	-6.82675
▁S	-6.8292
k	-6.84107
▁<	-6.84278
g	-6.84625
▁we	-6.85624
▁all	-6.85926
▁one	-6.86493
▁1.	-6.86735
▁*	-6.87789
>	-6.88087
).	-6.88825
▁C	-6.90424
▁2.	-6.90479
▁have	-6.90712
b	-6.92381
▁total	-6.93263
▁###	-6.93546
r	-6.95979
▁t	-6.96567
!	-6.97322
▁list	-6.97426
▁P	-6.97706
▁c	-6.98342
▁#	-6.99731
c	-7.02015
▁should	-7.02296
B	-7.04052
C	-7.04663
ly	-7.04917
**:	-7.05769
S	-7.07947
▁n	-7.08617
▁return	-7.10259
▁given	-7.11107
▁into	-7.11421
▁---	-7.12168
▁6	-7.13736
p	-7.14
▁e	-7.14953
u	-7.16046
▁more	-7.16155
▁10	-7.16606
3	-7.16966
^2	-7.18286
▁time	-7.19122
▁where	-7.19187
▁but	-7.19304
▁[	-7.19378
▁their	-7.19618
▁This	-7.19629
▁any	-7.20442
▁i	-7.20812
),	-7.2094
|	-7.21023
▁If	-7.21903
▁{	-7.22225
er	-7.2256
times	-7.26119
▁her	-7.2616
▁two	-7.30316
right	-7.30438
▁me	-7.30504
in	-7.30567
▁need	-7.31377
left	-7.31956
▁which	-7.33154
▁answer	-7.33335
▁3.	-7.33674
pi	-7.33683
▁```	-7.33912
▁b	-7.34234
re	-7.34283
):	-7.34363
▁y	-7.34981
▁about	-7.35163
▁T	-7.35711
▁will	-7.36033
▁&	-7.36165
{\	-7.37652
—	-7.38245
results	-7.38691
name	-7.3936
▁For	-7.39485
▁k	-7.40639
▁In	-7.42135
f	-7.42319
▁first	-7.42699
▁so	-7.43963
▁Output	-7.44496
▁within	-7.44696
▁find	-7.45149
▁8	-7.45369
▁E	-7.45786
▁these	-7.46437
T	-7.4671
id	-7.46912
▁We	-7.46984
P	-7.4732
*	-7.47644
▁using	-7.48039
▁like	-7.48189
▁\).	-7.48638
▁only	-7.49056
v	-7.4912
cdot	-7.49504
▁was	-7.50044
▁\),	-7.50133
4	-7.50568
▁}	-7.5155
▁values	-7.51555
▁Each	-7.51617
▁R	-7.51732
▁d	-7.5219
▁new	-7.52547
▁line	-7.52571
▁Your	-7.53155
▁Answer	-7.53806
al	-7.54104
▁different	-7.54205
▁no	-7.5442
}}	-7.54484
▁7	-7.54667
▁f	-7.5469
▁such	-7.55222
▁data	-7.55634
▁p	-7.5616
▁its	-7.57599
▁his	-7.59052
▁To	-7.59109
()	-7.60188
_{	-7.60744
▁must	-7.60876
D	-7.61258
h	-7.61404
▁use	-7.61771
▁Here	-7.62025
\)	-7.62772
0	-7.63148
▁them	-7.63283
▁other	-7.6346
▁what	-7.63856
▁input	-7.64252
▁over	-7.64522
j	-7.65165
▁order	-7.65262
▁may	-7.65377
▁per	-7.65866
▁Let	-7.6671
(\	-7.67243
=	-7.6743
int	-7.6743
▁value	-7.68134
...	-7.6825
}{	-7.68589
H	-7.69407
',	-7.69411
▁4.	-7.69556
▁final	-7.69646
es	-7.6965
▁left	-7.69729
▁$	-7.70652
▁loves	-7.70846
▁F	-7.71504
L	-7.72747
▁between	-7.72828
▁L	-7.73518
▁\"	-7.73895
▁both	-7.74148
I	-7.74211
”	-7.74582
▁they	-7.74585
▁up	-7.75043
▁–	-7.75266
▁how	-7.75472
▁than	-7.75689
▁print	-7.75978
M	-7.76066
▁v	-7.76173
▁make	-7.76384
▁functions	-7.76804
5	-7.77048
function	-7.77112
▁G	-7.79087
▁single	-7.79247
▁def	-7.80023
▁12	-7.80027
▁9	-7.80594
or	-7.80925
o	-7.81163
▁M	-7.81382
▁string	-7.81432
com	-7.81982
E	-7.8203
▁D	-7.8218
▁there	-7.82294
▁→	-7.83465
></	-7.83757
▁word	-7.83853
▁N	-7.83982
calls	-7.84065
to	-7.84136
R	-7.84197
N	-7.84244
▁tags	-7.84362
functions	-7.84985
▁XML	-7.85636
▁r	-7.85668
▁•	-7.86216
F	-7.86241
▁following	-7.86258
▁he	-7.87397
://	-7.88106
▁H	-7.88943
sqrt	-7.89286
▁out	-7.89436
l	-7.89505
▁It	-7.89772
$	-7.90355
▁also	-7.90506
▁user	-7.90727
th	-7.91332
▁integer	-7.91396
6	-7.91792
▁words	-7.91814
▁problem	-7.92075
▁m	-7.92303
);	-7.92346
▁when	-7.92369
▁she	-7.9293
X	-7.93464
▁20	-7.93469
K	-7.93498
▁my	-7.93798
.”	-7.94528
▁==	-7.94568
▁output	-7.9475
▁set	-7.95067
▁sum	-7.9561
▁name	-7.95849
▁would	-7.96183
▁X	-7.98833
V	-7.98968
approx	-7.99009
▁cost	-7.99522
":"	-7.99533
▁do	-7.99965
_1	-8.00053
▁15	-8.01732
▁know	-8.0178
▁5.	-8.01942
w	-8.02454
z	-8.03151
ll	-8.03536
▁\(\	-8.03623
sin	-8.03819
G	-8.04172
7	-8.04425
▁while	-8.05012
▁equation	-8.05723
▁solve	-8.05727
▁after	-8.06235
title	-8.06991
▁get	-8.07826
▁V	-8.08268
▁House	-8.08708
▁length	-8.09777
","	-8.09887
▁provided	-8.10048
▁through	-8.10091
▁end	-8.10299
▁1,	-8.10521
▁\):	-8.11092
8	-8.1157
▁re	-8.11691
▁de	-8.11746
sum	-8.11951
▁some	-8.12092
▁AI	-8.12215
▁hours	-8.13189
▁then	-8.13245
▁contains	-8.13887
▁numbers	-8.13981
▁vertices	-8.14608
▁same	-8.151
_2	-8.1623
▁##	-8.16304
▁≤	-8.16504
O	-8.16566
▁1)	-8.16736
▁j	-8.16739
end	-8.17098
▁Given	-8.17191
▁want	-8.17795
▁1:	-8.18381
_0	-8.18577
▁K	-8.18862
mu	-8.19752
▁possible	-8.19795
▁integers	-8.20025
▁just	-8.20047
▁edge	-8.20205
▁Thus	-8.20323
▁Input	-8.20438
("	-8.21503
▁edges	-8.21746
▁next	-8.21759
▁directly	-8.2183
▁non	-8.21968
▁right	-8.22038
▁task	-8.22122
▁many	-8.22202
▁100	-8.22585
▁What	-8.2295
."	-8.23605
▁result	-8.24311
▁import	-8.24386
▁call	-8.24629
▁vertex	-8.24631
▁//	-8.24949
▁unique	-8.25095
▁2:	-8.25197
▁let	-8.2546
▁correct	-8.25489
▁2,	-8.25516
▁main	-8.25588
9	-8.25721
▁system	-8.26017
▁containing	-8.26137
▁So	-8.26213
The	-8.2635
="	-8.26462
▁model	-8.26954
▁points	-8.2723
▁could	-8.2753
▁does	-8.27537
▁code	-8.27709
cos	-8.27759
\":	-8.27826
▁every	-8.27896
▁30	-8.27998
▁Now	-8.28036
▁w	-8.28336
▁g	-8.28502
':	-8.28986
▁second	-8.29144
▁####	-8.29732
▁W	-8.298
lambda	-8.30039
ation	-8.3004
▁int	-8.30101
W	-8.30306
▁step	-8.30341
▁range	-8.30459
+	-8.30635
_{\	-8.30883
https	-8.30998
▁uses	-8.31347
▁years	-8.31507
▁Example	-8.31516
▁Please	-8.31621
▁6.	-8.32415
▁maximum	-8.32789
▁else	-8.32882
▁information	-8.33413
▁help	-8.33531
▁>	-8.33606
▁(0,	-8.33634
▁query	-8.3373
▁house	-8.34013
alpha	-8.34023
▁calculate	-8.34196
▁assist	-8.34819
▁self	-8.35728
▁⇒	-8.35998
▁Format	-8.36026
ve	-8.36144
▁rate	-8.36202
mathbf	-8.3652
able	-8.36693
is	-8.3684
▁three	-8.37341
partial	-8.37396
en	-8.38014
▁least	-8.38221
▁50	-8.38229
▁people	-8.38338
▁Don	-8.38413
▁There	-8.38785
on	-8.3891
▁day	-8.39681
▁graph	-8.39874
▁include	-8.40137
▁even	-8.40148
▁used	-8.40386
Y	-8.40386
▁current	-8.40752
▁group	-8.41117
▁2)	-8.41479
▁determine	-8.4153
**.	-8.4177
▁solution	-8.42549
▁child	-8.4263
▁un	-8.42965
▁smoothie	-8.43693
▁energy	-8.4394
▁path	-8.44159
#	-8.44435
▁They	-8.44465
▁\\	-8.4451
▁form	-8.4472
▁key	-8.44999
the	-8.45118
▁point	-8.45215
ity	-8.45828
▁exactly	-8.45877
beta	-8.46204
by	-8.4653
▁specific	-8.46681
▁(1,	-8.46862
▁average	-8.47162
▁z	-8.47457
▁Final	-8.4801
▁Alice	-8.48178
▁Calculate	-8.48326
▁product	-8.49045
▁without	-8.49341
▁He	-8.49452
▁water	-8.49757
▁sequence	-8.49768
▁assumptions	-8.49778
▁lover	-8.49817
▁helpful	-8.49851
▁program	-8.49888
▁were	-8.49961
▁most	-8.50163
‐	-8.50272
▁assistant	-8.5029
calling	-8.50615
_3	-8.50702
▁11	-8.50905
10	-8.51013
▁calls	-8.51111
str	-8.51419
▁year	-8.52396
▁(1	-8.52589
▁separated	-8.52706
▁here	-8.52961
▁Since	-8.53029
at	-8.53059
it	-8.5318
do	-8.53183
▁standard	-8.53267
('	-8.53681
▁3,	-8.54103
▁plug	-8.54125
))	-8.54151
▁example	-8.54313
▁distance	-8.54776
}\	-8.54877
▁h	-8.54932
▁response	-8.55354
separated	-8.55438
▁signatures	-8.55709
2,	-8.55791
▁minutes	-8.5625
▁7.	-8.56352
▁O	-8.56643
1,	-8.56709
▁Y	-8.56918
▁part	-8.57063
▁down	-8.57267
▁...	-8.57268
▁sort	-8.57469
▁List	-8.5748
▁across	-8.5827
^{	-8.58582
ic	-8.58679
▁area	-8.59047
▁under	-8.59138
▁been	-8.59188
▁3)	-8.59857
▁array	-8.60036
an	-8.6019
and	-8.61049
▁our	-8.61137
▁hope	-8.61217
▁class	-8.6169
▁["	-8.61774
▁She	-8.61967
▁found	-8.6207
▁positive	-8.62079
▁valid	-8.62345
▁Re	-8.62778
Clue	-8.62842
▁Step	-8.62872
▁best	-8.62894
▁space	-8.63068
▁matrix	-8.63173
▁start	-8.63425
▁work	-8.63516
▁Python	-8.63944
"},	-8.64198
J	-8.64315
data	-8.64369
▁Alex	-8.64381
▁(2,	-8.6471
Z	-8.64856
▁question	-8.64924
▁take	-8.64941
▁/	-8.64957
▁No	-8.65435
▁Total	-8.65522
phi	-8.6565
▁now	-8.66101
▁provide	-8.66312
▁way	-8.66376
ln	-8.66588
ion	-8.66792
ers	-8.66795
▁based	-8.66866
Output	-8.66899
▁—	-8.67054
▁elements	-8.6712
}{\	-8.67125
▁last	-8.67166
▁0,	-8.67548
▁before	-8.67849
▁because	-8.67906
▁world	-8.68029
quad	-8.68262
omega	-8.68622
boxed	-8.68715
▁might	-8.69184
▁Part	-8.69209
▁due	-8.69256
leq	-8.69465
▁8.	-8.69831
▁Can	-8.69841
▁had	-8.69899
▁[{"	-8.70141
▁back	-8.70608
^	-8.71289
▁l	-8.71446
▁case	-8.71448
us	-8.71789
▁Q	-8.71797
▁...,	-8.71854
type	-8.72054
up	-8.72106
▁results	-8.72167
▁How	-8.72418
▁×	-8.72519
<	-8.7256
time	-8.7285
theta	-8.72911
▁However	-8.73055
▁16	-8.73061
▁Use	-8.73163
^3	-8.73179
list	-8.7318
▁color	-8.73209
▁favorite	-8.73628
▁str	-8.73726
get	-8.73755
▁high	-8.73944
[1]	-8.74097
▁9.	-8.74303
▁count	-8.74759
▁Bob	-8.74868
▁index	-8.74963
▁means	-8.75185
▁Write	-8.75595
▁terms	-8.75758
▁characters	-8.76331
▁days	-8.76357
▁5,	-8.76384
▁check	-8.7641
▁times	-8.76788
▁true	-8.77222
▁4)	-8.77408
CH	-8.77479
python	-8.77887
▁max	-8.78468
no	-8.78514
[0]	-8.78527
▁David	-8.78796
▁create	-8.79237
**,	-8.79364
▁state	-8.79516
▁probability	-8.79614
▁equal	-8.79718
ive	-8.7976
as	-8.79789
▁spaces	-8.79928
▁element	-8.80592
▁Therefore	-8.80644
▁representing	-8.80656
▁follows	-8.80687
▁14	-8.80722
▁process	-8.80724
▁details	-8.80847
▁4,	-8.8097
Q	-8.81216
▁Natsuki	-8.81552
],	-8.81739
▁18	-8.81769
q	-8.81786
date	-8.8187
▁row	-8.81895
▁comma	-8.81967
est	-8.81976
age	-8.81985
▁25	-8.82147
▁game	-8.82422
▁-1	-8.82565
▁initial	-8.82783
▁well	-8.82938
▁As	-8.82975
15	-8.83111
▁5)	-8.83234
le	-8.83244
▁(3,	-8.83302
ment	-8.83496
ch	-8.83522
value	-8.83581
")	-8.83682
▁ensure	-8.83897
▁Carol	-8.84016
sigma	-8.84261
▁"""	-8.85012
▁ordering	-8.85189
▁dictionary	-8.85579
▁size	-8.85713
"}}	-8.86133
▁13	-8.86356
▁weight	-8.86546
▁But	-8.86563
▁character	-8.86762
▁term	-8.87179
▁being	-8.8741
▁format	-8.87433
step	-8.87719
^{-	-8.87745
▁amount	-8.88146
▁minimum	-8.88199
▁60	-8.88279
▁ASCII	-8.88346
log	-8.88477
_1,	-8.88709
▁distribution	-8.88819
▁above	-8.88838
▁mother	-8.88986
▁change	-8.89018
▁test	-8.89099
▁field	-8.89149
ar	-8.89178
▁U	-8.89487
▁conditions	-8.8959
▁named	-8.89645
Unicode	-8.89742
▁go	-8.89894
dt	-8.90313
▁during	-8.90348
▁real	-8.90389
▁24	-8.9049
▁potential	-8.90501
▁always	-8.90708
▁own	-8.90723
▁long	-8.9073
▁score	-8.90752
12	-8.90772
▁tree	-8.90819
50	-8.90897
▁local	-8.90962
un	-8.90962
de	-8.90989
▁much	-8.91035
▁around	-8.9118
Step	-8.9129
▁those	-8.91472
max	-8.91652
▁see	-8.91743
▁empty	-8.9202
▁len	-8.92183
')	-8.92342
(0)	-8.92344
▁public	-8.92381
ent	-8.92398
▁40	-8.9242
▁Arnold	-8.92476
▁J	-8.92532
▁root	-8.9257
min	-8.92574
▁required	-8.92739
▁type	-8.92811
▁u	-8.92888
▁add	-8.93101
▁drinker	-8.93328
▁power	-8.93532
url	-8.93597
▁support	-8.94951
▁original	-8.95198
▁tell	-8.95277
▁An	-8.95305
ness	-8.95399
▁cell	-8.95726
▁contain	-8.95831
▁available	-8.96011
▁(4,	-8.96063
▁When	-8.96199
▁mean	-8.963
line	-8.96345
▁formula	-8.96647
▁First	-8.96761
▁selected	-8.96859
▁give	-8.96923
▁week	-8.97116
▁+=	-8.97343
▁zero	-8.97426
▁less	-8.97542
▁him	-8.97569
16	-8.97605
▁0.5	-8.97783
▁show	-8.98106
)**	-8.98131
▁10.	-8.98182
▁const	-8.98445
▁complex	-8.98527
▁ascending	-8.98775
main	-8.98956
▁expression	-8.99017
▁square	-8.9924
self	-8.99541
▁still	-8.99586
11	-8.99729
▁__	-8.99976
▁->	-9.00045
▁expected	-9.00189
(1	-9.00345
▁%	-9.00367
▁descending	-9.00367
▁something	-9.00518
In	-9.00684
▁via	-9.00715
▁method	-9.00728
▁side	-9.00738
21	-9.00822
▁Name	-9.00832
\",\	-9.00897
▁Sayori	-9.00931
▁After	-9.00937
▁Using	-9.01046
):**	-9.01071
▁try	-9.01119
▁someone	-9.01537
▁sentence	-9.01551
▁another	-9.01676
append	-9.01742
▁$\	-9.0189
▁once	-9.01986
ate	-9.0209
ine	-9.02219
▁meters	-9.0237
▁text	-9.02379
▁sub	-9.02561
▁constant	-9.02692
▁position	-9.03123
▁distinct	-9.03157
30	-9.03241
▁growth	-9.03305
▁don	-9.03401
▁Determine	-9.03456
▁6)	-9.03602
ul	-9.03806
▁structure	-9.03853
_2,	-9.04016
▁break	-9.042
out	-9.04319
▁base	-9.04322
?”	-9.04498
▁node	-9.04507
▁content	-9.04683
▁Z	-9.04696
():	-9.04703
▁needs	-9.04876
▁gives	-9.05158
▁file	-9.05261
)^2	-9.05449
▁often	-9.05482
00	-9.0556
▁11.	-9.05702
▁keep	-9.06062
▁full	-9.0629
▁`0`	-9.06363
▁lines	-9.06404
▁us	-9.06557
▁light	-9.06762
▁performance	-9.068
not	-9.06851
▁top	-9.0688
like	-9.0689
▁approach	-9.06909
▁(!	-9.07
▁multiple	-9.07069
▁equations	-9.07085
org	-9.07094
begin	-9.07113
▁team	-9.07304
set	-9.07463
▁6,	-9.07484
)}	-9.07665
▁pair	-9.08017
^2}	-9.08134
▁dt	-9.08187
&	-9.08276
alice	-9.08314
20	-9.08357
▁And	-9.08698
▁book	-9.08724
▁small	-9.0875
link	-9.08771
▁remaining	-9.08797
▁level	-9.08828
</	-9.08865
▁needed	-9.0913
▁price	-9.09314
·	-9.09446
▁negative	-9.09538
])	-9.09621
▁None	-9.09848
][	-9.1009
▁-\	-9.10204
▁compute	-9.10282
year	-9.10304
();	-9.10307
▁models	-9.10339
▁la	-9.10369
▁common	-9.1101
▁write	-9.11344
▁13.	-9.11357
▁12.	-9.11368
▁cannot	-9.11482
pm	-9.1163
!”	-9.11835
▁including	-9.11836
▁large	-9.11912
▁either	-9.12015
▁strings	-9.12099
%	-9.12102
–	-9.12406
order	-9.12486
▁good	-9.12502
▁indices	-9.12604
▁ID	-9.12649
2)	-9.12823
U	-9.12832
▁All	-9.12834
▁becomes	-9.12884
13	-9.12909
▁quotes	-9.12987
▁target	-9.13035
\),	-9.13045
▁200	-9.13161
▁null	-9.1328
▁language	-9.13579
▁life	-9.13603
li	-9.13648
▁3:	-9.13651
▁quantum	-9.13655
Total	-9.13804
ist	-9.13878
gamma	-9.1406
hat	-9.14324
▁7)	-9.1434
www	-9.14385
▁float	-9.14437
▁</	-9.14489
input	-9.14538
▁image	-9.14566
----------------	-9.14791
red	-9.14792
@	-9.14823
▁[]	-9.14892
▁error	-9.14907
▁table	-9.14931
▁since	-9.14989
25	-9.15133
▁14.	-9.15217
▁grid	-9.15257
ary	-9.15314
▁further	-9.15523
▁takes	-9.15613
▁(5,	-9.15764
().	-9.15806
▁prime	-9.15869
per	-9.15884
count	-9.15899
▁19	-9.15939
▁Do	-9.16093
▁social	-9.16122
▁story	-9.16236
ization	-9.16561
▁think	-9.16566
▁steps	-9.16698
▁sorted	-9.1678
example	-9.16797
▁logic	-9.17073
▁labeled	-9.17111
of	-9.17119
man	-9.17253
▁Monika	-9.17268
[2]	-9.17387
▁At	-9.17427
▁address	-9.17821
▁From	-9.1796
{1}{	-9.18029
}{2}	-9.18368
result	-9.1841
▁food	-9.18421
▁cells	-9.18453
▁<=	-9.18503
one	-9.18537
▁player	-9.18676
▁pairs	-9.18917
▁students	-9.19006
▁0.1	-9.19222
price	-9.19333
▁condition	-9.19385
▁ni	-9.19432
▁event	-9.1962
▁height	-9.19627
ter	-9.19671
\).	-9.19944
el	-9.20221
})	-9.20439
split	-9.20539
▁https	-9.20997
▁making	-9.21093
▁consider	-9.21136
▁adjacent	-9.21259
▁represented	-9.2131
▁column	-9.21408
▁man	-9.21545
▁represents	-9.21787
▁analysis	-9.21814
▁items	-9.21843
▁blue	-9.21858
▁project	-9.21981
▁wants	-9.22093
nu	-9.22132
ac	-9.22405
if	-9.22412
`.	-9.22473
ce	-9.22574
ism	-9.22737
ting	-9.22755
▁speed	-9.22852
▁important	-9.22984
▁starting	-9.23186
▁en	-9.23388
▁learning	-9.23393
ol	-9.23478
▁These	-9.23834
3,	-9.23853
▁very	-9.23899
^\	-9.23908
▁Yuri	-9.23939
24	-9.23969
total	-9.24056
NOT	-9.24141
▁0)	-9.24259
▁15.	-9.24446
for	-9.24563
▁methods	-9.24596
ling	-9.24601
]:	-9.24612
▁research	-9.24681
▁books	-9.24696
▁Then	-9.24866
il	-9.24911
▁ti	-9.25093
,"	-9.25176
ant	-9.25236
▁together	-9.25265
▁additional	-9.25294
ad	-9.25388
using	-9.25468
player	-9.25519
▁New	-9.25633
▁con	-9.25699
▁True	-9.25754
▁critical	-9.2583
geq	-9.2586
▁8)	-9.25922
▁third	-9.26113
key	-9.26125
▁Provide	-9.26185
ian	-9.26749
ir	-9.26845
string	-9.2687
ie	-9.26875
problem	-9.26891
▁message	-9.26974
▁min	-9.26992
▁simple	-9.27085
▁period	-9.27086
▁off	-9.273
▁move	-9.27426
▁num	-9.27764
▁made	-9.27812
▁lives	-9.27859
▁requires	-9.27954
▁match	-9.27994
▁respect	-9.28014
▁home	-9.28323
▁120	-9.28423
▁street	-9.29016
from	-9.29035
▁defined	-9.29061
▁search	-9.29155
▁yes	-9.29223
ance	-9.29304
▁choose	-9.29334
▁post	-9.29377
os	-9.29475
▁o	-9.29569
▁did	-9.29689
▁Sub	-9.29759
▁impact	-9.29787
▁series	-9.29834
▁month	-9.30109
ty	-9.30219
▁mass	-9.30381
▁One	-9.30408
['	-9.30503
▁among	-9.30693
▁perspective	-9.30792
▁backticks	-9.30805
▁free	-9.30825
32	-9.30883
▁etc	-9.30916
▁hand	-9.3097
18	-9.31065
▁optimal	-9.31195
num	-9.31229
▁7,	-9.31274
▁look	-9.31335
▁health	-9.3137
())	-9.31529
▁17	-9.31619
ia	-9.31699
▁boquet	-9.31874
less	-9.31955
Delta	-9.31993
▁groups	-9.32016
▁open	-9.32173
▁standing	-9.32585
▁city	-9.32975
▁little	-9.33072
▁context	-9.3316
▁already	-9.3342
▁products	-9.3348
▁place	-9.33569
size	-9.33661
▁human	-9.3374
14	-9.33987
▁flow	-9.3441
▁parts	-9.34487
ous	-9.34513
▁complete	-9.34611
ized	-9.34755
val	-9.34785
▁object	-9.34841
].	-9.3485
▁Set	-9.34861
▁too	-9.34934
▁am	-9.35012
▁integral	-9.35028
▁present	-9.35064
ip	-9.35073
▁entire	-9.35186
Calculate	-9.35287
[1],	-9.35292
▁500	-9.35313
▁(6,	-9.35384
(2)	-9.35497
▁False	-9.35627
2.	-9.35684
=1	-9.35799
ies	-9.35984
based	-9.36113
▁please	-9.36196
。	-9.36253
bar	-9.363
▁q	-9.36346
▁Everyone	-9.36374
▁four	-9.36471
=2	-9.36502
▁against	-9.36503
▁constraints	-9.36596
▁tea	-9.36807
▁di	-9.36879
day	-9.36935
▁approximately	-9.36949
](	-9.36964
▁pre	-9.37105
']	-9.37113
[3]	-9.37206
17	-9.37361
path	-9.37365
▁white	-9.37422
▁handle	-9.37568
}\)	-9.37571
▁known	-9.37665
▁"__	-9.37677
ro	-9.37678
(1)	-9.37832
▁double	-9.37912
▁150	-9.38002
▁script	-9.38245
▁item	-9.383
House	-9.38504
▁operations	-9.38556
▁units	-9.38564
▁capacity	-9.38586
▁run	-9.38625
delta	-9.38763
▁short	-9.3882
▁states	-9.38882
map	-9.39161
et	-9.39173
__":	-9.39334
▁systems	-9.39339
pmatrix	-9.39553
um	-9.39566
▁On	-9.39605
ton	-9.39616
▁returns	-9.39628
的	-9.39704
na	-9.39796
▁Check	-9.39999
▁along	-9.40074
23	-9.40108
+1	-9.40208
im	-9.40248
▁eyes	-9.40448
19	-9.40465
▁events	-9.40583
add	-9.40648
▁access	-9.40671
▁increase	-9.40751
ry	-9.41106
co	-9.4116
▁population	-9.41563
▁family	-9.41566
▁action	-9.41571
▁puzzle	-9.41678
io	-9.41723
▁surface	-9.41749
am	-9.4193
Name	-9.4198
▁student	-9.41992
strip	-9.42074
▁reaction	-9.42098
code	-9.42114
1)	-9.42182
la	-9.4224
▁fish	-9.42264
▁quadratic	-9.42405
"}]}	-9.42417
▁leading	-9.426
а	-9.42638
▁difference	-9.42649
4,	-9.43052
ating	-9.43081
ur	-9.43119
▁understanding	-9.43126
▁That	-9.4318
▁45	-9.43295
▁binary	-9.43297
▁De	-9.43341
▁sure	-9.43375
▁0:	-9.4353
26	-9.43609
▁cheese	-9.43635
▁‘	-9.43766
▁1000	-9.43778
}(	-9.43786
Re	-9.43811
root	-9.43857
▁By	-9.43861
▁carbon	-9.43879
ally	-9.43946
▁factor	-9.44049
▁vs	-9.44101
index	-9.4433
▁9)	-9.44385
div	-9.44417
▁phone	-9.44448
row	-9.44499
">	-9.4452
27	-9.44576
▁Options	-9.44633
▁characteristics	-9.44655
▁false	-9.44768
▁play	-9.44779
▁understand	-9.44782
▁months	-9.44788
64	-9.44815
▁0.2	-9.44855
vec	-9.44873
)\)	-9.44924
▁algorithm	-9.45117
▁select	-9.45391
▁linear	-9.45484
▁review	-9.45517
é	-9.45776
No	-9.45807
▁request	-9.46063
all	-9.46195
ab	-9.46214
ang	-9.46229
{1	-9.46333
▁share	-9.4653
▁8,	-9.467
▁0.3	-9.46715
he	-9.46829
▁air	-9.47269
length	-9.47528
▁cases	-9.47628
▁changes	-9.47768
tic	-9.48086
".	-9.48143
▁smokes	-9.4839
▁With	-9.48434
len	-9.48455
▁differential	-9.48505
▁whether	-9.48577
▁9,	-9.48581
▁connected	-9.48585
▁general	-9.48612
▁future	-9.48781
▁media	-9.48948
▁10)	-9.49083
$.	-9.49099
▁design	-9.49171
▁My	-9.49251
ma	-9.49253
▁training	-9.49274
▁balance	-9.49329
david	-9.49395
45	-9.49409
▁undirected	-9.49456
user	-9.49716
=4	-9.49777
▁old	-9.49789
▁room	-9.4987
▁below	-9.49883
▁higher	-9.49906
ne	-9.49998
▁never	-9.50063
22	-9.50163
bob	-9.5022
▁Number	-9.50346
0,	-9.50421
▁follow	-9.50469
▁random	-9.50575
▁company	-9.50669
▁better	-9.50774
▁maximize	-9.50849
▁school	-9.51019
▁frequency	-9.51125
▁read	-9.51304
▁low	-9.5148
ID	-9.51632
▁Red	-9.5166
be	-9.51747
▁Also	-9.51879
▁Is	-9.51924
carol	-9.52028
ra	-9.52073
▁car	-9.52156
▁80	-9.5218
ated	-9.5222
▁operation	-9.52259
snippet	-9.52357
▁smoker	-9.52485
numbered	-9.52508
▁houses	-9.52642
▁Find	-9.52664
▁again	-9.52801
psi	-9.52831
▁goal	-9.52896
▁polynomial	-9.52954
▁resources	-9.53194
▁(2	-9.53223
▁normal	-9.53267
▁say	-9.53343
▁face	-9.53349
te	-9.5346
▁Print	-9.53474
▁2023	-9.53489
!"	-9.53645
▁network	-9.53652
▁bond	-9.53655
▁revenue	-9.53694
▁analyze	-9.53888
▁detailed	-9.53948
▁significant	-9.53976
▁names	-9.54028
rate	-9.54102
▁(\(	-9.5419
▁sys	-9.54271
▁special	-9.54296
▁exists	-9.54509
▁Clues	-9.54559
▁keys	-9.54601
▁English	-9.54738
→	-9.54752
▁control	-9.54752
▁costs	-9.54771
rho	-9.54866
▁Google	-9.54891
ful	-9.54928
blue	-9.55062
▁smallest	-9.55069
▁source	-9.55079
▁account	-9.55236
▁cat	-9.55238
▁center	-9.55571
▁corresponding	-9.55578
▁tuple	-9.55722
file	-9.56118
▁arr	-9.56119
▁involves	-9.56202
▁Time	-9.56238
▁dog	-9.56437
ij	-9.56535
▁owner	-9.56586
▁se	-9.56631
test	-9.56824
▁derivative	-9.56974
▁sides	-9.57069
^{\	-9.57082
arnold	-9.57204
▁pattern	-9.57209
(3)	-9.5723
▁Try	-9.5735
▁email	-9.57389
3)	-9.57405
29	-9.57416
100	-9.57525
ba	-9.57636
40	-9.57749
▁force	-9.57793
▁beer	-9.57807
▁continue	-9.57813
▁budget	-9.57909
▁role	-9.57927
▁volume	-9.5821
=3	-9.58256
е	-9.58272
▁JSON	-9.58336
▁acid	-9.5841
▁generate	-9.58786
▁meaning	-9.58791
▁spent	-9.58818
▁feel	-9.58943
▁body	-9.58958
▁hour	-9.5899
{1}{2}	-9.59257
▁0;	-9.59298
▁working	-9.59381
▁(7,	-9.594
▁36	-9.59417
rangle	-9.59539
▁command	-9.59588
with	-9.59655
▁clear	-9.59688
ri	-9.59783
−	-9.59825
▁individuals	-9.59961
status	-9.60109
lo	-9.60188
▁radius	-9.60241
rs	-9.60297
▁reach	-9.60301
new	-9.60345
▁2024	-9.60453
ence	-9.60548
ta	-9.60576
▁si	-9.60963
▁minimize	-9.61026
▁community	-9.61039
▁Chinese	-9.61068
01	-9.61139
▁elif	-9.61187
▁works	-9.61237
▁away	-9.61262
arr	-9.61386
▁art	-9.61388
▁ways	-9.61406
▁complexity	-9.61464
▁features	-9.6147
▁page	-9.6151
▁fetch	-9.61513
▁90	-9.61588
▁32	-9.61648
▁arrangement	-9.61744
▁modeled	-9.61768
▁questions	-9.61769
{3}	-9.61834
px	-9.61939
▁version	-9.61956
▁appear	-9.61991
▁related	-9.62067
▁300	-9.62107
▁coordinates	-9.62124
▁Co	-9.62137
start	-9.62185
score	-9.62199
da	-9.62467
▁Yes	-9.62488
▁focus	-9.62492
▁come	-9.62493
]]	-9.62502
{2	-9.6258
▁ensuring	-9.62667
▁nodes	-9.62816
▁music	-9.62841
▁-2	-9.62861
▁$$	-9.62864
▁Compute	-9.6288
To	-9.62913
▁strong	-9.62996
▁love	-9.63165
▁Blue	-9.63166
▁21	-9.63257
▁children	-9.63373
▁until	-9.63378
▁[1,	-9.635
▁natural	-9.63542
▁fry	-9.63551
▁development	-9.63558
▁doesn	-9.63566
▁lower	-9.63642
▁market	-9.63748
ka	-9.6381
mol	-9.6389
▁business	-9.63922
▁Dr	-9.63974
▁interval	-9.64011
▁vector	-9.64392
▁latest	-9.64419
our	-9.64495
▁experience	-9.64508
▁positions	-9.64509
▁black	-9.64608
▁individual	-9.64636
▁others	-9.64647
▁ratio	-9.64745
▁Certainly	-9.6477
60	-9.64843
35	-9.64974
me	-9.64995
ه	-9.6502
▁age	-9.65034
▁resulting	-9.65085
▁1.5	-9.65117
▁API	-9.65182
amp	-9.65386
▁study	-9.65403
Cl	-9.65533
▁coffee	-9.65541
▁theory	-9.65554
5,	-9.65662
▁factors	-9.65703
▁4:	-9.65761
▁called	-9.65795
▁dp	-9.65883
▁sets	-9.65884
▁region	-9.65908
▁paper	-9.65922
▁16.	-9.65948
▁sense	-9.65948
▁head	-9.66016
▁1?	-9.66022
▁few	-9.66026
land	-9.66053
state	-9.66057
▁personal	-9.66179
"}	-9.66253
▁section	-9.6627
▁creating	-9.66348
▁machine	-9.66474
position	-9.66576
▁в	-9.66607
ize	-9.66669
▁Additionally	-9.66706
▁block	-9.66739
▁fill	-9.66756
▁style	-9.668
▁parameters	-9.66831
▁Con	-9.67078
ah	-9.67132
▁<<	-9.67134
▁risk	-9.67238
You	-9.67249
▁rest	-9.67292
▁half	-9.67309
▁past	-9.67617
kt	-9.67654
▁includes	-9.67711
▁various	-9.67861
▁remains	-9.67881
▁video	-9.6796
200	-9.68043
=0	-9.68068
▁2\	-9.68142
ny	-9.68159
"]}}	-9.68309
ens	-9.68573
^{-\	-9.68648
▁Emily	-9.68689
(0,	-9.68708
▁types	-9.68766
▁anything	-9.68826
ó	-9.68874
▁physical	-9.68928
▁greater	-9.68936
▁require	-9.69321
▁dis	-9.69371
▁except	-9.69428
▁temperature	-9.69435
▁inside	-9.69536
▁going	-9.69548
▁multi	-9.69568
▁security	-9.69608
▁weeks	-9.69653
▁Assume	-9.69716
my	-9.69717
ish	-9.69948
read	-9.70027
number	-9.7011
▁title	-9.70167
▁width	-9.70346
▁matches	-9.70351
▁itself	-9.70493
▁dollars	-9.7057
▁considered	-9.70782
so	-9.70848
1.	-9.70939
\"\	-9.71014
▁German	-9.71091
▁digits	-9.71143
▁perform	-9.71209
▁!=	-9.71284
▁Add	-9.71406
▁constraint	-9.71412
▁plan	-9.7145
let	-9.71471
▁1]	-9.71563
▁Key	-9.71574
▁rules	-9.71583
▁really	-9.71683
▁@	-9.71747
▁seconds	-9.71848
▁−	-9.71879
▁digital	-9.72108
▁Substitute	-9.72174
▁why	-9.72185
(1,	-9.72216
▁history	-9.72476
▁friends	-9.72572
net	-9.7262
▁job	-9.72624
▁starts	-9.72676
image	-9.72812
á	-9.7284
▁similar	-9.72872
▁с	-9.72898
▁legal	-9.72913
_4	-9.72932
▁instead	-9.73021
▁activities	-9.73187
mathcal	-9.73191
▁effects	-9.73295
ability	-9.73341
Key	-9.7337
▁degree	-9.73398
▁pressure	-9.7341
py	-9.73466
▁choice	-9.73484
▁tasks	-9.73505
(2	-9.73612
ਰ	-9.73615
í	-9.73657
▁effect	-9.73728
▁games	-9.73948
▁While	-9.73961
▁calculated	-9.73976
▁fun	-9.74217
-1	-9.7423
▁Master	-9.74273
table	-9.74321
▁raise	-9.74414
+1)	-9.74446
▁Day	-9.74513
ng	-9.74547
▁written	-9.74555
▁sorry	-9.7459
ring	-9.74743
▁sample	-9.74862
▁date	-9.74904
form	-9.74938
▁directed	-9.74949
34	-9.75058
▁shows	-9.75063
31	-9.75094
▁void	-9.75102
▁co	-9.75162
28	-9.75165
word	-9.75188
negative	-9.75286
▁drinks	-9.75361
mo	-9.75487
▁build	-9.75496
▁du	-9.75549
ana	-9.75583
500	-9.75618
Final	-9.7571
▁relationship	-9.75715
▁28	-9.75773
infty	-9.7579
▁represent	-9.75878
▁efficiency	-9.75882
ite	-9.75904
▁27	-9.75917
ure	-9.75927
▁exist	-9.76
[4]	-9.76058
▁solutions	-9.76116
▁letters	-9.76181
▁rule	-9.76206
.*	-9.76214
cat	-9.76241
)`	-9.76326
mod	-9.76338
▁seen	-9.764
sh	-9.76416
▁deep	-9.76439
▁environment	-9.76482
▁store	-9.76578
▁(8,	-9.76622
▁several	-9.76736
▁charge	-9.76797
▁Al	-9.76879
▁things	-9.76885
▁knight	-9.76917
,”	-9.76928
son	-9.7697
▁Could	-9.76984
▁Returns	-9.7699
^4	-9.77082
tion	-9.77088
▁largest	-9.77104
▁numerical	-9.77111
"]	-9.77182
▁Finally	-9.77216
▁Pro	-9.77221
=5	-9.77244
▁document	-9.77256
=6	-9.77283
▁whose	-9.77288
Id	-9.77501
▁parent	-9.77548
▁appears	-9.77607
▁red	-9.77634
▁global	-9.77653
▁=>	-9.77686
▁bit	-9.77693
▁tools	-9.77712
▁fields	-9.77787
dict	-9.77818
▁certain	-9.77903
side	-9.77971
▁density	-9.77975
▁{'	-9.78008
▁equilibrium	-9.78061
▁satisfy	-9.78168
80	-9.78175
▁application	-9.78185
▁reads	-9.78336
▁care	-9.78794
▁everyone	-9.78832
▁interest	-9.78835
▁variable	-9.79172
▁inequality	-9.792
)\	-9.79249
▁22	-9.79294
▁country	-9.79518
True	-9.79624
▁online	-9.79695
▁35	-9.7977
▁far	-9.79783
▁makes	-9.79809
▁display	-9.79817
▁Row	-9.79991
▁button	-9.80093
▁brown	-9.80155
over	-9.80192
▁components	-9.80317
▁app	-9.80623
▁avoid	-9.80866
▁voice	-9.80898
tau	-9.80989
▁pro	-9.81019
▁said	-9.81025
▁rows	-9.81057
▁moment	-9.81379
item	-9.81393
▁historical	-9.8141
▁note	-9.81411
▁Her	-9.81431
▁become	-9.81434
▁summary	-9.81511
▁private	-9.81521
em	-9.8156
▁course	-9.81643
▁money	-9.81704
▁Create	-9.81786
▁partial	-9.81801
ner	-9.81835
▁profit	-9.81894
▁11)	-9.81929
33	-9.82016
▁Eye	-9.82044
▁law	-9.82135
▁behavior	-9.82165
▁`(	-9.82176
"},{"	-9.82209
▁Next	-9.82283
▁velocity	-9.82298
▁management	-9.82523
6,	-9.82738
▁Consider	-9.82791
▁especially	-9.82845
▁Or	-9.82903
▁travel	-9.83038
▁close	-9.83055
"],	-9.83087
ile	-9.83118
▁issues	-9.83138
ut	-9.8331
▁sound	-9.8334
▁otherwise	-9.83455
▁Note	-9.83553
90	-9.83626
▁23	-9.83658
▁$1	-9.83801
rating	-9.83876
▁colors	-9.83885
▁decides	-9.83991
color	-9.84022
▁subset	-9.84166
List	-9.84171
▁night	-9.84201
▁nature	-9.84237
▁mind	-9.8428
(5)	-9.84294
▁challenges	-9.84295
ci	-9.84387
▁miles	-9.844
▁roots	-9.84402
▁communication	-9.84425
▁gas	-9.84427
▁id	-9.84428
▁combined	-9.84446
next	-9.84515
bit	-9.84558
▁eye	-9.84639
▁yellow	-9.84641
ం	-9.84709
▁British	-9.84789
level	-9.84838
▁unit	-9.8486
▁today	-9.84917
ward	-9.84947
▁technology	-9.85006
▁loss	-9.85027
▁pages	-9.85057
48	-9.85058
▁knowledge	-9.85111
ge	-9.85236
style	-9.85267
▁considering	-9.85339
▁strategies	-9.8535
▁decimal	-9.85365
▁looking	-9.85382
exp	-9.85478
▁pick	-9.85536
=1}^{	-9.85599
▁Problem	-9.85607
▁chosen	-9.85651
we	-9.85711
▁deviation	-9.85714
▁rather	-9.85771
▁0.4	-9.85962
term	-9.85969
▁statement	-9.85975
▁`1`	-9.86004
▁described	-9.86044
▁Fibonacci	-9.86117
jpg	-9.86194
▁whole	-9.86216
▁circle	-9.8622
▁options	-9.86322
Data	-9.86353
▁wọn	-9.86363
▁Question	-9.86502
▁constants	-9.86627
▁Data	-9.86634
▁dx	-9.86681
▁particular	-9.86712
▁Show	-9.86735
▁baby	-9.86749
36	-9.86835
[0],	-9.86906
Summary	-9.86908
ca	-9.86914
lu	-9.87252
▁и	-9.87264
Error	-9.87274
▁annual	-9.87277
▁club	-9.87402
▁milk	-9.87436
point	-9.87446
▁skills	-9.87475
con	-9.87593
array	-9.87611
▁permutation	-9.87648
▁dataset	-9.87662
body	-9.87735
▁0.8	-9.87752
izing	-9.87836
]`	-9.87839
▁perfect	-9.87851
-2	-9.87913
▁(\	-9.87945
Carol	-9.88003
▁System	-9.88017
");	-9.88152
▁AND	-9.8816
node	-9.88166
?"	-9.88192
▁sp	-9.88195
▁feet	-9.88216
▁occurs	-9.88286
ي	-9.88442
▁daily	-9.88449
▁quality	-9.88467
[0])	-9.88468
▁0.05	-9.88634
▁cover	-9.88681
▁service	-9.88688
▁OR	-9.88816
▁remove	-9.88926
▁lo	-9.89008
▁added	-9.89009
current	-9.8917
tan	-9.8925
=7	-9.89278
▁batch	-9.8934
▁bi	-9.89348
▁users	-9.89498
▁overall	-9.89624
▁ch	-9.89672
▁safety	-9.8972
▁70	-9.8973
▁influence	-9.89738
▁Not	-9.89761
ru	-9.89763
▁variables	-9.89775
▁necessary	-9.89779
▁got	-9.89783
":{"	-9.89816
▁ethical	-9.8985
ide	-9.89863
='	-9.89868
▁missing	-9.89888
4)	-9.89889
▁software	-9.89919
▁great	-9.89996
▁achieve	-9.90043
tor	-9.90188
▁improve	-9.90205
▁effective	-9.90211
▁kind	-9.90303
▁26	-9.90371
▁>=	-9.90405
▁properties	-9.90419
▁young	-9.90438
42	-9.90448
low	-9.90528
▁explore	-9.90539
▁da	-9.90552
ay	-9.90581
▁scores	-9.90611
▁enough	-9.9064
▁Table	-9.90772
▁odd	-9.90814
▁km	-9.90838
[1])	-9.91061
▁Great	-9.91067
▁background	-9.91131
led	-9.91132
_\	-9.91142
▁lead	-9.91271
epsilon	-9.9136
ы	-9.91409
▁reduce	-9.91568
sub	-9.91597
city	-9.91723
7,	-9.91777
join	-9.91844
1:	-9.91931
dy	-9.91935
▁stack	-9.91941
▁St	-9.91972
▁pe	-9.92029
▁pizza	-9.92039
▁coefficients	-9.92048
▁Fred	-9.92053
}{1	-9.92059
)}{	-9.92068
(4)	-9.92122
▁limit	-9.9214
▁0.6	-9.92142
authorId	-9.92191
▁writing	-9.92273
07	-9.92287
▁processing	-9.92407
▁75	-9.92414
ap	-9.9243
email	-9.9246
▁requested	-9.92484
way	-9.92515
▁round	-9.9254
▁meet	-9.92575
▁Just	-9.92713
▁building	-9.92748
▁previous	-9.92756
lower	-9.92782
meta	-9.92789
html	-9.92827
у	-9.92877
ho	-9.92893
Time	-9.92913
▁professional	-9.92931
▁La	-9.93014
}$	-9.93041
123	-9.93045
ities	-9.93048
▁implement	-9.93075
▁bird	-9.9309
▁Un	-9.93096
▁financial	-9.93102
▁cycle	-9.9321
)]	-9.9325
res	-9.9328
▁activity	-9.93284
▁purple	-9.93339
ara	-9.93345
▁component	-9.93533
▁exact	-9.93574
ak	-9.93677
▁res	-9.93708
▁Suppose	-9.93713
▁season	-9.93726
model	-9.93751
ial	-9.93759
▁Solve	-9.93762
▁Solving	-9.93767
▁direct	-9.93776
▁mod	-9.9379
▁update	-9.93884
▁le	-9.9399
head	-9.93999
ha	-9.94009
▁≥	-9.94011
▁Mall	-9.94042
▁hair	-9.94105
▁lists	-9.94173
▁practice	-9.94218
▁heart	-9.94272
down	-9.94273
06	-9.94279
ele	-9.94333
▁associated	-9.94352
\):	-9.94373
▁plans	-9.9438
each	-9.94385
75	-9.94478
▁Billy	-9.94557
▁frame	-9.94777
47	-9.94841
55	-9.94844
▁knave	-9.94873
back	-9.94879
▁forms	-9.94888
▁five	-9.9494
▁million	-9.94965
▁convert	-9.9499
}_2\	-9.94999
{2}	-9.95126
▁Prince	-9.95163
5)	-9.95197
▁symmetry	-9.95221
▁$2	-9.95233
rank	-9.95314
▁char	-9.95327
[5]	-9.95373
▁fourth	-9.95378
▁al	-9.95385
▁specified	-9.95415
▁(3	-9.95469
spaces	-9.95538
▁Any	-9.95593
▁assume	-9.95608
ن	-9.95734
water	-9.95777
▁cross	-9.95805
implies	-9.95818
▁loop	-9.95821
▁que	-9.95844
▁according	-9.95936
▁production	-9.96053
▁programming	-9.96121
▁keeps	-9.96153
▁animals	-9.96191
▁increasing	-9.96223
▁Be	-9.96228
▁`0	-9.96247
symbol	-9.96363
▁reading	-9.96396
mp	-9.96454
▁window	-9.96601
▁direction	-9.9664
6)	-9.96702
tra	-9.96746
▁python	-9.96895
▁Desert	-9.96942
▁typically	-9.97004
▁likely	-9.97066
▁angle	-9.97102
ene	-9.97142
▁green	-9.97145
▁flower	-9.9719
▁everything	-9.9721
ina	-9.97236
к	-9.97276
▁48	-9.97347
▁allows	-9.97448
▁done	-9.97493
▁images	-9.97598
▁split	-9.976
ium	-9.97611
}_2	-9.97617
▁scene	-9.97662
▁Mexican	-9.97778
▁advanced	-9.97858
Answer	-9.9786
▁duration	-9.97883
▁(9,	-9.97968
▁map	-9.9798
▁palindrome	-9.97986
▁put	-9.97996
▁patterns	-9.98007
▁Parameters	-9.98117
▁investment	-9.98155
▁actual	-9.98204
yl	-9.98222
▁letter	-9.98302
di	-9.98367
▁recent	-9.98378
->	-9.98404
ik	-9.98423
▁master	-9.98424
top	-9.98475
▁US	-9.98495
▁et	-9.98596
▁remain	-9.98603
▁memory	-9.98606
▁longest	-9.98648
▁instance	-9.98796
?**	-9.98838
api	-9.98899
ship	-9.9895
▁Analysis	-9.9902
▁outside	-9.99065
IN	-9.99098
If	-9.99122
▁sales	-9.9913
▁turn	-9.99215
go	-9.99263
▁film	-9.9936
▁server	-9.99457
38	-9.99468
▁[0,	-9.99504
idx	-9.99524
New	-9.9955
▁subject	-9.99573
▁addition	-9.99598
▁behind	-9.99679
▁having	-9.99712
▁remember	-9.99746
ted	-9.99779
▁maintain	-9.99782
▁modern	-9.99875
▁determined	-9.99897
rt	-9.99911
OH	-9.99913
▁paths	-9.99951
▁^	-9.99979
om	-10.0003
▁database	-10.0007
▁XOR	-10.0008
▁extra	-10.0008
44	-10.0015
▁medical	-10.0017
▁levels	-10.0022
▁followed	-10.0022
▁though	-10.0028
=8	-10.0029
▁phase	-10.0037
▁2000	-10.0039
les	-10.0039
}_	-10.0045
What	-10.0046
▁ba	-10.0049
▁yet	-10.0054
▁cultural	-10.0057
▁matter	-10.0058
▁smaller	-10.006
▁----------	-10.0066
▁processes	-10.0071
▁track	-10.0072
à	-10.0078
pa	-10.0078
▁friend	-10.0085
▁enthusiast	-10.0086
▁-------	-10.0089
▁techniques	-10.0089
▁respectively	-10.009
CO	-10.0097
▁goals	-10.0109
▁living	-10.011
undirected	-10.0112
2:	-10.0115
49	-10.0116
▁29	-10.0119
▁Based	-10.0125
old	-10.0127
▁ever	-10.0132
▁safe	-10.0138
gen	-10.0146
}{4}	-10.015
▁Group	-10.0155
char	-10.0162
▁members	-10.0165
▁Both	-10.0172
}}{	-10.0177
which	-10.0181
▁success	-10.0182
▁(0	-10.0185
(10)	-10.0186
non	-10.0186
▁early	-10.0187
Type	-10.0189
use	-10.019
ade	-10.019
ron	-10.0196
▁THE	-10.0196
▁World	-10.0199
uck	-10.0201
▁Earth	-10.0202
▁Pall	-10.0209
3.	-10.0215
70	-10.0216
▁wave	-10.0218
▁highest	-10.0224
▁moves	-10.0226
ear	-10.023
▁fixed	-10.0234
▁interactions	-10.0241
},\	-10.0243
▁collection	-10.0248
▁optimization	-10.0252
br	-10.0254
،	-10.026
lan	-10.0261
empty	-10.0263
▁combination	-10.0267
-1)	-10.0268
weight	-10.0272
▁ground	-10.0275
9,	-10.0283
even	-10.0284
ions	-10.0284
▁players	-10.0285
white	-10.0287
▁super	-10.0291
=9	-10.0291
dot	-10.0291
▁basic	-10.0297
▁provides	-10.0303
pe	-10.0307
▁Galaxy	-10.031
▁Explanation	-10.0312
False	-10.032
▁Jamie	-10.0324
ster	-10.0338
8,	-10.0341
▁divide	-10.0348
address	-10.035
▁Hence	-10.0351
▁woman	-10.0356
05	-10.0356
、	-10.0361
▁train	-10.0362
▁yields	-10.0364
▁Samsung	-10.0371
▁running	-10.0374
▁hypothesis	-10.0374
▁scenario	-10.0374
▁customer	-10.0379
▁по	-10.038
▁10,	-10.0391
▁Dunhill	-10.0392
▁Traptor	-10.0398
▁electron	-10.0401
▁ValueError	-10.0406
last	-10.0421
▁mathematical	-10.0431
ẹ	-10.0445
▁lunch	-10.0446
▁stop	-10.0447
▁Me	-10.0452
▁Model	-10.0452
app	-10.0453
▁location	-10.0453
02	-10.0454
▁major	-10.0458
artist	-10.0461
ni	-10.0463
hi	-10.0469
ten	-10.047
▁Lemon	-10.0473
▁Pixel	-10.0485
▁star	-10.0493
ය	-10.0496
▁Go	-10.05
▁Get	-10.0503
▁Bella	-10.0507
▁hard	-10.0508
▁allowed	-10.0513
run	-10.0523
▁actions	-10.0524
▁percentage	-10.0529
ock	-10.0534
▁twice	-10.054
39	-10.054
▁author	-10.0541
▁User	-10.0547
▁34	-10.0555
▁relevant	-10.0565
can	-10.0568
bb	-10.057
▁library	-10.0573
ification	-10.0576
car	-10.0577
д	-10.058
▁compared	-10.0581
Number	-10.0582
{(	-10.0593
▁Timothy	-10.0594
▁31	-10.0601
chi	-10.0609
"}]}}	-10.0613
▁cycles	-10.0616
▁setting	-10.0617
▁universe	-10.0621
▁var	-10.0624
▁columns	-10.0625
▁math	-10.0627
▁idea	-10.0632
▁2022	-10.0638
-10	-10.0642
ம்	-10.0647
}{3}	-10.0653
col	-10.0657
▁Team	-10.0661
▁Some	-10.0662
▁strength	-10.0663
▁status	-10.0668
▁Dragonfruit	-10.0673
▁Only	-10.0678
п	-10.068
description	-10.0689
mi	-10.069
▁ensures	-10.0691
circ	-10.0696
▁Darkness	-10.0703
▁built	-10.0703
▁near	-10.0704
light	-10.0704
)*	-10.0705
String	-10.0708
▁War	-10.071
▁eating	-10.0712
▁gcd	-10.0713
400	-10.0718
▁equivalent	-10.0728
▁scale	-10.0734
▁forces	-10.0734
▁regular	-10.0739
null	-10.0739
▁dictionaries	-10.0745
▁stir	-10.0752
▁description	-10.0753
0000	-10.0761
script	-10.0766
▁stay	-10.077
ada	-10.077
▁economic	-10.0775
json	-10.0778
▁currently	-10.078
ل	-10.08
=1,	-10.0806
▁feature	-10.0808
her	-10.0814
/2	-10.0819
▁files	-10.0824
▁trying	-10.0832
▁requirements	-10.0836
▁Sentence	-10.084
▁His	-10.0853
▁Sony	-10.0866
js	-10.0868
▁spin	-10.0877
▁Na	-10.0881
_5	-10.0881
5}	-10.0882
ors	-10.0885
09	-10.0886
▁Dane	-10.089
▁patients	-10.0895
location	-10.0895
▁soup	-10.0895
▁dict	-10.0911
▁drink	-10.0912
т	-10.0918
▁okay	-10.092
}}{\	-10.092
▁NOT	-10.0926
▁strategy	-10.0928
▁weights	-10.0932
▁val	-10.0934
▁12)	-10.0937
ual	-10.0938
▁records	-10.0944
For	-10.0947
▁chain	-10.0956
▁representation	-10.0957
▁Review	-10.0962
▁won	-10.0967
content	-10.0968
▁13)	-10.0968
▁People	-10.0969
▁evaluate	-10.0982
US	-10.0983
ible	-10.0984
з	-10.0985
Text	-10.0986
'(	-10.0989
▁services	-10.099
▁property	-10.0993
▁inter	-10.0997
▁Butterscotch	-10.0998
▁political	-10.1
▁URL	-10.1005
▁substring	-10.1012
▁label	-10.1014
▁intervals	-10.1019
▁central	-10.1022
।	-10.1029
▁engagement	-10.1032
()`	-10.1034
numbers	-10.1036
+2	-10.1052
prime	-10.1059
Alice	-10.1064
ef	-10.1065
▁checks	-10.1065
ی	-10.1085
▁John	-10.1089
▁policy	-10.1091
▁Make	-10.1091
▁analyzing	-10.1092
mm	-10.1093
dog	-10.1094
▁shift	-10.1099
▁forward	-10.1099
▁identity	-10.1101
▁domain	-10.1104
▁rates	-10.1106
▁Mo	-10.1106
▁MC	-10.1107
lic	-10.1111
▁news	-10.1111
rightarrow	-10.1116
width	-10.1119
▁places	-10.1124
04	-10.1125
items	-10.1128
▁exceed	-10.1143
▁meeting	-10.1143
ර	-10.1145
▁Over	-10.1147
label	-10.1151
▁{\	-10.1153
వ	-10.1161
▁web	-10.1164
▁kg	-10.1165
▁Huawei	-10.1165
7)	-10.1169
▁Cost	-10.1175
▁ask	-10.1176
since	-10.1185
>>	-10.1188
▁material	-10.1189
▁government	-10.1196
▁dimensions	-10.12
where	-10.12
▁55	-10.1201
▁tool	-10.1203
▁anti	-10.1206
▁planning	-10.1208
▁guide	-10.1215
Determine	-10.1217
^*	-10.1221
▁motion	-10.1227
▁на	-10.1234
▁['	-10.1238
▁Define	-10.1239
▁satisfies	-10.1242
ee	-10.1242
▁countries	-10.1245
▁depth	-10.1256
▁stability	-10.1257
▁**[	-10.1262
▁spend	-10.127
po	-10.128
▁increases	-10.1281
▁fan	-10.1285
▁Solution	-10.1285
▁dialogue	-10.1291
fish	-10.13
▁Their	-10.1306
▁Title	-10.131
emb	-10.131
▁0.0	-10.1311
▁taking	-10.1311
{2\	-10.132
mer	-10.1331
▁transformation	-10.1334
ة	-10.1334
ical	-10.1335
▁variance	-10.134
▁Why	-10.134
tro	-10.134
▁independent	-10.134
▁appropriate	-10.1346
▁sign	-10.1348
м	-10.1356
op	-10.1362
(2,	-10.1369
▁transition	-10.137
ever	-10.1374
о	-10.1384
▁heat	-10.1387
→1	-10.1388
▁0.7	-10.1388
▁liters	-10.139
▁internal	-10.1391
▁triangle	-10.1393
▁400	-10.1398
▁0.9	-10.1403
▁girl	-10.141
team	-10.1412
▁Xperia	-10.1414
▁Function	-10.1416
We	-10.1419
annotations	-10.142
▁goes	-10.1434
▁$3	-10.1436
ED	-10.1438
▁moving	-10.1443
▁configuration	-10.1445
с	-10.1446
▁OnePlus	-10.1448
"]}	-10.1449
▁});	-10.1451
▁demand	-10.1452
▁plot	-10.1456
37	-10.1457
Value	-10.1458
height	-10.1465
▁mid	-10.1465
▁learn	-10.1466
▁st	-10.1467
["	-10.1468
ai	-10.1481
▁Test	-10.1483
▁para	-10.1484
▁fifth	-10.1488
▁fact	-10.1498
▁traditional	-10.15
▁movie	-10.1502
}{6}	-10.1505
ber	-10.1506
46	-10.1507
و	-10.151
first	-10.1511
=1}^	-10.1511
▁sometimes	-10.1514
▁15)	-10.1514
0.0	-10.1514
▁external	-10.152
▁practices	-10.1522
space	-10.1523
▁narrative	-10.153
▁later	-10.1533
▁fire	-10.1534
train	-10.154
▁offer	-10.1541
▁stock	-10.1543
▁journey	-10.1547
ice	-10.1548
▁session	-10.1561
▁yield	-10.1569
ging	-10.1569
▁identify	-10.1575
▁big	-10.1576
▁sa	-10.1583
error	-10.1584
95	-10.1584
▁hold	-10.1591
▁(1)	-10.1593
▁reduction	-10.1597
▁(10,	-10.1598
▁article	-10.1599
qui	-10.1599
▁larger	-10.1602
▁integration	-10.1612
03	-10.1616
▁"",	-10.1618
▁stories	-10.162
72	-10.1623
ldots	-10.1626
▁spaghetti	-10.1628
▁default	-10.1628
▁ring	-10.1636
▁Implement	-10.1646
▁14)	-10.1648
▁pain	-10.1651
▁High	-10.1657
De	-10.1661
▁send	-10.1667
kin	-10.167
Fi	-10.1674
न	-10.1676
bmatrix	-10.1676
▁thought	-10.1676
▁ends	-10.1678
▁indicating	-10.168
▁United	-10.1682
▁na	-10.1684
▁bar	-10.1689
▁fit	-10.17
▁grilled	-10.1701
ر	-10.1707
▁press	-10.1708
م	-10.1708
▁taken	-10.171
08	-10.1712
▁science	-10.172
▁Man	-10.172
▁accuracy	-10.1723
د	-10.1728
2]	-10.1729
▁col	-10.1733
▁active	-10.1741
▁box	-10.1745
▁El	-10.175
▁created	-10.1751
group	-10.1755
mathbb	-10.1756
▁practical	-10.1758
ung	-10.1759
▁isinstance	-10.1763
▁education	-10.1763
▁""},	-10.1764
–5	-10.1766
▁cigar	-10.1767
▁std	-10.1777
tree	-10.1782
ard	-10.1786
▁literature	-10.179
99	-10.1794
85	-10.1799
▁tasked	-10.1806
ons	-10.1808
▁States	-10.1808
ler	-10.181
▁Substituting	-10.1811
work	-10.1816
▁static	-10.1824
▁men	-10.1824
▁shape	-10.1825
▁interaction	-10.1827
ham	-10.1829
init	-10.1833
▁schedule	-10.1833
▁song	-10.1834
▁visited	-10.1839
▁el	-10.1844
▁evidence	-10.1845
▁trade	-10.1848
sort	-10.1858
stdin	-10.1864
▁act	-10.1866
65	-10.1866
.")	-10.1885
float	-10.1886
▁parameter	-10.1888
ER	-10.1889
pos	-10.1893
▁alone	-10.1893
▁City	-10.1894
▁win	-10.1896
▁buy	-10.1898
50,	-10.19
▁front	-10.1908
▁separate	-10.1916
4}	-10.1916
▁beyond	-10.1918
match	-10.1925
▁Mar	-10.1929
ey	-10.193
▁operator	-10.1932
ale	-10.1942
▁minimal	-10.1943
range	-10.1944
▁connection	-10.1945
ative	-10.1949
▁~	-10.1956
but	-10.1965
{3	-10.1965
▁view	-10.1967
я	-10.1972
que	-10.1979
▁hands	-10.1981
den	-10.1981
▁5:	-10.1989
fe	-10.1993
-3	-10.2005
▁Dis	-10.2007
ise	-10.2017
SO	-10.202
board	-10.2021
▁đ	-10.2024
nan	-10.2029
▁live	-10.203
fa	-10.2031
▁Art	-10.2035
▁report	-10.2037
▁leaving	-10.2044
▁horses	-10.2047
▁choices	-10.2071
41	-10.2073
▁division	-10.2078
world	-10.2079
▁awọn	-10.2088
▁jug	-10.2089
Example	-10.2092
▁pixel	-10.2093
▁studies	-10.2094
▁180	-10.2095
▁np	-10.2097
lines	-10.2113
base	-10.2119
OR	-10.2124
bi	-10.2124
▁maybe	-10.2125
$,	-10.2126
▁challenge	-10.2128
rin	-10.2129
▁cm	-10.2137
▁presence	-10.2139
▁didn	-10.2139
ke	-10.2142
▁interested	-10.215
message	-10.2154
53	-10.2156
=10	-10.2156
▁apply	-10.2158
NO	-10.2159
▁CO	-10.2161
59	-10.2162
▁reverse	-10.2169
து	-10.2176
ff	-10.2181
▁prevent	-10.2192
▁York	-10.2194
▁ability	-10.22
▁concentration	-10.2201
bo	-10.2202
▁dark	-10.221
[2])	-10.2211
png	-10.2223
▁keeper	-10.2226
▁holds	-10.2231
г	-10.2238
வ	-10.2238
▁TO	-10.224
▁bonds	-10.2242
▁exchange	-10.2245
dx	-10.2246
▁simply	-10.2247
▁Expected	-10.2257
▁Return	-10.2263
43	-10.2267
ach	-10.2267
▁bool	-10.2269
▁platform	-10.2272
▁pay	-10.2278
000	-10.2281
▁comes	-10.2282
book	-10.2286
▁consists	-10.2288
tag	-10.2288
▁able	-10.2291
≤	-10.2298
▁fi	-10.2302
close	-10.2305
▁"<	-10.2308
▁women	-10.2311
ator	-10.2312
▁express	-10.2312
▁dynamic	-10.2313
^2)	-10.2315
▁[2,	-10.2322
▁Car	-10.2327
▁lot	-10.2337
77	-10.2337
▁{}	-10.2338
mon	-10.2339
class	-10.2339
▁stage	-10.234
▁sums	-10.2342
▁longer	-10.2348
61	-10.235
▁shared	-10.2355
▁consecutive	-10.2365
▁doing	-10.2366
è	-10.2376
▁define	-10.238
▁quick	-10.2381
off	-10.2382
▁0.01	-10.2388
َ	-10.2392
)^2}	-10.2393
▁stable	-10.24
▁pass	-10.2403
▁client	-10.2408
▁essential	-10.2412
this	-10.2412
▁iris	-10.2418
▁tokens	-10.242
None	-10.2421
ped	-10.2426
ell	-10.2427
78	-10.2428
93	-10.2433
port	-10.2434
AL	-10.2434
▁looks	-10.2436
▁sources	-10.2444
Bob	-10.2448
▁wide	-10.246
▁Assuming	-10.2461
ర	-10.2464
▁visual	-10.2467
iv	-10.2469
▁framework	-10.2471
box	-10.2478
▁இ	-10.2488
▁df	-10.249
▁fully	-10.2494
▁plant	-10.2498
▁mis	-10.2503
र	-10.2505
It	-10.2506
▁songs	-10.2507
oo	-10.2508
wa	-10.2512
lt	-10.2519
▁(2)	-10.2521
▁category	-10.2523
▁20)	-10.2526
▁errors	-10.2526
▁angular	-10.2527
▁involving	-10.2533
▁sentences	-10.2534
▁verify	-10.2538
+4	-10.2541
▁Ex	-10.2549
av	-10.2551
▁patient	-10.2551
pre	-10.2553
54	-10.2554
▁issue	-10.2556
▁Design	-10.2556
)=	-10.256
▁finding	-10.256
▁effectiveness	-10.2563
ran	-10.2565
▁trust	-10.2566
part	-10.257
0)	-10.2572
▁crucial	-10.2586
▁orchid	-10.2587
▁towards	-10.259
▁save	-10.2603
▁Would	-10.2605
▁Two	-10.2607
}{2	-10.2608
LE	-10.261
▁attack	-10.2611
▁Power	-10.2615
▁likes	-10.2618
▁tr	-10.2621
▁decision	-10.2621
▁premise	-10.2626
0.00	-10.2628
▁degrees	-10.2632
▁lilies	-10.2641
▁boba	-10.2645
▁actually	-10.2647
▁Remember	-10.2648
▁16)	-10.2652
-4	-10.2656
▁allow	-10.2657
▁pop	-10.2659
▁sun	-10.266
▁implementation	-10.2661
▁Le	-10.2661
▁2.5	-10.2663
▁stress	-10.2664
и	-10.2664
values	-10.2666
▁threshold	-10.2666
▁neighbors	-10.2666
wi	-10.2666
langle	-10.2667
▁monthly	-10.2673
▁capital	-10.2675
ology	-10.2678
Co	-10.2682
▁phrase	-10.2685
▁emotional	-10.2685
▁carnations	-10.2686
-1}	-10.2691
▁password	-10.2692
▁structures	-10.2696
но	-10.2697
▁momentum	-10.2703
yellow	-10.2706
▁&=	-10.2709
cost	-10.2709
▁objects	-10.2709
▁Equation	-10.271
{5}	-10.2711
ت	-10.2722
800	-10.2723
[6]	-10.2725
▁eater	-10.2731
▁Li	-10.2733
▁record	-10.2736
▁participants	-10.274
How	-10.2744
onic	-10.2748
51	-10.2755
▁wind	-10.2757
▁device	-10.2768
▁getting	-10.2771
▁consistent	-10.2771
74	-10.2776
ct	-10.2779
▁China	-10.278
▁bouquet	-10.279
df	-10.279
ல்	-10.2792
▁tax	-10.2805
▁concise	-10.2808
▁primary	-10.2809
▁curve	-10.281
63	-10.2814
lar	-10.2815
ick	-10.2823
▁geometric	-10.2824
▁designed	-10.2828
ම	-10.2841
▁projects	-10.2842
▁*(	-10.2846
▁log	-10.2855
▁17.	-10.2855
▁particle	-10.2871
▁coefficient	-10.2871
81	-10.2874
+3	-10.2876
83	-10.2878
▁talk	-10.2884
▁contact	-10.2889
న	-10.2892
▁started	-10.2893
▁enhance	-10.2901
▁quickly	-10.2901
align	-10.2902
▁**1.	-10.2912
ING	-10.2912
▁clean	-10.2917
▁receive	-10.2918
▁daffodils	-10.2919
▁computer	-10.2925
tal	-10.2927
▁swap	-10.2931
▁predict	-10.2933
▁signal	-10.2946
▁counts	-10.2948
▁handling	-10.2949
▁papers	-10.2955
▁materials	-10.2955
={	-10.296
lemon	-10.2964
52	-10.2966
62	-10.2968
▁filled	-10.2968
▁concept	-10.2969
▁electrons	-10.2972
ail	-10.2976
cap	-10.298
▁setup	-10.2982
▁Di	-10.2982
▁String	-10.2985
▁Sum	-10.2986
Item	-10.2988
▁42	-10.3
▁American	-10.3
AR	-10.3005
▁ball	-10.3009
▁seems	-10.301
▁solving	-10.3012
▁SQL	-10.3016
▁64	-10.3017
▁areas	-10.3018
2.5	-10.3018
▁efficient	-10.302
An	-10.302
96	-10.3034
▁digit	-10.3036
▁keyword	-10.3038
▁species	-10.3041
▁Sa	-10.3041
ì	-10.3043
▁fast	-10.3043
*,	-10.3045
▁ideas	-10.3069
▁nested	-10.3071
ast	-10.3072
▁cause	-10.3074
pt	-10.3076
=0,	-10.3077
eta	-10.3077
▁Mr	-10.3083
product	-10.3088
▁не	-10.3096
▁auto	-10.3105
▁piece	-10.3106
▁giving	-10.3109
";	-10.3112
▁و	-10.3116
▁sold	-10.3116
▁plane	-10.3116
▁relative	-10.3119
න	-10.3122
▁distances	-10.3126
ub	-10.3126
▁idx	-10.3132
oc	-10.3137
▁screen	-10.3138
bird	-10.3142
▁healthcare	-10.3145
desert	-10.3145
ان	-10.3151
▁(4	-10.3153
▁spends	-10.3154
Yes	-10.3155
▁extract	-10.3159
▁Pre	-10.3166
▁info	-10.3167
▁≈	-10.3167
[8]	-10.3168
▁wa	-10.3172
▁generated	-10.3176
User	-10.3178
art	-10.318
▁income	-10.3182
ec	-10.3183
mb	-10.3184
▁calculation	-10.3188
▁Convert	-10.3193
ud	-10.3194
▁atoms	-10.3198
▁En	-10.3203
My	-10.3204
au	-10.3205
lon	-10.3207
▁custom	-10.3214
Image	-10.3215
▁privacy	-10.3218
ú	-10.3226
▁Smith	-10.3227
▁audience	-10.3233
nabla	-10.324
▁Hi	-10.3242
ਨ	-10.3244
▁Ma	-10.3249
▁op	-10.3256
▁explanation	-10.3257
92	-10.3257
▁ready	-10.3257
▁Inter	-10.3259
];	-10.326
post	-10.326
tr	-10.3261
...”	-10.3262
field	-10.3269
▁su	-10.3269
air	-10.327
▁novel	-10.3275
▁wall	-10.3277
▁subsets	-10.3284
▁happy	-10.3286
21,	-10.3289
▁000	-10.3293
ious	-10.3298
▁0\)	-10.3299
300	-10.3299
Br	-10.3302
▁asked	-10.3303
ش	-10.3303
▁CH	-10.3306
▁artist	-10.3306
82	-10.3308
▁hydrogen	-10.331
▁classical	-10.3318
hour	-10.3321
ju	-10.3324
▁experiences	-10.333
pop	-10.3335
aw	-10.3335
▁reference	-10.3337
minimize	-10.3338
▁State	-10.3341
▁1}	-10.3343
country	-10.3345
_0^	-10.3346
ب	-10.3346
3}	-10.3348
words	-10.3348
▁usage	-10.3353
▁partition	-10.3353
▁33	-10.3354
du	-10.3356
sim	-10.3359
▁gain	-10.3359
ular	-10.336
▁completed	-10.3362
▁playing	-10.3364
73	-10.3367
▁250	-10.3368
▁gets	-10.337
▁**2.	-10.337
88	-10.3371
▁wrong	-10.3371
▁problems	-10.3376
▁Open	-10.3377
▁அ	-10.3379
н	-10.338
▁Type	-10.3382
▁land	-10.3385
▁forest	-10.3385
▁leaves	-10.3396
▁six	-10.34
ries	-10.3401
66	-10.3401
▁\):**	-10.3401
▁(`	-10.3401
▁lost	-10.3402
97	-10.3403
distance	-10.3405
▁Year	-10.3409
▁ko	-10.341
▁prefix	-10.3413
ning	-10.3414
▁particularly	-10.3415
▁depends	-10.3419
▁situation	-10.3428
▁boundary	-10.343
▁discount	-10.3433
▁Vi	-10.3434
AT	-10.3434
brown	-10.3435
▁creative	-10.3436
1]	-10.3438
▁labels	-10.3444
▁Start	-10.3446
▁dist	-10.3446
▁mental	-10.3455
600	-10.3457
This	-10.3471
▁thing	-10.3472
▁forming	-10.3478
▁layer	-10.3481
▁derived	-10.3482
▁Give	-10.3484
х	-10.3485
▁regions	-10.3486
+1}	-10.3491
▁segment	-10.3492
mark	-10.3492
▁dynamics	-10.3492
▁distributed	-10.3493
ow	-10.3498
▁describe	-10.3505
free	-10.3514
open	-10.3515
57	-10.3517
▁calories	-10.3518
0}	-10.3521
▁compare	-10.3522
++)	-10.3522
He	-10.353
[3])	-10.353
の	-10.3531
}")	-10.3534
▁articles	-10.3536
▁reduced	-10.3537
local	-10.354
▁transform	-10.3542
purple	-10.3544
▁formed	-10.3552
▁increased	-10.3553
nd	-10.3554
л	-10.3556
page	-10.3562
hu	-10.3563
▁Inc	-10.3566
\))	-10.3567
71	-10.3571
ier	-10.3575
ray	-10.3575
▁environmental	-10.3582
▁site	-10.3582
most	-10.3588
(3	-10.3589
▁treatment	-10.3596
▁galaxy	-10.3596
▁mi	-10.36
▁During	-10.3603
ja	-10.3605
▁toward	-10.3606
(6)	-10.3607
▁involved	-10.3607
▁translation	-10.3608
▁importance	-10.3611
paper	-10.3612
ration	-10.3624
ations	-10.3626
▁requests	-10.3631
▁usually	-10.3635
lat	-10.3648
query	-10.365
valid	-10.3658
img	-10.3659
,000,000	-10.3665
ze	-10.3666
▁adding	-10.3676
▁net	-10.3678
ව	-10.3678
▁ex	-10.3681
horse	-10.3684
▁google	-10.3685
include	-10.3687
▁transfer	-10.3689
ping	-10.369
▁sh	-10.369
▁culture	-10.3695
▁abstract	-10.3697
▁physics	-10.3698
Conclusion	-10.3699
86	-10.3699
(2\	-10.3701
▁reasoning	-10.3704
▁card	-10.3706
^1	-10.3707
й	-10.3707
▁Absolutely	-10.3708
▁к	-10.3715
paperId	-10.3715
http	-10.3715
58	-10.3723
uff	-10.3724
▁load	-10.3725
▁popular	-10.3727
AC	-10.3728
▁ma	-10.3733
|\	-10.3737
▁produce	-10.3738
▁attention	-10.3741
1.5	-10.3742
)|	-10.3742
▁prompt	-10.3751
▁core	-10.3752
▁dy	-10.3756
▁upon	-10.3758
king	-10.3759
▁lowercase	-10.3763
ES	-10.3764
lib	-10.3769
▁nearest	-10.3769
ify	-10.377
▁க	-10.3772
▁smile	-10.378
56	-10.378
▁successful	-10.3781
▁&&	-10.3782
▁seek	-10.3783
▁oxygen	-10.3789
▁logistic	-10.3793
case	-10.3795
kan	-10.3796
author	-10.3802
mid	-10.3804
angle	-10.3805
ga	-10.3805
{1}{\	-10.381
6}	-10.3812
▁sessions	-10.3818
dimensional	-10.3821
89	-10.3823
−1	-10.3825
▁compound	-10.3826
{4	-10.383
▁soft	-10.3839
▁progress	-10.3844
AI	-10.3844
cur	-10.3867
ase	-10.3868
ley	-10.388
zz	-10.3885
▁Are	-10.3885
view	-10.3888
▁Include	-10.389
▁observed	-10.3892
ue	-10.3901
)**:	-10.391
vert	-10.3917
▁HTML	-10.3924
త	-10.3927
event	-10.3927
▁wait	-10.3931
▁filter	-10.3939
)$	-10.3939
▁punctuation	-10.3942
ர்	-10.3945
▁electric	-10.3948
▁adjust	-10.3948
▁absolute	-10.395
ч	-10.395
▁Even	-10.3956
lin	-10.3956
▁explain	-10.3961
▁limited	-10.3963
▁mall	-10.3966
ama	-10.3969
▁entry	-10.397
5%	-10.3975
▁website	-10.3978
▁figure	-10.3983
spect	-10.3989
▁args	-10.3992
▁0.02	-10.3994
▁war	-10.3997
▁shown	-10.3997
▁accompanied	-10.4
▁tuples	-10.4002
▁rotation	-10.4004
are	-10.4012
▁approaches	-10.4015
▁Summary	-10.402
▁replace	-10.4022
–6	-10.4024
▁Product	-10.4025
scale	-10.4027
ified	-10.4029
▁ب	-10.4029
ose	-10.4038
▁bring	-10.4041
▁Bo	-10.4043
▁initially	-10.4049
average	-10.4049
▁feedback	-10.4053
▁[3,	-10.4054
▁particles	-10.4059
▁lack	-10.4059
act	-10.4059
semantic	-10.4061
त	-10.4066
▁nothing	-10.4067
ர	-10.4067
98	-10.4069
ò	-10.4075
▁Cl	-10.4083
▁formation	-10.4086
▁applied	-10.4088
▁axis	-10.4093
▁soon	-10.4097
▁Clue	-10.4099
^2}{	-10.4099
▁bottom	-10.4107
coffee	-10.4109
▁hospital	-10.411
pizza	-10.4113
');	-10.4114
[7]	-10.4115
▁resource	-10.4119
▁visit	-10.412
action	-10.4122
▁secure	-10.4127
▁offers	-10.4128
▁Instead	-10.4128
▁member	-10.414
▁17)	-10.4144
istic	-10.4144
▁received	-10.4145
▁international	-10.4146
▁18.	-10.4148
▁nums	-10.4153
▁ت	-10.4155
▁Case	-10.4157
fred	-10.4162
▁Which	-10.4164
Invalid	-10.4171
▁accurate	-10.4173
ger	-10.4176
▁applications	-10.418
iris	-10.4188
{5	-10.4189
76	-10.4192
Oh	-10.4193
ura	-10.4199
der	-10.4202
har	-10.4204
▁(11,	-10.4205
Count	-10.4208
▁typing	-10.4211
ding	-10.4219
▁examples	-10.4221
ko	-10.4221
(4,	-10.4226
да	-10.4229
▁believe	-10.423
db	-10.4233
▁600	-10.4241
▁ال	-10.4244
▁feeling	-10.4244
▁continuous	-10.4246
▁hidden	-10.4246
–4	-10.4249
▁correctly	-10.4253
▁topic	-10.4258
▁providing	-10.4259
active	-10.4264
cc	-10.4266
brit	-10.4266
▁option	-10.4272
ни	-10.4272
▁board	-10.4274
vo	-10.4277
tle	-10.4278
–1	-10.4279
power	-10.4282
Set	-10.4282
IC	-10.4286
ੀ	-10.4289
ط	-10.429
Do	-10.4292
▁party	-10.4294
▁cards	-10.4298
ز	-10.4298
ft	-10.4302
sequence	-10.4311
gar	-10.4312
$$	-10.4313
▁JavaScript	-10.4319
ல	-10.4321
▁fine	-10.4326
temp	-10.4328
▁37	-10.4329
ੁ	-10.4331
source	-10.4332
▁testing	-10.4336
67	-10.4337
gg	-10.4344
ع	-10.4345
▁guidelines	-10.4346
▁(5	-10.4349
She	-10.4353
points	-10.4361
▁batches	-10.4362
▁م	-10.4364
▁squares	-10.4368
▁maintaining	-10.437
▁almost	-10.437
aa	-10.4371
▁host	-10.4377
91	-10.4378
▁Work	-10.4378
▁pieces	-10.4378
▁slow	-10.4381
SE	-10.4383
0.4	-10.4386
username	-10.4388
▁existing	-10.4395
▁obtained	-10.4397
▁ho	-10.4404
▁differences	-10.4406
ш	-10.4413
▁===	-10.4419
milk	-10.4419
▁json	-10.4425
Why	-10.443
dane	-10.4431
68	-10.4435
▁floor	-10.4437
▁19.	-10.4441
▁queue	-10.4449
prince	-10.4453
▁Where	-10.4453
▁Second	-10.4457
→3	-10.4465
▁Ro	-10.4469
ਿ	-10.4471
▁academic	-10.4473
▁covered	-10.4479
▁purpose	-10.448
▁console	-10.4481
▁highly	-10.4481
▁Calculation	-10.4485
bella	-10.4487
target	-10.4494
▁relationships	-10.4499
ack	-10.45
▁reality	-10.4505
▁door	-10.4505
▁requirement	-10.4505
soup	-10.4511
mar	-10.4519
▁movement	-10.4524
▁beginning	-10.4526
cent	-10.453
▁ancient	-10.4532
▁decay	-10.4533
▁2020	-10.4537
▁official	-10.4544
▁satisfied	-10.4545
aka	-10.4548
▁trip	-10.4549
▁IP	-10.455
▁PM	-10.4551
▁society	-10.4554
va	-10.4554
▁Ensure	-10.456
Input	-10.4561
Part	-10.4565
zero	-10.4573
▁morning	-10.4574
▁fear	-10.4582
stir	-10.4583
▁reducing	-10.459
high	-10.4594
ک	-10.4598
▁employees	-10.4598
▁optimize	-10.46
▁ka	-10.4609
men	-10.4609
0.5	-10.4611
▁gradient	-10.4618
spaghetti	-10.4623
▁End	-10.4627
▁comprehensive	-10.463
▁assuming	-10.4632
▁walk	-10.4648
pall	-10.465
▁keywords	-10.4655
▁token	-10.4657
[]	-10.4657
▁factorial	-10.4659
▁Pa	-10.466
▁garden	-10.4667
▁license	-10.4668
▁industry	-10.4669
ya	-10.4673
▁conclude	-10.4675
grilled	-10.4678
▁nationalities	-10.468
▁themselves	-10.4683
▁warm	-10.4688
orchid	-10.4695
}\).	-10.4698
▁late	-10.4708
ල	-10.4713
▁occur	-10.4715
▁rights	-10.4721
▁calculations	-10.4723
▁stones	-10.4724
▁origin	-10.4724
ص	-10.4728
matrix	-10.4729
▁proper	-10.473
▁exponential	-10.4732
carnations	-10.4733
daffodils	-10.4733
▁corner	-10.4733
ric	-10.4734
';	-10.4739
▁atom	-10.4743
▁detail	-10.4758
ли	-10.4758
▁included	-10.4758
▁prices	-10.4763
▁ob	-10.4766
lay	-10.4767
▁Sp	-10.4775
hy	-10.4777
▁counter	-10.478
cal	-10.4781
lilies	-10.4789
ign	-10.4795
dis	-10.4795
▁measures	-10.48
▁reaches	-10.4806
long	-10.4806
▁blood	-10.4811
▁23)	-10.4813
ी	-10.4814
ка	-10.4817
=2,	-10.482
-01	-10.4821
в	-10.4826
▁mechanism	-10.4826
▁potentially	-10.4832
▁computational	-10.4833
▁office	-10.4834
▁Math	-10.4836
▁5000	-10.4838
▁secret	-10.4839
darkness	-10.484
▁intensity	-10.4845
▁Ca	-10.485
▁expansion	-10.4852
button	-10.4857
ological	-10.4858
▁Premise	-10.4861
ments	-10.4861
▁ny	-10.4868
▁slightly	-10.4871
ins	-10.4874
▁sections	-10.4875
▁May	-10.4876
▁19)	-10.4878
pro	-10.4882
▁Super	-10.4883
▁effectively	-10.4885
▁border	-10.4885
Your	-10.4888
▁Hamiltonian	-10.4894
ح	-10.4896
2024	-10.4897
▁decide	-10.4901
▁closed	-10.4901
▁runs	-10.4908
ра	-10.4909
ph	-10.4911
▁allocation	-10.4912
()))	-10.4915
⊕	-10.4917
▁yourself	-10.4918
▁eigenvalues	-10.4918
▁storage	-10.4921
2}	-10.4922
german	-10.4923
ய	-10.4926
▁Project	-10.4931
▁race	-10.4937
check	-10.495
▁skin	-10.4952
▁Women	-10.4956
iz	-10.4959
▁Se	-10.496
▁treat	-10.496
▁gentle	-10.4961
View	-10.4965
79	-10.4969
▁spread	-10.4985
billy	-10.4986
▁mode	-10.499
▁enjoy	-10.4991
▁18)	-10.4994
▁plus	-10.4994
▁inputs	-10.5003
▁intersection	-10.5003
▁metal	-10.5005
▁argument	-10.5007
▁install	-10.5009
▁Col	-10.501
1000	-10.5024
timothy	-10.5029
▁sequences	-10.5031
balance	-10.5032
р	-10.5032
version	-10.5033
▁copyright	-10.5035
oy	-10.5035
chinese	-10.5037
▁scored	-10.5037
▁cities	-10.504
▁neighbor	-10.5044
▁leave	-10.5053
ren	-10.5053
▁suggest	-10.5055
▁platforms	-10.5056
▁protect	-10.5057
boba	-10.5059
▁proportional	-10.5064
▁placed	-10.5065
(3,	-10.5078
▁promote	-10.5081
▁Ra	-10.5087
▁assigned	-10.5087
▁thus	-10.5094
amount	-10.5095
▁1.0	-10.5095
▁parallel	-10.5098
▁principles	-10.5105
▁38	-10.5109
butterscotch	-10.5114
▁took	-10.5117
{10	-10.5118
▁Dict	-10.512
▁harm	-10.5122
ew	-10.5131
ki	-10.5132
▁matching	-10.5133
ọ	-10.5135
vi	-10.5136
▁intermediate	-10.5137
▁himself	-10.5141
▁invalid	-10.5141
▁Japanese	-10.5152
▁Star	-10.5153
flow	-10.5154
க	-10.516
▁customers	-10.516
=0.	-10.5161
▁powerful	-10.5161
▁subsequent	-10.5169
dragonfruit	-10.5174
▁played	-10.5174
vers	-10.5174
▁successfully	-10.5175
ense	-10.5178
▁contribute	-10.5181
▁Code	-10.5186
you	-10.5191
ord	-10.5194
nums	-10.5194
▁removed	-10.5196
▁finally	-10.5199
10,	-10.5199
▁reviews	-10.5204
Rightarrow	-10.5204
ane	-10.5206
ని	-10.5207
▁alternative	-10.5208
▁Lo	-10.5211
▁birth	-10.5219
▁Ch	-10.522
print	-10.5225
▁divided	-10.5232
[4])	-10.5237
▁easy	-10.5238
▁derive	-10.5238
find	-10.5244
Un	-10.5246
^5	-10.5249
▁("	-10.5251
▁grams	-10.5251
-12	-10.5253
▁assignment	-10.5254
▁planet	-10.5254
mexican	-10.5264
▁dance	-10.5264
▁sharing	-10.5274
▁says	-10.5276
▁Every	-10.5277
▁suggests	-10.528
rem	-10.5283
▁Batch	-10.5292
▁Ho	-10.5292
▁significantly	-10.5292
▁coordinate	-10.5293
RE	-10.5297
▁cur	-10.5298
las	-10.5298
!**	-10.5301
▁outcomes	-10.5303
▁sea	-10.5305
ల	-10.5312
▁weather	-10.5313
sp	-10.5315
hbar	-10.5319
Date	-10.5323
dunhill	-10.5334
ker	-10.5344
▁blocks	-10.5347
rot	-10.5351
▁regression	-10.536
▁fuel	-10.5364
▁ṣe	-10.5374
87	-10.5376
▁fall	-10.5377
dp	-10.5387
via	-10.5388
▁connect	-10.5389
def	-10.5396
▁peak	-10.5396
ст	-10.5397
▁entries	-10.5403
▁trees	-10.5408
▁Subtract	-10.5413
MA	-10.5414
▁anyone	-10.5416
▁TV	-10.5417
RO	-10.5418
han	-10.5421
[\	-10.5424
▁integrate	-10.5426
▁Generate	-10.5431
Al	-10.5433
▁11,	-10.5435
▁measure	-10.5442
ole	-10.5442
▁Ga	-10.5446
Pro	-10.5452
sta	-10.5461
▁coming	-10.5461
([	-10.5465
ui	-10.5469
Natsuki	-10.5476
change	-10.5478
5,000	-10.548
▁Ar	-10.5482
ર	-10.5486
▁spacetime	-10.5486
__(	-10.549
scholar	-10.5491
▁San	-10.5493
▁Apple	-10.5494
++	-10.5501
▁samsung	-10.5505
▁conflict	-10.5506
▁onto	-10.5507
ust	-10.5509
block	-10.551
▁naa	-10.5512
^0	-10.5518
":[{"	-10.5519
));	-10.5519
▁sports	-10.5522
▁steady	-10.5523
▁ப	-10.5527
ita	-10.5529
▁trans	-10.5529
che	-10.5532
▁Black	-10.5535
▁construct	-10.555
gu	-10.5552
File	-10.5553
▁sony	-10.5554
▁acceleration	-10.5554
true	-10.5554
▁processed	-10.5555
▁achieved	-10.5558
▁oneplus	-10.5561
"**	-10.5561
▁era	-10.5564
▁gravity	-10.5565
win	-10.5567
▁huawei	-10.5568
▁xperia	-10.5568
▁[[	-10.5568
hand	-10.557
”,	-10.5571
ਾ	-10.5572
▁22)	-10.5581
▁plt	-10.5585
game	-10.5587
sion	-10.5587
▁laws	-10.5589
▁micro	-10.5591
ash	-10.5594
▁computing	-10.5594
info	-10.5594
cl	-10.561
▁teams	-10.5613
▁cap	-10.5614
rit	-10.5621
▁Maybe	-10.5622
▁Energy	-10.5623
MS	-10.5624
wo	-10.5631
ਲ	-10.5632
▁assistance	-10.5634
▁brand	-10.5634
▁experiment	-10.5638
▁bio	-10.5639
▁insights	-10.564
▁2021	-10.5642
▁middle	-10.5644
-5	-10.5648
▁draw	-10.5654
."}}	-10.5656
▁shortest	-10.5656
▁metric	-10.5659
▁pa	-10.5661
→4	-10.5662
▁manager	-10.5669
س	-10.5672
ਤ	-10.5677
▁derivatives	-10.5678
▁focusing	-10.5678
▁specifically	-10.5681
▁YouTube	-10.5681
▁tackle	-10.5684
▁Calculating	-10.5686
▁**3.	-10.5688
▁0.25	-10.5692
af	-10.5692
▁Fe	-10.5693
Player	-10.5693
za	-10.5696
▁girls	-10.5703
▁operators	-10.5703
mit	-10.5707
▁solid	-10.5709
ж	-10.5711
▁combinations	-10.5711
1}	-10.5712
▁correlation	-10.5713
▁town	-10.5714
▁Ha	-10.5719
▁Simplify	-10.5721
output	-10.5721
ano	-10.5723
▁Task	-10.5724
▁equals	-10.5728
▁belly	-10.5731
▁explicit	-10.5733
▁circular	-10.5734
Hello	-10.5736
▁Mac	-10.5737
▁involve	-10.5739
▁collected	-10.5739
▁10%	-10.5745
▁finds	-10.5746
▁technical	-10.5747
▁French	-10.5752
▁minute	-10.5752
▁die	-10.5755
▁classic	-10.5756
▁***	-10.576
ට	-10.5761
*.	-10.5764
eo	-10.5764
▁none	-10.5764
ope	-10.5764
some	-10.5768
▁AM	-10.577
▁Thank	-10.5773
▁classes	-10.5774
▁calm	-10.5781
001	-10.5783
▁death	-10.5785
▁permutations	-10.579
▁symbols	-10.5796
▁Book	-10.5797
verse	-10.5798
."?	-10.5803
▁shop	-10.5804
▁delay	-10.5805
/3	-10.5807
▁marketing	-10.5809
▁denote	-10.581
▁72	-10.5812
▁Post	-10.5822
ق	-10.5827
0.6	-10.5831
84	-10.5832
▁link	-10.5834
search	-10.5836
▁leads	-10.5837
only	-10.5837
▁supply	-10.5843
▁immediately	-10.5849
▁Conclusion	-10.5849
▁Sure	-10.585
ك	-10.5853
-19	-10.5854
▁generally	-10.5856
▁desired	-10.5857
▁modulo	-10.5858
▁Remove	-10.586
▁produced	-10.5863
NH	-10.5865
ez	-10.5866
▁grow	-10.587
DE	-10.5873
▁25)	-10.5874
2023	-10.5877
▁ideal	-10.588
▁Br	-10.5881
▁resistance	-10.5881
–2	-10.5883
▁mechanics	-10.5884
edge	-10.5885
▁(12,	-10.5886
▁videos	-10.5888
▁channel	-10.5893
}(\	-10.59
▁park	-10.5906
ા	-10.591
ably	-10.5915
▁retrieve	-10.592
equiv	-10.5921
▁explicitly	-10.5922
▁Below	-10.5923
rap	-10.5924
▁spatial	-10.5927
▁returned	-10.5928
▁20%	-10.5929
[1]=1	-10.5929
ira	-10.5929
▁magic	-10.5931
dagger	-10.5932
kg	-10.5933
▁container	-10.5933
▁manage	-10.5934
▁Count	-10.5935
week	-10.5956
▁push	-10.5967
▁claim	-10.5976
▁quite	-10.5979
▁pool	-10.5982
Button	-10.5983
▁¬	-10.5983
ன	-10.5985
▁messages	-10.5988
sorted	-10.5995
cell	-10.5996
▁Divide	-10.6001
▁interface	-10.6006
▁companies	-10.6007
▁updated	-10.6009
▁strictly	-10.601
▁6:	-10.6011
▁alcohol	-10.6011
▁USD	-10.6015
place	-10.6019
And	-10.6021
▁educational	-10.6021
0.8	-10.6022
ency	-10.6025
wise	-10.6032
▁65	-10.6034
▁implies	-10.6036
▁Jug	-10.6039
▁**"	-10.604
Get	-10.6047
▁policies	-10.6052
го	-10.6073
8)	-10.6075
+5	-10.6076
▁station	-10.6077
▁Water	-10.6078
David	-10.6078
par	-10.6081
▁Line	-10.6083
▁Sort	-10.6087
▁definition	-10.6088
▁Game	-10.6096
是	-10.6099
▁indicates	-10.6104
ف	-10.6111
▁topics	-10.6112
▁sleep	-10.6115
▁allowing	-10.6117
▁diverse	-10.6119
▁gender	-10.6121
▁за	-10.6122
{1}{1	-10.6133
▁helps	-10.6133
▁10,000	-10.6134
▁Standard	-10.6135
▁tone	-10.6136
gan	-10.6138
]}	-10.6138
▁updates	-10.614
ਕ	-10.614
▁Hypothesis	-10.6142
binom	-10.6143
→2	-10.6144
▁Learning	-10.6146
USD	-10.6151
▁covers	-10.6151
▁అ	-10.6153
]**	-10.6155
▁tech	-10.6156
▁wild	-10.6157
-15	-10.6157
ace	-10.6161
▁scientific	-10.6161
Info	-10.6165
ST	-10.617
od	-10.617
▁fraction	-10.6172
column	-10.6175
▁Social	-10.6175
..."	-10.6182
▁21)	-10.6183
▁boolean	-10.619
▁thinking	-10.619
▁reduces	-10.6191
▁85	-10.6191
▁reactions	-10.6192
▁affect	-10.6192
▁met	-10.6195
unit	-10.6197
▁corresponds	-10.62
---|---|---|---|	-10.6204
▁prev	-10.6206
▁improvement	-10.6206
area	-10.6209
▁gene	-10.621
▁mo	-10.6214
▁[\	-10.6215
unique	-10.6215
▁copy	-10.6216
▁у	-10.6219
ender	-10.6222
month	-10.6226
▁located	-10.6226
▁arrays	-10.6227
▁mapping	-10.6231
All	-10.6233
graph	-10.6249
AS	-10.6252
▁Sam	-10.6256
video	-10.6256
▁female	-10.6261
Ex	-10.6264
▁selection	-10.6264
▁bad	-10.6265
▁Choose	-10.6269
That	-10.627
▁ng	-10.6271
▁package	-10.6271
home	-10.6278
ும்	-10.6279
▁labor	-10.6286
emp	-10.6287
)^	-10.6288
▁holding	-10.6289
▁confidence	-10.629
ky	-10.6291
▁};	-10.6294
▁truth	-10.6295
▁$5	-10.6295
cm	-10.6296
▁detection	-10.6296
▁notes	-10.6297
vent	-10.63
▁noise	-10.6301
><	-10.6301
▁Player	-10.6307
▁decided	-10.6311
▁career	-10.6311
▁depending	-10.6315
ла	-10.632
▁symbol	-10.6321
▁showing	-10.6324
house	-10.6327
▁road	-10.6327
ala	-10.6331
▁photo	-10.6335
^{-1}	-10.6335
▁$4	-10.6336
▁guess	-10.6343
▁Ka	-10.6344
two	-10.6347
▁Mu	-10.6348
play	-10.6348
▁fair	-10.6349
lst	-10.6356
}}{2	-10.636
▁proceed	-10.6361
▁temp	-10.6363
▁saw	-10.6364
▁Green	-10.6365
▁powers	-10.6366
ME	-10.6371
med	-10.6374
▁await	-10.6374
ji	-10.6374
▁discuss	-10.6377
▁structured	-10.6379
▁44	-10.6388
load	-10.6389
▁breath	-10.6397
ක	-10.6398
▁Main	-10.6398
▁Ni	-10.6403
▁cookies	-10.6407
Note	-10.6409
room	-10.6412
)))	-10.6416
▁IN	-10.6417
AB	-10.6419
sha	-10.6423
▁Take	-10.6423
▁Bar	-10.6423
▁ending	-10.6424
“	-10.643
▁throughout	-10.643
▁integrating	-10.6435
ன்	-10.6439
101	-10.6447
▁[4,	-10.6451
▁breakdown	-10.6456
▁watch	-10.646
▁(3)	-10.6461
▁diameter	-10.6462
▁links	-10.6462
▁organization	-10.6462
Let	-10.6466
ı	-10.6466
ming	-10.6467
news	-10.6468
க்க	-10.6471
▁Area	-10.6472
cases	-10.6473
ర్	-10.6473
▁Cat	-10.6477
Color	-10.6477
69	-10.648
bin	-10.6484
▁musician	-10.6494
▁national	-10.6497
▁receives	-10.6502
▁align	-10.6504
▁hit	-10.6505
▁39	-10.6506
▁Sh	-10.6507
▁49	-10.6508
yan	-10.651
▁Out	-10.6515
▁Naruto	-10.6517
▁route	-10.652
▁wins	-10.6527
frame	-10.6532
▁flat	-10.6536
MM	-10.6539
▁1.2	-10.6539
▁chemical	-10.6549
▁rank	-10.6553
த	-10.6554
ero	-10.6554
▁Student	-10.6554
IT	-10.6564
स	-10.6565
▁camera	-10.6568
456	-10.6569
including	-10.657
7}	-10.6572
▁im	-10.6576
▁became	-10.6577
▁band	-10.6582
▁advice	-10.6582
uk	-10.6584
▁deeper	-10.6585
▁translate	-10.6585
▁plants	-10.6588
other	-10.6591
▁conversion	-10.6593
ika	-10.6593
▁rating	-10.6607
▁touch	-10.6609
▁inner	-10.6609
being	-10.661
▁efficiently	-10.6614
lor	-10.6618
▁pull	-10.6623
Thank	-10.6625
[2]=1	-10.6626
▁sell	-10.6626
▁Mi	-10.6627
CE	-10.6631
▁simplicity	-10.6631
▁generation	-10.6633
▁Node	-10.6634
▁gauge	-10.6636
▁clubroom	-10.6642
▁exceeds	-10.6643
▁pile	-10.6643
▁ا	-10.6645
▁mu	-10.6647
span	-10.6648
▁animal	-10.665
▁posts	-10.6653
Index	-10.6659
▁duplicate	-10.6659
lip	-10.6668
▁engine	-10.6668
-8	-10.667
▁Person	-10.667
▁catch	-10.6673
hr	-10.6673
such	-10.6674
на	-10.6675
nes	-10.668
iti	-10.668
▁oil	-10.668
>"	-10.6683
▁rectangle	-10.6686
21.	-10.6689
▁expressions	-10.6693
▁overlap	-10.6694
parent	-10.6694
▁listed	-10.6696
▁ha	-10.6696
EN	-10.6702
▁disease	-10.6704
(-\	-10.6709
}^{	-10.671
▁reason	-10.671
▁canvas	-10.671
▁boundaries	-10.6711
▁bo	-10.6712
ea	-10.6712
▁agent	-10.6713
▁categories	-10.672
ble	-10.6721
▁ki	-10.6724
▁settings	-10.6724
ria	-10.6733
java	-10.6733
eng	-10.6736
125	-10.6741
DD	-10.6744
ound	-10.6749
▁paragraphs	-10.6749
}^2	-10.6751
}_3	-10.6752
cle	-10.6754
▁spirit	-10.6756
life	-10.6756
▁addresses	-10.6758
▁fix	-10.6758
▁||	-10.6763
▁God	-10.6774
▁develop	-10.6774
▁devices	-10.6778
▁bank	-10.6787
▁cold	-10.6789
cy	-10.679
▁damage	-10.6793
TH	-10.6795
State	-10.6796
ి	-10.6797
▁stars	-10.6801
ture	-10.6802
▁ਸ	-10.6803
▁conversation	-10.6805
---------------	-10.6805
IS	-10.6807
▁kilometers	-10.6807
▁47	-10.6807
▁merge	-10.6808
Of	-10.6811
▁risks	-10.6813
▁transaction	-10.6813
▁à	-10.6818
round	-10.6819
▁ones	-10.682
▁depend	-10.6821
▁port	-10.6824
ado	-10.6829
2+	-10.6831
ल	-10.6835
▁Points	-10.6839
hal	-10.6842
▁quantity	-10.6842
▁outline	-10.6842
▁cut	-10.6842
▁pos	-10.6843
▁≡	-10.6846
Con	-10.6846
▁communities	-10.6847
▁consumption	-10.6849
ong	-10.6851
▁Java	-10.6851
▁ਹੈ	-10.6852
ਸ	-10.6854
▁Chi	-10.6856
▁drive	-10.6864
▁harmful	-10.6866
▁worth	-10.6869
▁profile	-10.687
▁unless	-10.6873
▁boy	-10.6883
▁subtree	-10.6889
▁architecture	-10.6893
▁1;	-10.6893
▁published	-10.6897
94	-10.6898
▁Empire	-10.6903
}}}	-10.6907
tick	-10.6913
▁26)	-10.6914
matic	-10.6918
▁comments	-10.6922
▁ta	-10.6923
▁movies	-10.6923
▁Poisson	-10.6935
▁son	-10.6942
▁FROM	-10.6944
{1}	-10.6947
Add	-10.695
▁substitute	-10.6953
▁zeros	-10.6954
▁discussion	-10.6958
▁checking	-10.6961
▁contributions	-10.6961
east	-10.6964
see	-10.6966
▁cloud	-10.6968
▁10000	-10.6971
▁Ba	-10.6972
−2	-10.6972
lim	-10.6975
▁margin	-10.6976
▁hear	-10.6979
ali	-10.6979
lam	-10.6979
[5])	-10.6979
▁101	-10.6982
▁theoretical	-10.6982
lit	-10.6984
▁geometry	-10.6985
▁employee	-10.6985
▁Ta	-10.6989
rial	-10.6989
On	-10.699
ata	-10.6997
ivity	-10.6998
▁approximate	-10.7
▁Up	-10.7004
▁Color	-10.701
[2],	-10.7011
Size	-10.7013
▁benefits	-10.7019
▁median	-10.702
its	-10.7022
Height	-10.7023
▁algorithms	-10.7027
CA	-10.7028
▁multiply	-10.7031
▁visits	-10.7032
factor	-10.7032
▁responses	-10.7035
▁del	-10.7044
▁Once	-10.7046
▁Non	-10.7047
zy	-10.7051
▁sky	-10.7054
▁mix	-10.7058
ال	-10.7068
▁performed	-10.707
▁solar	-10.7071
1.0	-10.7071
▁bits	-10.7074
▁rock	-10.7074
svg	-10.708
ем	-10.7081
▁decrease	-10.7083
2-	-10.7087
▁Update	-10.7097
linear	-10.71
▁},	-10.7101
any	-10.7102
ean	-10.7103
[9]	-10.7104
▁intelligence	-10.7105
ات	-10.7109
▁Har	-10.7109
▁innovation	-10.7109
▁Change	-10.7111
ver	-10.7111
▁structural	-10.7115
Array	-10.7115
▁acts	-10.7117
▁palindromic	-10.7118
▁separately	-10.7119
▁linked	-10.7122
▁roles	-10.7122
▁guidance	-10.7125
▁rise	-10.7127
ball	-10.7127
▁magnetic	-10.7129
▁attacks	-10.7133
▁clues	-10.7134
As	-10.7135
▁opportunities	-10.7135
×	-10.7136
▁release	-10.7138
▁herself	-10.7138
3]	-10.7143
element	-10.7146
well	-10.7146
{4}	-10.7156
Message	-10.7156
▁Management	-10.7159
▁ẹ	-10.716
1",	-10.716
–3	-10.7163
▁faster	-10.7163
ory	-10.7166
▁Value	-10.7168
ku	-10.717
▁felt	-10.7173
▁primes	-10.7175
▁semi	-10.7176
txt	-10.7178
–7	-10.7182
digit	-10.7184
▁engineer	-10.7185
ட	-10.719
▁Amazon	-10.7194
▁Sun	-10.7198
▁stand	-10.7199
▁precise	-10.72
▁concerns	-10.7201
ਗ	-10.7203
▁23.	-10.7203
▁protein	-10.7204
▁candidate	-10.7206
▁engaging	-10.7209
▁relation	-10.7213
aga	-10.7214
ob	-10.7216
▁Instagram	-10.7216
▁gravitational	-10.7219
▁Per	-10.722
▁rare	-10.722
▁prints	-10.7221
▁vertical	-10.7221
क	-10.7226
▁fresh	-10.7241
ки	-10.7242
▁des	-10.7243
▁kan	-10.7244
12,	-10.7247
▁networks	-10.7248
▁throw	-10.725
▁causing	-10.7251
▁creation	-10.7261
▁scenarios	-10.7262
major	-10.7266
energy	-10.7266
▁ten	-10.7269
▁father	-10.7269
▁duplicates	-10.7273
▁arguments	-10.7277
▁uniform	-10.7283
ා	-10.7284
▁expect	-10.7284
ु	-10.7288
▁implementing	-10.7291
ao	-10.7292
த்த	-10.7294
▁comp	-10.7294
tes	-10.73
▁Wait	-10.7301
▁Po	-10.7308
bu	-10.7309
▁ice	-10.7313
▁infinite	-10.7314
AN	-10.7317
▁subtract	-10.7323
domain	-10.7324
▁identical	-10.7326
Not	-10.7327
▁cool	-10.733
▁font	-10.733
now	-10.7336
▁fundamental	-10.7338
▁climate	-10.7341
▁download	-10.7341
▁dec	-10.7344
▁obtain	-10.7353
SP	-10.7358
0°	-10.7361
ે	-10.7362
ulation	-10.7366
▁Qu	-10.7368
▁tensor	-10.7369
ight	-10.7372
cycle	-10.7372
▁ku	-10.7381
ا	-10.7381
Product	-10.7382
▁balanced	-10.7385
loo	-10.7388
ica	-10.7391
▁album	-10.7394
▁chart	-10.7394
▁sensitive	-10.7396
ਾਂ	-10.7397
▁significance	-10.74
▁conclusion	-10.74
▁South	-10.7401
▁expand	-10.7404
▁chapter	-10.7407
▁module	-10.7409
▁-3	-10.7409
chain	-10.7411
▁II	-10.7411
3.5	-10.7414
▁bound	-10.7422
ants	-10.7423
ва	-10.7427
▁diagonal	-10.7428
Sub	-10.7431
▁par	-10.7434
ો	-10.7437
show	-10.7439
▁Its	-10.7445
^{-0.1	-10.7445
tail	-10.7447
aba	-10.7449
▁sentiment	-10.7456
▁smooth	-10.7457
abc	-10.7458
▁strange	-10.7459
fi	-10.7462
sur	-10.7465
▁|\	-10.7474
50,000	-10.7475
▁promise	-10.7476
rus	-10.7478
star	-10.7481
2000	-10.7484
▁crime	-10.7486
▁came	-10.7499
▁о	-10.7508
cut	-10.7509
late	-10.7514
120	-10.7518
").	-10.7519
ident	-10.752
util	-10.7521
▁sent	-10.7524
▁construction	-10.7528
▁tension	-10.7532
▁molecule	-10.7532
▁appearance	-10.7533
dir	-10.7534
ோ	-10.7535
▁54	-10.7537
▁22.	-10.7538
▁Thanks	-10.754
RI	-10.7542
1`	-10.7542
ि	-10.7542
▁charges	-10.7546
var	-10.7549
▁purchase	-10.7551
_2)	-10.7556
▁upper	-10.7561
▁hot	-10.7562
▁UK	-10.7564
vin	-10.7567
▁substitution	-10.7568
▁Of	-10.757
▁Formulate	-10.757
▁offering	-10.7573
▁Sarah	-10.7575
IL	-10.7575
▁responsible	-10.7587
▁pounds	-10.7588
▁connecting	-10.7596
व	-10.7597
neq	-10.7601
_{0}^{	-10.7602
▁110	-10.7604
5000	-10.7606
б	-10.7608
▁56	-10.761
▁commands	-10.7615
▁Most	-10.762
media	-10.7622
Man	-10.7623
▁passage	-10.7627
▁mission	-10.7627
create	-10.7627
axis	-10.7628
▁suitable	-10.763
category	-10.7633
▁documents	-10.7635
▁limits	-10.7635
▁abilities	-10.7636
ీ	-10.7637
▁15,	-10.7637
John	-10.7639
র	-10.7639
▁arm	-10.764
▁refers	-10.7642
rust	-10.7644
▁adapt	-10.7648
▁1500	-10.7651
▁"{\	-10.7652
First	-10.7656
▁June	-10.7657
▁expressed	-10.766
▁Tri	-10.7662
▁(13,	-10.7664
▁comfort	-10.767
▁feasible	-10.7674
rain	-10.7675
End	-10.7677
▁marks	-10.7678
▁Who	-10.768
▁Quantum	-10.7681
▁University	-10.7682
mission	-10.7682
cr	-10.7689
▁attend	-10.7691
න්	-10.7696
▁ਪ	-10.7697
tain	-10.7699
▁Initial	-10.7699
▁drop	-10.7701
ros	-10.7704
▁mask	-10.7706
▁Union	-10.7706
reg	-10.7708
make	-10.7712
▁21.	-10.7714
▁ph	-10.7717
▁mentioned	-10.7718
▁validation	-10.7718
pr	-10.7719
▁800	-10.7719
▁fictional	-10.772
ans	-10.7724
ON	-10.7726
ov	-10.7726
bound	-10.7733
▁adds	-10.7733
pl	-10.7739
▁lies	-10.7742
▁modified	-10.7743
_2}	-10.7744
▁Light	-10.7745
▁unknown	-10.7745
ä	-10.7749
▁went	-10.775
క	-10.7753
▁robust	-10.7759
yo	-10.776
without	-10.7762
▁ke	-10.7765
▁bright	-10.7767
ار	-10.7769
▁Description	-10.7771
▁Ge	-10.7772
▁illegal	-10.7772
lot	-10.7776
update	-10.7781
▁worry	-10.7783
▁Our	-10.7783
▁gold	-10.7784
je	-10.7787
▁24.	-10.7789
▁exp	-10.7794
▁Mark	-10.7797
ged	-10.7803
your	-10.7805
Object	-10.7805
{6}	-10.7806
omb	-10.7806
_1)	-10.7809
▁traffic	-10.781
pan	-10.7812
ush	-10.7813
▁traversal	-10.7814
Node	-10.7817
▁li	-10.7822
▁adjacency	-10.7822
▁football	-10.7822
-20	-10.7825
3:	-10.7826
▁approximation	-10.7827
▁beautiful	-10.7832
▁subarray	-10.7837
▁arms	-10.7842
2`	-10.7843
▁assign	-10.7844
ye	-10.7846
▁syntax	-10.785
▁vectors	-10.7851
▁trends	-10.7854
▁campaign	-10.7855
▁incorrect	-10.7856
}{5}	-10.7856
▁Other	-10.7858
▁tail	-10.786
▁parents	-10.7861
Var	-10.7862
▁vision	-10.7863
▁entropy	-10.7874
ET	-10.7874
▁clinical	-10.7875
▁Su	-10.7876
▁dan	-10.7878
▁programs	-10.788
2=	-10.7881
▁basis	-10.7884
final	-10.7887
య	-10.7891
▁tournament	-10.7894
cu	-10.7897
▁Mon	-10.7897
mic	-10.7901
ending	-10.7902
▁creates	-10.7904
▁routine	-10.7904
്	-10.7907
▁joy	-10.7908
▁sister	-10.7911
ini	-10.7912
▁locations	-10.7914
related	-10.7915
token	-10.7918
Point	-10.7923
role	-10.7925
project	-10.7926
Team	-10.7926
square	-10.7927
mathrm	-10.7929
▁consequences	-10.7931
▁transactions	-10.7932
random	-10.7933
▁Men	-10.7933
filter	-10.7934
}",	-10.7936
ு	-10.7938
▁crowd	-10.794
▁studying	-10.7947
і	-10.7948
specific	-10.7948
▁24)	-10.795
section	-10.7952
At	-10.7952
▁Best	-10.7953
ump	-10.7953
So	-10.7953
lia	-10.7954
▁(\(\	-10.7956
α	-10.7957
▁earlier	-10.7957
abs	-10.7961
▁bitwise	-10.7962
▁SVG	-10.7963
▁em	-10.7965
▁13,	-10.7966
▁blend	-10.7966
ம	-10.797
iya	-10.7972
▁Health	-10.7974
▁validate	-10.7981
▁Jane	-10.7988
▁Search	-10.7988
store	-10.7989
▁horizontal	-10.7989
zi	-10.7994
▁led	-10.7998
▁Bi	-10.8001
(7)	-10.8003
▁commercial	-10.8003
▁developed	-10.8003
▁Like	-10.8004
▁Simplifying	-10.8005
▁Structure	-10.8008
ية	-10.8009
{1}{3}	-10.8012
▁objective	-10.8015
▁reflect	-10.8018
க்	-10.8023
→5	-10.8024
在	-10.8025
▁indeed	-10.8026
▁gift	-10.8027
▁gently	-10.8029
▁simplifies	-10.8031
tu	-10.8035
▁methyl	-10.8037
▁reflection	-10.8038
▁dia	-10.8038
▁repeat	-10.804
▁slowly	-10.8044
▁inclusive	-10.8044
ේ	-10.8044
},{"	-10.8046
_0}	-10.8046
▁"2023-	-10.8047
▁libraries	-10.8048
▁pond	-10.8051
ep	-10.8051
▁Probability	-10.8052
▁Research	-10.8055
▁stick	-10.8056
999	-10.8057
ી	-10.8057
▁precision	-10.8058
Yeah	-10.806
和	-10.8065
▁Image	-10.8065
▁keeping	-10.8067
}]}	-10.8067
[3]=1	-10.8071
▁43	-10.8075
SS	-10.8077
eb	-10.8077
▁freedom	-10.8077
▁240	-10.8079
PS	-10.808
▁por	-10.808
Lambda	-10.8082
▁radio	-10.8083
▁Tr	-10.8085
▁audio	-10.8091
ṣ	-10.8092
▁straight	-10.8094
qr	-10.8098
▁clearly	-10.81
▁arithmetic	-10.81
▁watching	-10.8101
150	-10.8102
ati	-10.8105
▁join	-10.8108
▁turns	-10.8108
images	-10.811
用	-10.8111
▁trace	-10.8112
-6	-10.8116
▁entailed	-10.8117
▁seem	-10.8121
*:	-10.8123
▁sphere	-10.8126
oon	-10.8127
▁concepts	-10.8128
ే	-10.8129
asi	-10.8133
▁Back	-10.8136
gr	-10.8139
▁accounts	-10.8142
▁analytical	-10.8143
rd	-10.8143
fit	-10.8147
▁breaks	-10.8148
▁carrying	-10.8148
▁CSS	-10.8152
mail	-10.8152
▁Many	-10.8156
▁amplitude	-10.8158
900	-10.8158
0.7	-10.8158
▁android	-10.8159
EC	-10.8161
▁older	-10.8162
▁functional	-10.8164
▁removing	-10.8164
▁quarter	-10.8164
_{10}	-10.8166
▁male	-10.8166
▁Johnson	-10.817
vector	-10.8172
▁insert	-10.8173
▁focused	-10.8175
▁competition	-10.8175
▁staff	-10.8176
PA	-10.8178
▁coloring	-10.8179
{6	-10.8179
一	-10.818
site	-10.8182
▁($	-10.8183
▁estimate	-10.8187
ா	-10.819
▁вы	-10.819
ரு	-10.8191
▁Keep	-10.8192
▁tables	-10.8196
ination	-10.8196
0%	-10.8199
▁Rate	-10.82
take	-10.8206
▁layers	-10.8206
▁King	-10.8207
▁markdown	-10.821
err	-10.821
▁completely	-10.8213
used	-10.8218
mes	-10.8218
▁12,	-10.8219
▁react	-10.8221
700	-10.8221
▁perimeter	-10.8225
pot	-10.8227
▁failure	-10.8228
▁comparison	-10.8229
▁jobs	-10.8234
▁Good	-10.8234
illa	-10.8235
▁possibly	-10.8236
▁Em	-10.8237
aries	-10.8238
▁films	-10.8244
ج	-10.8244
▁proton	-10.8245
▁Ava	-10.8247
▁fewer	-10.8248
▁firm	-10.8248
[6])	-10.8251
az	-10.8253
▁randomly	-10.8254
EL	-10.8257
-1]	-10.8258
▁(1,2)	-10.8259
▁floating	-10.8262
Model	-10.8265
▁boxes	-10.8267
▁theories	-10.8269
▁fight	-10.8269
bl	-10.827
ction	-10.8271
▁reports	-10.8273
▁tu	-10.8274
rm	-10.8277
put	-10.8278
jo	-10.8282
▁recommend	-10.8285
▁pet	-10.8285
DA	-10.8286
▁serve	-10.8286
▁arc	-10.8295
▁meta	-10.8295
▁Long	-10.8297
▁probabilities	-10.8297
250	-10.8298
ery	-10.8301
▁flight	-10.8302
0},	-10.8306
▁daughter	-10.8306
Fe	-10.8312
▁developing	-10.8315
தி	-10.8315
TA	-10.8318
▁eat	-10.8319
Element	-10.8324
▁teacher	-10.8326
▁(14,	-10.8328
FC	-10.8328
▁comment	-10.8329
▁Maria	-10.833
dr	-10.8335
ok	-10.8337
inter	-10.8338
Path	-10.8339
▁Law	-10.834
▁computation	-10.8343
▁visible	-10.8343
task	-10.8344
▁applying	-10.8347
▁contiguous	-10.8348
▁virtual	-10.835
▁Section	-10.8351
remove	-10.8352
▁52	-10.8357
Use	-10.8363
▁wanted	-10.8366
▁Gu	-10.8367
▁molecular	-10.8367
▁Japan	-10.8367
▁Correct	-10.8371
0.9	-10.8374
▁sharp	-10.8375
▁switch	-10.8375
uc	-10.8378
▁changing	-10.8383
ੇ	-10.8383
Me	-10.8385
▁magical	-10.8386
▁Support	-10.8387
▁contract	-10.839
OS	-10.839
▁Network	-10.839
▁exercise	-10.839
▁classification	-10.8391
▁2]	-10.8393
▁contrast	-10.8393
PL	-10.8398
▁tried	-10.8399
▁Does	-10.84
▁Space	-10.8403
▁identified	-10.8404
lee	-10.8405
▁department	-10.8406
▁App	-10.8406
▁feels	-10.8406
format	-10.8407
▁military	-10.8408
away	-10.8411
`:	-10.8412
1.2	-10.8416
vertex	-10.8416
▁finish	-10.8417
+\	-10.8419
Pa	-10.8428
PC	-10.8429
▁treated	-10.8432
password	-10.8435
▁(6	-10.844
complete	-10.844
ris	-10.8441
Area	-10.8443
▁template	-10.8446
arg	-10.8447
los	-10.8448
▁General	-10.8448
ics	-10.8449
▁**4.	-10.8452
▁confirm	-10.8453
256	-10.8455
CS	-10.8455
▁sugar	-10.8458
server	-10.8458
▁ship	-10.8463
▁delivery	-10.8466
▁evaluation	-10.8469
:*	-10.847
card	-10.847
▁principle	-10.8472
▁molecules	-10.8474
▁easily	-10.8475
real	-10.8476
▁shifts	-10.8477
▁enter	-10.8477
parts	-10.8477
▁weekly	-10.8478
LO	-10.8479
▁pure	-10.8481
▁Lilac	-10.8481
▁te	-10.8482
ந்த	-10.8483
▁healthy	-10.8484
ography	-10.8485
IP	-10.8495
ese	-10.8495
cho	-10.8498
=“	-10.8504
qu	-10.8504
▁для	-10.8505
▁dragon	-10.8505
▁speech	-10.8506
Frame	-10.8508
ِ	-10.8509
▁machines	-10.8509
▁metrics	-10.851
nom	-10.851
oh	-10.8512
▁Max	-10.8512
▁India	-10.8513
▁answers	-10.8518
ax	-10.8519
▁began	-10.852
▁France	-10.8521
▁Du	-10.8524
▁suit	-10.8524
0.1	-10.8529
ned	-10.8531
9}	-10.8532
▁conservation	-10.8535
▁exploring	-10.8535
just	-10.8543
phone	-10.8544
▁released	-10.8544
▁thermal	-10.8545
write	-10.8547
apple	-10.8549
cer	-10.855
"/>	-10.8554
(5,	-10.8554
▁ve	-10.8555
▁lst	-10.8557
2.0	-10.8559
▁bridge	-10.856
ු	-10.8561
▁sounds	-10.8562
▁held	-10.8563
▁7:	-10.8569
▁attributes	-10.8571
▁Top	-10.8573
▁wonder	-10.8573
Phi	-10.8574
▁wish	-10.8575
loss	-10.858
}_{\	-10.8585
Na	-10.8589
▁una	-10.859
ੱ	-10.859
▁chat	-10.8593
▁strategic	-10.8594
ind	-10.8595
▁leadership	-10.8595
▁figures	-10.8596
▁interpret	-10.86
▁"2024-	-10.8601
---------------|	-10.8606
ов	-10.8616
▁symmetric	-10.862
▁respectful	-10.862
▁brackets	-10.8621
▁supports	-10.8621
ф	-10.8622
▁Home	-10.8623
િ	-10.8623
▁credit	-10.8623
▁1200	-10.8624
▁Develop	-10.8625
▁formal	-10.8634
▁5%	-10.8635
▁Spanish	-10.8635
▁outputs	-10.8641
▁moments	-10.8642
▁В	-10.8643
ius	-10.8646
▁suggestions	-10.8648
▁efforts	-10.8653
▁prepare	-10.8654
▁1):	-10.8657
▁clock	-10.8657
{8	-10.8661
▁animation	-10.8662
▁username	-10.8663
9)	-10.8663
ிய	-10.8664
ists	-10.8666
▁(4)	-10.8675
▁respond	-10.8676
[-1]	-10.8679
▁stronger	-10.8681
▁fer	-10.8685
▁Jewelry	-10.8686
▁plays	-10.8688
▁meets	-10.8689
▁consisting	-10.869
▁America	-10.869
ari	-10.8694
▁multiplication	-10.8695
kit	-10.8696
FF	-10.8697
_1}	-10.8701
ं	-10.8707
La	-10.871
та	-10.8711
▁Hu	-10.8713
▁moles	-10.8713
▁matrices	-10.8718
00000	-10.8719
ти	-10.872
▁expenses	-10.8721
Title	-10.8721
▁criteria	-10.8723
▁carry	-10.8723
▁followers	-10.8724
days	-10.8727
hours	-10.8728
pdf	-10.8728
▁Cloud	-10.873
▁ọ	-10.873
8.8	-10.8734
▁improved	-10.8734
▁quiet	-10.8735
▁happens	-10.8736
▁41	-10.8737
ਹ	-10.8741
▁highlights	-10.8742
▁ion	-10.8744
▁walking	-10.8748
▁subsequence	-10.8748
▁genre	-10.8749
▁perhaps	-10.8756
▁Market	-10.8756
▁growing	-10.8756
▁heavy	-10.8756
#`	-10.876
,0)=	-10.876
PI	-10.8761
▁accept	-10.8761
aya	-10.8762
0]	-10.8763
iter	-10.8764
+1]	-10.8765
▁entity	-10.8769
ੰ	-10.8769
ре	-10.8769
ich	-10.877
▁standards	-10.8771
xi	-10.8772
▁weighted	-10.8773
▁ந	-10.8776
▁respective	-10.8777
=3,	-10.878
aligned	-10.8781
ates	-10.8782
Event	-10.8783
|1	-10.8784
IO	-10.8789
▁seeking	-10.8789
▁prop	-10.8791
▁rain	-10.8792
▁chance	-10.8792
▁differ	-10.8794
▁46	-10.8796
▁Path	-10.8796
ient	-10.8796
und	-10.8798
▁orbit	-10.8798
mat	-10.8801
▁lie	-10.8802
▁Night	-10.8805
▁North	-10.8808
▁tailored	-10.8808
▁Maximum	-10.8811
▁refer	-10.8812
▁maximized	-10.8813
▁Country	-10.8814
▁Station	-10.8815
▁DNA	-10.8819
ай	-10.8821
▁begin	-10.8825
▁CA	-10.8827
▁strain	-10.8833
Width	-10.8834
{10}	-10.8835
▁however	-10.8836
▁measured	-10.8838
▁Last	-10.8839
▁ਦੇ	-10.8839
Gamma	-10.884
counts	-10.8842
▁أ	-10.8843
}^	-10.8844
...)	-10.8844
▁branch	-10.8845
に	-10.8846
▁(15,	-10.8854
▁implications	-10.8854
`)	-10.8857
▁liquid	-10.8861
▁village	-10.8865
▁impossible	-10.8865
▁frequencies	-10.8865
▁skill	-10.8866
▁Park	-10.8868
▁bus	-10.8874
▁thoughts	-10.8876
గ	-10.8877
▁0.03	-10.8878
▁organizations	-10.888
▁fa	-10.888
▁weak	-10.8882
▁sites	-10.8889
▁simultaneously	-10.889
▁Da	-10.8892
▁mirror	-10.8892
odd	-10.8892
fully	-10.8895
▁stands	-10.8897
▁orbital	-10.8897
▁languages	-10.8897
▁maximizes	-10.8898
ney	-10.8899
▁ن	-10.89
ет	-10.8901
ُ	-10.8902
sample	-10.8902
▁waves	-10.8903
▁regarding	-10.8906
▁Order	-10.891
▁Finding	-10.8911
udi	-10.8912
▁Average	-10.8921
=\	-10.8923
AA	-10.8923
▁aspects	-10.8924
ena	-10.8925
vis	-10.8925
▁exhibit	-10.8927
character	-10.8931
▁Distance	-10.8931
Check	-10.8931
▁monitoring	-10.8934
ram	-10.8935
▁ක	-10.8937
tation	-10.8938
▁moral	-10.8938
▁requiring	-10.8939
द	-10.894
2024-05	-10.894
Code	-10.894
▁electronic	-10.8942
▁alternate	-10.8946
\%	-10.8953
ona	-10.8955
▁National	-10.8956
▁gave	-10.8956
▁simplify	-10.8957
▁(10	-10.8958
▁clarity	-10.8958
හ	-10.8959
▁appreciate	-10.896
▁fulfill	-10.8965
▁reached	-10.8965
▁decisions	-10.8966
▁Je	-10.8968
▁sl	-10.897
OP	-10.8972
▁writer	-10.8974
▁OF	-10.8975
7.5	-10.8977
▁theorem	-10.8977
(6,	-10.8978
ин	-10.8978
▁Machine	-10.8978
▁reversed	-10.898
▁Split	-10.8984
▁Europe	-10.8985
50.	-10.8987
▁infrastructure	-10.899
AND	-10.8991
▁inches	-10.8997
▁kids	-10.8998
amine	-10.8998
=11	-10.8998
=[	-10.9
gl	-10.9001
}]}}	-10.9002
=1:	-10.9004
[10]	-10.9006
▁despite	-10.9008
▁landscape	-10.9009
▁inspired	-10.9012
books	-10.9012
tri	-10.9012
▁hash	-10.9012
▁advance	-10.9015
▁29)	-10.9019
}]	-10.9021
eth	-10.9022
+6	-10.9022
Position	-10.9022
uma	-10.9026
ü	-10.9027
law	-10.9027
▁Price	-10.9027
▁repeated	-10.903
lum	-10.9031
▁paragraph	-10.9031
▁cubic	-10.9034
▁Pop	-10.9034
▁Science	-10.9036
▁truly	-10.904
▁bought	-10.9049
▁guaranteed	-10.9049
▁payment	-10.905
unt	-10.905
▁earnings	-10.9058
Be	-10.9061
positive	-10.9061
▁[5,	-10.9064
▁exit	-10.9065
▁waiting	-10.9068
▁winning	-10.907
ө	-10.9073
те	-10.9075
▁statistics	-10.9075
bc	-10.9077
▁và	-10.9081
ю	-10.9089
dP	-10.9089
▁50%	-10.909
▁logarithm	-10.9091
ද	-10.9092
▁School	-10.9093
▁Ko	-10.9093
making	-10.9101
▁Read	-10.9102
▁views	-10.9103
▁arises	-10.9103
▁ago	-10.9104
▁assess	-10.9105
}{6}\	-10.9106
/\	-10.9106
don	-10.9113
▁periodic	-10.9114
্	-10.9115
▁Jo	-10.9123
▁interact	-10.9123
rat	-10.9128
▁manner	-10.9132
kọ	-10.9134
ан	-10.9138
answer	-10.914
mate	-10.9142
▁closer	-10.9145
ek	-10.9147
genre	-10.915
8}	-10.915
▁rich	-10.9152
SI	-10.9153
IR	-10.9155
▁Gift	-10.9155
▁beam	-10.9156
▁dimension	-10.9159
▁golden	-10.9164
▁faces	-10.9166
Sayori	-10.9166
alt	-10.9167
▁calculating	-10.9167
ත	-10.9168
=12	-10.9169
NA	-10.9173
after	-10.9173
▁tracks	-10.9175
Hey	-10.9176
▁shares	-10.9178
▁serious	-10.9178
▁satisfying	-10.9179
▁looked	-10.9181
ette	-10.9186
0.05	-10.9189
DR	-10.9192
▁titles	-10.9194
▁-=	-10.9196
▁sexual	-10.9198
ị	-10.9199
▁artwork	-10.9201
gun	-10.9206
^{2	-10.9211
▁replaced	-10.9213
ැ	-10.9215
ili	-10.9216
▁circuit	-10.9219
ప	-10.9222
ੋ	-10.9225
▁speak	-10.9226
[0]=1	-10.9226
Is	-10.9226
▁stored	-10.9234
▁supporting	-10.9236
▁Field	-10.9238
▁reported	-10.9238
▁glass	-10.9241
▁indicate	-10.9241
/4	-10.9244
rates	-10.9245
▁attribute	-10.9251
push	-10.9252
lation	-10.9253
ino	-10.9257
process	-10.9258
▁Air	-10.9259
try	-10.926
▁carbonyl	-10.9266
▁resolution	-10.9266
ा	-10.9266
\\	-10.9266
→0	-10.9268
▁الم	-10.9272
speed	-10.9272
mean	-10.9274
AM	-10.928
-05	-10.9283
▁78	-10.9284
▁"1	-10.9286
gt	-10.9287
_0)	-10.9287
move	-10.9288
▁අ	-10.9289
▁savings	-10.9289
▁sink	-10.9289
▁dream	-10.9291
▁Language	-10.9293
ula	-10.9293
▁offset	-10.9298
duration	-10.9298
ima	-10.9301
▁More	-10.9302
▁genetic	-10.9306
▁ம	-10.9307
ෙ	-10.9309
ora	-10.9311
_6	-10.9312
€	-10.9313
▁allocated	-10.9316
▁emissions	-10.9317
3+	-10.9317
host	-10.9318
▁episode	-10.9319
▁Han	-10.9327
ket	-10.9329
▁Pen	-10.933
under	-10.9331
▁directions	-10.9336
▁ra	-10.934
AD	-10.9341
Buffer	-10.9342
ease	-10.9343
▁Free	-10.935
▁supported	-10.9351
▁உ	-10.9351
▁NAND	-10.9352
▁28.	-10.9353
uring	-10.9353
▁Monday	-10.9354
▁connections	-10.9356
-04	-10.9356
▁а	-10.9356
display	-10.9358
session	-10.9359
▁James	-10.936
▁capture	-10.9361
▁brother	-10.9368
▁3000	-10.9368
▁mixed	-10.9368
_0}{	-10.937
▁-->	-10.9372
▁snow	-10.9374
జ	-10.9379
Omega	-10.9381
▁transformations	-10.9383
▁Right	-10.9383
mph	-10.9386
▁computed	-10.9387
▁prioritize	-10.9394
▁waste	-10.94
▁Microsoft	-10.9402
▁European	-10.9403
▁amounts	-10.941
Dis	-10.941
▁Matrix	-10.941
loc	-10.9415
▁walls	-10.9417
▁festival	-10.942
▁س	-10.9422
▁bag	-10.9425
▁feed	-10.9426
▁render	-10.9427
distinct	-10.9427
Description	-10.9427
▁Real	-10.9428
▁flag	-10.9429
غ	-10.9433
▁Germany	-10.9435
rated	-10.9436
ae	-10.9437
లు	-10.944
▁opposite	-10.9446
▁resolve	-10.9447
Game	-10.9451
▁episodes	-10.9453
▁spell	-10.9455
-06	-10.9458
▁causes	-10.9461
▁begins	-10.9461
Table	-10.9462
▁monitor	-10.9462
మ	-10.9463
{7}	-10.9464
▁protection	-10.9466
OM	-10.9467
▁lu	-10.9471
▁remainder	-10.9471
▁cow	-10.9474
driven	-10.9481
pp	-10.9485
▁Length	-10.9485
RT	-10.9486
▁28)	-10.9489
▁Point	-10.9493
▁born	-10.9493
Arnold	-10.9495
▁shadow	-10.9496
rad	-10.9501
▁medium	-10.9502
▁logical	-10.9504
▁sorting	-10.9507
▁century	-10.9508
▁Error	-10.9509
▁samples	-10.9511
ా	-10.9514
▁0.75	-10.9515
ATION	-10.9516
photo	-10.9517
▁tips	-10.9518
ਮ	-10.952
▁typical	-10.9521
▁themes	-10.9522
{1}{4}	-10.9526
▁engage	-10.9527
▁lowest	-10.9532
を	-10.9532
▁buffer	-10.9533
▁في	-10.9535
*)	-10.9536
▁Ne	-10.9538
▁magnitude	-10.9539
▁statistical	-10.9544
▁tickets	-10.9544
edit	-10.9546
▁parse	-10.9549
▁po	-10.955
▁tall	-10.9556
▁beneath	-10.9559
▁Act	-10.9562
tech	-10.9563
8.5	-10.9564
]=	-10.9566
With	-10.9567
Qu	-10.9568
cha	-10.9568
pat	-10.957
crypt	-10.9571
▁pr	-10.9573
strong	-10.9574
கள்	-10.9574
▁Current	-10.9577
emo	-10.9578
▁famous	-10.9579
Result	-10.9584
ാ	-10.9585
ක්	-10.9586
sql	-10.9587
dist	-10.9588
▁heard	-10.9591
▁wearing	-10.9598
▁స	-10.9601
▁Hz	-10.9601
^6	-10.9604
▁Si	-10.9604
▁heap	-10.9607
▁File	-10.9608
▁regardless	-10.9611
(5	-10.9612
▁bias	-10.9612
▁Ja	-10.9613
math	-10.9614
▁Ben	-10.9614
▁95	-10.9616
second	-10.9616
ality	-10.9617
ப்	-10.9617
ها	-10.9619
”)	-10.9622
market	-10.9625
▁promoting	-10.9626
fer	-10.9627
▁recommended	-10.9629
▁AS	-10.9629
trans	-10.9631
▁humans	-10.9632
EM	-10.9633
▁deg	-10.9634
▁$10	-10.9636
▁transport	-10.9637
▁imagine	-10.9638
ে	-10.9639
▁Pi	-10.9643
EX	-10.9643
track	-10.9645
▁simulation	-10.9646
aving	-10.9646
roll	-10.9646
4.5	-10.9649
eq	-10.9652
aff	-10.9652
▁billion	-10.9653
▁datasets	-10.9655
▁Move	-10.9656
ро	-10.9656
▁playlist	-10.9657
▁neural	-10.9659
▁lengths	-10.9661
′	-10.9668
▁activation	-10.967
4]	-10.9672
▁Score	-10.9675
MP	-10.9675
▁leader	-10.9676
▁vowels	-10.9678
csv	-10.9679
ూ	-10.9679
tar	-10.9681
–8	-10.9683
▁من	-10.9684
▁merged	-10.9685
acc	-10.9686
▁feelings	-10.9686
▁According	-10.9686
▁endpoints	-10.9687
▁chi	-10.9688
pic	-10.9688
rant	-10.9691
arm	-10.9691
(8)	-10.9694
▁brain	-10.9695
▁findings	-10.9696
▁adventure	-10.9696
▁mention	-10.9702
=2:	-10.9704
adi	-10.9706
▁mixture	-10.9707
▁purposes	-10.9713
▁retrieved	-10.9713
▁unchanged	-10.9713
0.2	-10.9713
ور	-10.9722
▁segments	-10.9723
▁ignore	-10.9723
▁imp	-10.9723
▁Setting	-10.9728
oke	-10.9732
▁peace	-10.9732
}_{	-10.9738
person	-10.9739
▁Sha	-10.9739
dia	-10.974
▁references	-10.9742
▁Under	-10.9745
dic	-10.9748
lang	-10.975
/1	-10.9755
minute	-10.976
▁shell	-10.9762
ле	-10.9763
rest	-10.9763
▁meetings	-10.9764
▁Run	-10.9765
▁compliance	-10.9767
▁Canada	-10.977
▁sustainable	-10.9771
▁Ver	-10.9771
iva	-10.9772
▁Region	-10.9773
▁formatted	-10.9775
▁chaos	-10.9781
2,000	-10.9782
▁solved	-10.9783
àn	-10.9785
▁tests	-10.9785
1/	-10.9786
▁entities	-10.9788
▁passengers	-10.9788
▁isolated	-10.9791
rac	-10.98
▁Roman	-10.98
▁battle	-10.9801
▁carefully	-10.9803
▁3\	-10.9806
aha	-10.9807
▁'0'	-10.9813
▁GPT	-10.9815
▁bullet	-10.9816
AG	-10.9816
▁printed	-10.9817
▁wire	-10.9818
为	-10.9822
ev	-10.9825
▁Th	-10.9826
▁\)).	-10.9827
▁contributes	-10.9828
anti	-10.9828
direct	-10.9832
▁reasons	-10.9835
▁clarify	-10.9835
CC	-10.9836
▁changed	-10.9837
ન	-10.9839
`**:	-10.984
▁difficult	-10.9842
▁consistency	-10.9842
▁Remaining	-10.9846
▁leaf	-10.9847
▁filtered	-10.9847
ml	-10.9847
▁arbitrary	-10.9849
▁வ	-10.9849
▁existence	-10.9849
▁diversity	-10.985
े	-10.9851
summary	-10.9856
!}	-10.9857
0.01	-10.9858
▁2.0	-10.9858
▁2^	-10.9859
▁minor	-10.986
)`,	-10.9865
▁click	-10.9865
▁transformed	-10.9865
▁Sakura	-10.9865
)\).	-10.9865
}{2}\	-10.9868
aging	-10.9868
▁Multi	-10.9869
▁Wi	-10.987
▁Build	-10.9871
▁mechanisms	-10.9872
center	-10.9873
▁$$\	-10.9873
▁Ru	-10.9874
PO	-10.9875
▁instructions	-10.9875
▁movements	-10.9876
▁resilience	-10.9877
▁த	-10.9881
AY	-10.9887
▁encourage	-10.9888
▁TikTok	-10.9888
▁performing	-10.9895
ત	-10.9895
ь	-10.9897
▁challenging	-10.9897
ically	-10.9898
▁massive	-10.9899
cast	-10.9905
▁observer	-10.9907
▁rewrite	-10.9908
indexed	-10.991
stream	-10.991
▁signals	-10.9925
▁Initially	-10.9929
म	-10.9931
2",	-10.9932
▁converted	-10.9933
lf	-10.9933
xy	-10.9934
11,	-10.9938
▁dr	-10.9938
▁Comp	-10.9939
hex	-10.994
[4]=1	-10.9942
▁forecast	-10.9942
▁couldn	-10.9944
▁laughter	-10.9947
▁environments	-10.9951
▁ප	-10.9954
▁participant	-10.9955
▁principal	-10.9957
▁painting	-10.9958
▁engineering	-10.9959
▁technologies	-10.9959
CD	-10.996
▁stream	-10.9961
▁ਕ	-10.9963
-07	-10.9963
awa	-10.9964
directed	-10.9964
common	-10.9965
▁gap	-10.9965
▁ne	-10.9967
▁notice	-10.9971
how	-10.9971
▁26.	-10.9971
▁returning	-10.9972
getElementById	-10.9973
▁25.	-10.9975
▁Party	-10.9977
lẹ	-10.9979
▁river	-10.9983
375	-10.9984
▁resonance	-10.9987
▁Date	-10.9991
ola	-10.9993
▁27)	-10.9993
789	-10.9995
());	-10.9995
▁Head	-10.9997
▁excited	-11.0001
erg	-11.0001
▁collections	-11.0002
een	-11.0002
ు	-11.0002
avi	-11.0004
▁dedicated	-11.0007
{12	-11.0016
▁happened	-11.0016
ware	-11.0017
era	-11.0018
▁salary	-11.0019
shift	-11.0021
full	-11.0021
pri	-11.0022
▁International	-11.0022
▁sitting	-11.0023
draw	-11.0023
▁Tesla	-11.0025
ε	-11.0029
App	-11.0029
▁weekend	-11.003
▁portfolio	-11.0031
Service	-11.0035
currency	-11.0035
0.3	-11.0036
▁url	-11.004
▁Media	-11.004
UT	-11.0043
ENT	-11.0047
▁(*	-11.0048
▁chest	-11.005
rag	-11.0051
vel	-11.0053
13,	-11.0054
▁Examples	-11.0057
▁codes	-11.0058
Client	-11.0062
▁cho	-11.0065
lash	-11.0065
▁lights	-11.0065
uh	-11.0066
mal	-11.007
లో	-11.0072
night	-11.0074
▁Company	-11.0074
▁inflation	-11.0074
0}}	-11.0075
▁drawing	-11.0075
TER	-11.0076
▁couple	-11.0078
▁0.15	-11.0079
▁workshops	-11.0081
▁2-	-11.0086
ets	-11.0087
▁tag	-11.0088
▁spanning	-11.0089
▁secondary	-11.009
region	-11.009
▁los	-11.009
▁cancer	-11.009
▁outcome	-11.0091
ര	-11.0092
stone	-11.0092
/5	-11.0093
▁View	-11.0094
▁crossing	-11.0094
▁highlight	-11.0096
cor	-11.0096
▁asking	-11.0097
watch	-11.0101
than	-11.0105
aq	-11.0106
▁prove	-11.011
friendly	-11.0112
▁'1'	-11.0112
▁acc	-11.0113
(4	-11.0116
▁prior	-11.0118
▁told	-11.0118
ля	-11.0119
▁-5	-11.0119
ement	-11.0121
CR	-11.0122
▁Base	-11.0123
▁Chain	-11.0125
▁therapy	-11.0126
▁neutral	-11.0129
▁court	-11.013
ect	-11.0131
ક	-11.0132
▁intricate	-11.0134
▁assessment	-11.0135
▁trigger	-11.0135
▁yii	-11.0137
▁equipment	-11.0141
▁append	-11.0143
▁Tuple	-11.0145
UN	-11.0145
▁moon	-11.0147
▁White	-11.0149
▁ní	-11.0151
▁fans	-11.0151
BC	-11.0152
▁os	-11.0153
nal	-11.0153
▁kinetic	-11.0154
[7])	-11.0156
▁properly	-11.0156
▁Port	-11.0157
▁padding	-11.0157
▁escape	-11.016
ку	-11.0166
▁selling	-11.0171
▁concern	-11.0171
▁deeply	-11.0172
mile	-11.0172
▁estimated	-11.0172
▁Web	-11.0172
▁cumulative	-11.0173
▁leap	-11.0174
▁sc	-11.0178
eck	-11.0179
IM	-11.0188
▁finite	-11.0188
▁confusion	-11.0191
▁families	-11.0198
Context	-11.0198
▁remote	-11.02
apping	-11.0203
▁grand	-11.0206
▁ස	-11.0207
▁cars	-11.0208
▁attendees	-11.021
ê	-11.0211
MO	-11.0211
▁MOD	-11.0212
▁sector	-11.0212
Li	-11.0214
vid	-11.0216
▁optional	-11.0221
▁"$	-11.0222
`).	-11.023
▁Class	-11.0234
▁Multiply	-11.0234
ALL	-11.0235
▁capabilities	-11.024
▁benefit	-11.0242
readline	-11.025
▁2019	-11.025
де	-11.0252
▁predicted	-11.0252
во	-11.0254
▁Because	-11.0255
▁paid	-11.0257
ọ́	-11.0258
she	-11.0259
▁attempt	-11.0259
▁ஆ	-11.026
▁East	-11.0262
▁turned	-11.0263
▁execution	-11.0265
▁aim	-11.0267
ক	-11.0268
lect	-11.0274
minimum	-11.0276
Sigma	-11.0276
Yuri	-11.0278
pet	-11.0282
▁enabling	-11.0283
fo	-11.0286
Class	-11.0286
▁boost	-11.0287
ened	-11.0289
▁memo	-11.0289
overline	-11.0289
▁extension	-11.029
▁tri	-11.0291
gal	-11.0294
▁contribution	-11.0295
ida	-11.0299
▁funds	-11.0302
▁Mean	-11.0308
ਦ	-11.0309
10)	-11.0309
ute	-11.0311
▁tries	-11.0319
▁entirely	-11.0322
ony	-11.0323
ken	-11.0323
Layout	-11.0328
▁deliver	-11.0333
▁satisfaction	-11.0333
▁rec	-11.0333
▁choosing	-11.0333
client	-11.0335
ulate	-11.0336
▁continues	-11.0338
▁passed	-11.034
▁Among	-11.0341
Create	-11.0343
▁Tom	-11.0343
ras	-11.0344
▁technique	-11.0346
▁cash	-11.0346
SH	-11.035
▁vast	-11.0352
▁farm	-11.0352
lock	-11.0353
High	-11.0353
▁qui	-11.0356
care	-11.0357
1=	-11.0358
▁trial	-11.0361
▁fund	-11.0363
▁January	-11.0363
die	-11.0368
▁Constraints	-11.0369
struct	-11.0369
▁Identify	-11.037
▁sit	-11.0371
2%	-11.0371
▁kill	-11.0372
smiling	-11.0372
▁mono	-11.0373
▁144	-11.0373
phy	-11.0374
gate	-11.0375
println	-11.0378
▁fabric	-11.0379
▁5]	-11.0381
oxide	-11.0384
▁Construct	-11.0387
timestamp	-11.0387
Open	-11.0387
▁photon	-11.0388
▁bed	-11.0389
integer	-11.0391
Mar	-11.0393
ou	-11.04
vy	-11.0401
ద	-11.0403
▁awareness	-11.0403
▁raw	-11.0403
▁minimizes	-11.0404
ить	-11.0404
▁hypothetical	-11.0407
▁reflects	-11.0409
ി	-11.0412
ệ	-11.0413
auto	-11.0414
▁2025	-11.0416
▁Form	-11.0416
▁evolution	-11.0416
^{0.1	-11.0416
▁Process	-11.0417
▁signature	-11.0418
▁listen	-11.0418
og	-11.0418
best	-11.0419
▁essay	-11.042
▁emotions	-11.042
▁happen	-11.0422
service	-11.0422
▁от	-11.0425
▁Artist	-11.0425
NG	-11.0433
▁deal	-11.0433
▁opening	-11.0434
▁creativity	-11.0435
=1)	-11.0437
▁Root	-11.0437
*}	-11.0437
command	-11.0439
▁Report	-11.044
▁Despite	-11.0442
▁Security	-11.0443
urs	-11.0443
ко	-11.0444
▁Dog	-11.0445
false	-11.0447
▁influenced	-11.0449
▁careful	-11.0453
▁wear	-11.0454
▁adult	-11.0457
▁Dragon	-11.0458
▁4\	-11.0459
Di	-11.0463
▁Approach	-11.0463
▁rectangular	-11.0464
டு	-11.0471
Book	-11.0472
carbon	-11.0475
wood	-11.0476
rows	-11.0477
)\),	-11.0477
14,	-11.0478
▁pan	-11.0483
▁conduct	-11.0483
response	-11.0484
▁gather	-11.0485
▁Position	-11.0492
▁interesting	-11.0492
▁Text	-11.0493
ibility	-11.0494
▁orange	-11.0498
pur	-11.05
▁introduce	-11.05
▁(0,1)	-11.0501
ал	-11.0502
▁Planet	-11.0503
CN	-11.0509
▁recovery	-11.051
▁mountain	-11.0511
▁{0,	-11.0513
▁25%	-11.0519
pass	-11.0519
▁talking	-11.0522
Don	-11.0526
▁cups	-11.0529
▁ocean	-11.0537
▁Exception	-11.0537
-02	-11.054
▁brought	-11.0544
▁doctor	-11.0544
▁sweet	-11.0548
eur	-11.0551
▁neuro	-11.0552
া	-11.0552
▁Plan	-11.0554
ạ	-11.0563
▁grows	-11.0565
▁island	-11.0566
▁Theory	-11.0567
▁(16,	-11.0567
device	-11.0567
press	-11.0568
▁$8	-11.0569
TS	-11.0569
▁Luna	-11.0577
eve	-11.0577
▁brief	-11.0578
▁π	-11.0579
▁worked	-11.0581
▁vehicle	-11.0587
grid	-11.059
▁mol	-11.0592
▁spot	-11.0594
▁63	-11.0596
▁statements	-11.0601
▁(“	-11.0606
▁recently	-11.0606
profile	-11.0607
Line	-11.0608
(10	-11.061
▁artists	-11.0611
▁agree	-11.0611
child	-11.0613
Day	-11.0617
Cr	-11.0619
Net	-11.062
success	-11.0621
▁rooms	-11.0622
▁/>	-11.0624
то	-11.0626
serv	-11.063
Le	-11.0631
▁useful	-11.0631
▁3.5	-11.0632
▁expert	-11.0632
ition	-11.0637
review	-11.0639
ග	-11.064
bf	-11.064
aki	-11.0643
▁jump	-11.0643
clue	-11.0645
gram	-11.0646
▁enumerate	-11.0648
▁probably	-11.0648
MI	-11.0649
▁repeating	-11.065
▁4.5	-11.0651
▁Without	-11.0653
▁aims	-11.0654
▁Jack	-11.0655
▁$15	-11.0658
▁Sample	-11.0658
▁Paper	-11.0658
▁defense	-11.0662
grade	-11.0663
▁recognize	-11.0664
▁Cor	-11.0664
▁`<	-11.0665
what	-11.0665
Device	-11.0666
▁tiny	-11.0667
pair	-11.0668
▁legs	-11.067
1.1	-11.0671
wing	-11.0673
▁miss	-11.0673
▁maintenance	-11.0675
▁survey	-11.0677
▁é	-11.0677
▁harmonic	-11.0678
▁Combine	-11.0683
خ	-11.0686
Start	-11.069
▁nearby	-11.069
▁Oh	-11.0691
▁cast	-11.0692
face	-11.0695
ন	-11.0697
▁Play	-11.0698
▁≠	-11.07
▁Lagrangian	-11.0703
▁mark	-11.0704
▁mar	-11.0704
有	-11.0707
▁interpretation	-11.0707
ụ	-11.0707
arch	-11.0711
dependent	-11.0715
{7	-11.0715
▁hyper	-11.0722
▁Verify	-11.0726
▁Control	-11.0726
gue	-11.0727
Form	-11.0728
▁Vertex	-11.0729
▁Lu	-11.073
▁ش	-11.0734
▁Adding	-11.0735
▁Ki	-11.0737
▁Paris	-11.0739
не	-11.0739
▁aligns	-11.0742
Well	-11.0743
▁primarily	-11.0744
▁variety	-11.0744
▁drug	-11.0745
▁Lily	-11.075
8%	-11.075
▁bu	-11.0752
quat	-11.0756
ен	-11.0756
▁crack	-11.0758
has	-11.0758
▁1\)	-11.0758
డ	-11.076
▁Sal	-11.076
▁queries	-11.0761
▁Match	-11.0761
LI	-11.0763
▁Life	-11.0765
▁2·	-11.0766
▁Big	-11.0767
▁describes	-11.0768
ế	-11.077
▁superposition	-11.077
▁proposed	-11.0771
▁rounded	-11.0771
▁collaboration	-11.0775
Python	-11.0775
▁confirms	-11.0775
▁ticket	-11.0777
Sum	-11.0777
object	-11.0777
▁fee	-11.0778
ties	-11.0779
ami	-11.078
▁frequently	-11.0781
▁lose	-11.0782
▁gr	-11.0782
ones	-11.0783
atory	-11.0784
Two	-11.0784
}{10}	-11.0785
▁established	-11.0786
[1]=2	-11.0788
CI	-11.0789
ਭ	-11.079
▁WHERE	-11.079
ме	-11.0791
Just	-11.0793
Or	-11.0795
ral	-11.0797
▁exponent	-11.0799
▁`#	-11.0801
▁pen	-11.0803
▁Emma	-11.0804
▁при	-11.0805
▁launch	-11.0806
war	-11.0809
▁picture	-11.0809
methyl	-11.0811
▁Gi	-11.0816
DI	-11.0817
▁Pos	-11.0818
ô	-11.0819
▁beauty	-11.082
▁automatically	-11.082
▁Club	-11.0821
gh	-11.0822
ridge	-11.0822
▁qu	-11.0823
▁**5.	-11.0824
▁Revenue	-11.0826
▁July	-11.0827
▁bill	-11.0827
▁atmosphere	-11.0827
▁lone	-11.0828
▁Optimization	-11.0829
▁Queen	-11.083
▁modify	-11.0831
▁360	-11.0831
▁minimizing	-11.0835
▁sy	-11.0837
limit	-11.0839
▁collapse	-11.0842
▁necessarily	-11.0842
cing	-11.0845
▁99	-11.0847
arc	-11.0847
▁collect	-11.0847
▁occurrences	-11.0849
▁Kingdom	-11.085
▁flash	-11.0852
obj	-11.0853
tur	-11.0854
quality	-11.0854
▁Fourier	-11.0858
▁managing	-11.0859
radius	-11.0861
raw	-11.0861
▁Human	-11.0862
▁progression	-11.0863
▁cup	-11.0864
▁của	-11.0865
iso	-11.0865
▁có	-11.0868
▁क	-11.0869
▁kick	-11.0869
▁grade	-11.087
▁photos	-11.087
▁muscle	-11.0873
▁internet	-11.0874
▁attached	-11.0875
degree	-11.0876
[11]	-11.0876
6.0	-11.0879
ть	-11.088
4:	-11.0881
6.5	-11.0882
iff	-11.0883
▁\)),	-11.0886
▁compounds	-11.0886
▁Ke	-11.0886
111	-11.0887
15,	-11.0888
stack	-11.089
▁favor	-11.089
det	-11.0891
▁Hol	-11.0892
ض	-11.0892
▁Am	-11.0896
Mo	-11.0899
▁Optional	-11.0899
▁detect	-11.0901
20,	-11.0905
▁Coffee	-11.0906
hur	-11.0906
],[	-11.0908
▁allocate	-11.0911
че	-11.0914
▁maps	-11.0914
ella	-11.0916
▁driving	-11.0919
▁lock	-11.0919
that	-11.0919
ù	-11.0919
company	-11.0923
▁hotel	-11.0924
▁perfectly	-11.0925
Test	-11.0925
▁measurement	-11.0929
none	-11.0937
std	-11.0939
BA	-11.094
AP	-11.0941
▁scenes	-11.0943
▁96	-11.0944
NN	-11.0948
▁Central	-11.0952
▁Look	-11.0953
▁IDs	-11.0954
不	-11.0956
'],	-11.0962
▁140	-11.0964
fold	-11.0966
palindrome	-11.097
assuming	-11.0971
)}{\	-11.0972
(9)	-11.0973
▁smart	-11.0974
▁teaching	-11.0974
Bo	-11.0976
મ	-11.0982
▁nice	-11.0984
ப்ப	-11.0986
▁gi	-11.0986
▁Furthermore	-11.0987
Inter	-11.0988
ches	-11.0991
▁discussions	-11.0993
adjacent	-11.0994
oli	-11.0997
▁ਮ	-11.0997
▁ම	-11.0997
▁yang	-11.1001
Average	-11.1002
▁exposure	-11.1003
lie	-11.1003
▁divisor	-11.1004
▁Dec	-11.1008
▁channels	-11.1009
▁horizon	-11.101
cher	-11.1011
km	-11.1015
LA	-11.1017
▁navigate	-11.1018
{3}{2}	-11.1019
لا	-11.1019
▁commonly	-11.102
▁Pick	-11.1024
van	-11.1024
depth	-11.1028
▁occurrence	-11.1028
bt	-11.103
▁ongoing	-11.1034
Click	-11.1035
izer	-11.1037
END	-11.1039
▁helping	-11.1041
▁Los	-11.1041
del	-11.1044
9.5	-11.1045
ject	-11.1047
▁α	-11.1048
Pre	-11.1049
▁DO	-11.105
ancy	-11.1052
▁centers	-11.1052
▁ride	-11.1056
inf	-11.1057
iga	-11.1057
>`	-11.1058
motion	-11.1058
til	-11.1062
lm	-11.1064
▁clients	-11.1064
ades	-11.1065
PG	-11.1067
ся	-11.1067
▁Global	-11.1068
RA	-11.107
▁Practice	-11.107
▁span	-11.1071
iko	-11.1073
▁oxidation	-11.108
▁Auto	-11.1082
▁broad	-11.1083
Box	-11.1085
▁integrity	-11.1088
▁numeric	-11.1088
ੂ	-11.1091
▁dates	-11.1094
▁Grand	-11.1095
▁nitrogen	-11.1095
ls	-11.1097
▁tour	-11.11
▁terminal	-11.11
▁calculator	-11.1103
▁Focus	-11.1104
ি	-11.1104
}_3\	-11.1105
ام	-11.1107
ọ̀	-11.1108
▁rapid	-11.1109
▁urban	-11.1112
▁organic	-11.1114
rect	-11.1115
Price	-11.1116
oid	-11.1117
ත්	-11.1117
boldsymbol	-11.1119
rum	-11.112
▁proportion	-11.1121
▁fl	-11.1123
▁30%	-11.1123
▁apples	-11.1124
▁encryption	-11.1126
En	-11.1127
▁equally	-11.1129
▁triple	-11.1129
−3	-11.1131
letter	-11.1131
ple	-11.1133
fr	-11.1133
▁inversion	-11.1134
▁horse	-11.1137
▁mobile	-11.114
▁flowers	-11.1142
▁Otherwise	-11.1142
=1.	-11.1142
▁theme	-11.1147
▁Call	-11.115
▁silver	-11.115
ப	-11.1155
[5]=1	-11.1156
▁trend	-11.1162
▁desire	-11.1166
5.0	-11.1167
els	-11.1169
▁Will	-11.117
voice	-11.1171
▁regulations	-11.1173
▁900	-11.1177
II	-11.1177
▁recursive	-11.1179
▁paint	-11.1182
config	-11.1186
▁Action	-11.119
▁30)	-11.1191
▁claims	-11.1193
▁predictions	-11.1194
▁Assign	-11.1194
Link	-11.1195
▁fragment	-11.1196
github	-11.1197
▁spectrum	-11.1197
Year	-11.1198
▁seats	-11.1198
peak	-11.12
▁Ju	-11.1202
▁RE	-11.1203
more	-11.1204
cd	-11.1205
there	-11.1206
.]**	-11.1207
').	-11.1207
▁27.	-11.1209
▁tí	-11.1211
lish	-11.1211
stop	-11.1216
look	-11.1219
ස	-11.122
દ	-11.122
▁Evaluate	-11.122
▁experimental	-11.1223
▁raised	-11.1225
ticker	-11.1227
▁export	-11.1228
▁religious	-11.1228
▁caught	-11.1228
ani	-11.1229
▁asks	-11.1229
▁capable	-11.1232
प	-11.1235
cies	-11.1235
Option	-11.1235
▁divisible	-11.1236
▁hall	-11.1237
▁unexpected	-11.1237
▁polar	-11.1237
▁belongs	-11.1239
equal	-11.1239
Window	-11.124
[2]=2	-11.1241
^2\)	-11.1241
▁cognitive	-11.1241
▁carbocation	-11.1244
ூ	-11.1245
▁March	-11.1245
▁meaningful	-11.1254
bash	-11.1257
▁breaking	-11.1259
volume	-11.1259
▁combine	-11.1259
▁societal	-11.126
án	-11.126
-03	-11.126
த்து	-11.126
▁London	-11.1266
tilde	-11.1269
Action	-11.127
→6	-11.1272
▁poem	-11.128
▁cancel	-11.1284
itu	-11.1285
625	-11.1286
▁Development	-11.1286
▁coverage	-11.1289
shape	-11.1289
ike	-11.129
▁neighborhood	-11.1291
swap	-11.1293
▁directory	-11.1295
▁trick	-11.1296
▁Miss	-11.1296
▁radiation	-11.1299
▁Fill	-11.1304
▁Fire	-11.1304
▁fluid	-11.1307
は	-11.1308
Dict	-11.1308
6]	-11.1308
▁SEO	-11.1309
▁hits	-11.131
▁productivity	-11.131
web	-11.1311
ند	-11.1315
▁broken	-11.1318
°	-11.132
St	-11.1321
▁Ọ	-11.1322
AAPL	-11.1325
же	-11.1326
▁160	-11.1327
▁66	-11.1328
▁falls	-11.133
dev	-11.1334
▁valuable	-11.1339
RS	-11.1339
▁scales	-11.1339
▁Education	-11.1341
▁Service	-11.1342
▁mg	-11.1344
▁Mass	-11.1345
fill	-11.1346
▁USA	-11.1346
▁frameworks	-11.1347
ult	-11.1348
мен	-11.1348
ien	-11.1349
▁cmd	-11.135
','	-11.1352
▁shirt	-11.1355
urge	-11.1361
▁saying	-11.1361
="#	-11.1361
▁dead	-11.1362
parse	-11.1364
▁ingredients	-11.1369
^{0.05	-11.1373
▁про	-11.1373
ages	-11.1375
▁lab	-11.1376
PR	-11.138
HI	-11.1381
▁async	-11.1382
system	-11.1383
seq	-11.1383
oil	-11.1386
▁Digital	-11.1386
▁Love	-11.1387
▁quote	-11.1392
▁noticed	-11.1397
▁Stan	-11.1398
▁storm	-11.1399
▁Short	-11.14
▁SELECT	-11.1402
▁limitations	-11.1402
▁former	-11.1402
TO	-11.1405
▁reflecting	-11.1407
bal	-11.1408
ث	-11.1409
▁μ	-11.1409
▁improving	-11.1411
▁sizes	-11.1411
▁29.	-11.1412
▁د	-11.1413
rim	-11.1413
▁rational	-11.1414
▁attempts	-11.1415
▁reform	-11.142
population	-11.1424
bol	-11.1425
▁execute	-11.1425
▁Ser	-11.1425
▁disc	-11.1429
ago	-11.1434
▁89	-11.1434
req	-11.144
▁widely	-11.144
▁Information	-11.1443
▁pivot	-11.1445
का	-11.1447
▁optimizing	-11.1451
▁blog	-11.1454
▁rotate	-11.1455
Score	-11.1464
▁curious	-11.1468
▁composition	-11.1468
▁Full	-11.1472
condition	-11.1473
▁acting	-11.1475
'])	-11.1477
KE	-11.1484
{15}	-11.1485
∈	-11.1486
ld	-11.1487
}\),	-11.1488
▁Job	-11.1489
lets	-11.1489
▁layout	-11.1489
▁college	-11.1491
▁Always	-11.1494
lig	-11.1497
▁produces	-11.15
zen	-11.1504
▁Context	-11.1505
Order	-11.1507
▁violence	-11.1507
▁Graph	-11.1508
authors	-11.151
▁coach	-11.1511
▁Gra	-11.1513
}}\)	-11.1514
▁fat	-11.1514
▁saved	-11.1515
ри	-11.1515
pent	-11.1517
20,000	-11.1518
▁Windows	-11.1519
▁67	-11.1521
मा	-11.1522
▁separation	-11.1523
Did	-11.1524
ட்ட	-11.1526
▁dry	-11.1527
hel	-11.1528
▁League	-11.1528
▁│	-11.153
▁exploration	-11.1532
noun	-11.1534
ми	-11.1536
હ	-11.1539
▁foot	-11.154
▁transitions	-11.154
ering	-11.1541
▁extended	-11.1542
isa	-11.1543
▁Column	-11.1543
▁modes	-11.1544
ં	-11.1544
rich	-11.1552
▁fib	-11.1552
▁Pet	-11.1553
▁tend	-11.1554
▁Place	-11.1554
umble	-11.1554
▁earth	-11.1556
▁effort	-11.1559
leg	-11.1568
▁Counter	-11.1569
▁Explain	-11.1569
calculate	-11.1569
▁Steps	-11.1571
он	-11.1571
maximize	-11.1573
[8])	-11.1577
Psi	-11.1578
▁00	-11.158
▁DP	-11.1582
▁artificial	-11.1583
▁lift	-11.1584
utter	-11.1584
▁experienced	-11.1586
4,5	-11.1587
▁browser	-11.1589
य	-11.1589
javascript	-11.159
▁7.5	-11.159
UL	-11.1594
110	-11.1595
Non	-11.1595
▁cleaned	-11.1596
▁Another	-11.1599
eval	-11.1601
▁pour	-11.1603
▁salt	-11.1603
▁2018	-11.1604
Min	-11.1605
Find	-11.1605
option	-11.1608
keys	-11.1608
▁handles	-11.161
0.02	-11.161
▁ST	-11.1613
Equation	-11.1615
▁reader	-11.1615
td	-11.1621
Ra	-11.1622
Car	-11.1624
language	-11.1624
▁Ed	-11.1624
▁pH	-11.1627
▁Center	-11.163
const	-11.163
ह	-11.163
cons	-11.1633
gra	-11.1634
pel	-11.1635
が	-11.1638
▁ju	-11.1639
3-	-11.1639
▁પ	-11.1644
rr	-11.1644
gy	-11.1645
▁Pin	-11.1645
MSFT	-11.1646
uri	-11.1652
▁amazing	-11.1654
=3:	-11.1655
▁addressing	-11.1657
"`	-11.1662
ො	-11.1662
}{12}	-11.1663
-09	-11.1664
▁hurt	-11.1665
ö	-11.1667
▁journalist	-11.1667
▁delete	-11.1674
green	-11.1676
ਂ	-11.1676
▁ع	-11.1679
{13}	-11.1682
]);	-11.1682
જ	-11.1683
Ma	-11.1685
Command	-11.1686
ー	-11.1687
▁Song	-11.1688
▁Olivia	-11.1689
▁West	-11.1689
▁lọ	-11.1692
normal	-11.1696
nic	-11.1699
▁Perform	-11.1699
▁Method	-11.1699
etting	-11.17
available	-11.17
dle	-11.1704
▁verb	-11.1706
ਣ	-11.1707
▁circles	-11.1707
iza	-11.1708
replace	-11.1708
▁experiments	-11.1714
ру	-11.1716
bra	-11.1717
{2}{3}	-11.1718
both	-11.1719
▁psychological	-11.172
dS	-11.1721
▁medication	-11.1723
0.000	-11.1724
▁vary	-11.1725
▁0.04	-11.1726
rug	-11.1727
▁Low	-11.1727
▁Impact	-11.1728
Can	-11.1728
▁vacuum	-11.1729
But	-11.173
ivo	-11.1731
▁director	-11.1733
\}	-11.1733
1,4	-11.1734
▁Africa	-11.1737
▁calculates	-11.1738
PM	-11.1741
GA	-11.1743
1+	-11.1744
▁laugh	-11.1745
ения	-11.1748
▁Express	-11.1748
transform	-11.1748
OT	-11.1749
▁brings	-11.175
▁ச	-11.1753
▁15%	-11.1755
▁dangerous	-11.1757
▁uppercase	-11.1759
tric	-11.1759
▁solvent	-11.1763
▁alien	-11.1764
▁joint	-11.1765
icon	-11.1768
▁58	-11.1769
quar	-11.177
▁Program	-11.1776
ega	-11.1777
▁removal	-11.1778
▁peer	-11.1778
को	-11.1779
gel	-11.178
▁incoming	-11.178
ori	-11.1783
▁ل	-11.1783
Exception	-11.1787
hen	-11.1787
}_4	-11.1789
▁450	-11.1794
▁curvature	-11.1794
▁discussing	-11.1796
anger	-11.18
Second	-11.1803
で	-11.1803
স	-11.1803
▁alert	-11.1803
▁fashion	-11.1804
▁officer	-11.1806
▁Mer	-11.1809
▁fruit	-11.1809
▁Testing	-11.1811
heap	-11.1811
▁passing	-11.1814
▁Page	-11.1815
▁fiction	-11.1817
▁20,	-11.1818
▁guys	-11.182
▁mutual	-11.182
▁organize	-11.1821
tone	-11.1823
insensitive	-11.1826
▁professor	-11.1828
▁Large	-11.1828
▁entrepreneur	-11.183
▁controlled	-11.1831
cover	-11.1831
▁optimized	-11.1833
Ch	-11.1834
hill	-11.1838
▁silent	-11.1841
▁С	-11.1842
▁aspect	-11.1847
▁Before	-11.1847
▁implemented	-11.1849
333	-11.185
^{-2	-11.1852
9.8	-11.1852
≡	-11.1855
▁developer	-11.1855
▁ج	-11.1855
▁Well	-11.1859
{20}	-11.1859
▁mysterious	-11.1861
▁opportunity	-11.1861
▁glad	-11.1862
olo	-11.1866
▁chemistry	-11.1867
same	-11.1867
▁UI	-11.1869
ici	-11.187
▁geo	-11.187
▁organizing	-11.187
bel	-11.1872
/10	-11.1874
]\)	-11.1876
▁bags	-11.1877
▁spiral	-11.1878
▁preserving	-11.1878
–9	-11.188
▁0.10	-11.188
Bar	-11.1881
▁QUESTION	-11.1884
▁NO	-11.1884
▁myself	-11.1885
▁Through	-11.1885
{9	-11.1885
ார்	-11.1886
ਸ਼	-11.1888
▁chapters	-11.189
▁workers	-11.1893
EE	-11.1898
▁pin	-11.19
▁-4	-11.1901
▁inverse	-11.1902
Symbol	-11.1903
_2(	-11.1905
▁simplified	-11.1912
▁generates	-11.1919
ਖ	-11.192
▁consciousness	-11.192
▁generating	-11.1921
▁summer	-11.1922
+8	-11.1925
▁easier	-11.1928
▁discover	-11.1929
=4,	-11.193
}}{1	-11.1931
▁closest	-11.1931
▁eliminate	-11.1931
wave	-11.1932
▁facing	-11.1934
uku	-11.1935
iro	-11.1938
▁scan	-11.1938
dom	-11.194
▁echo	-11.1941
▁nor	-11.1942
▁California	-11.1944
Range	-11.1945
▁severe	-11.1946
ట	-11.1947
▁sat	-11.1949
▁Taking	-11.195
▁finishes	-11.1952
}}{2}	-11.1953
▁comprehension	-11.1954
▁Teacher	-11.1954
▁moved	-11.1954
initial	-11.1954
▁hence	-11.1956
14.	-11.1958
▁seven	-11.1958
▁See	-11.1958
Operation	-11.196
▁entanglement	-11.1962
▁distribute	-11.1965
▁invest	-11.1968
Rect	-11.197
▁variations	-11.1971
▁consent	-11.1971
ambi	-11.1971
▁88	-11.1974
▁realm	-11.1974
▁recognition	-11.1974
▁frames	-11.1976
ਚ	-11.1977
▁sand	-11.1978
ප	-11.1979
ρ	-11.1979
details	-11.198
▁stabilize	-11.1982
5]	-11.1982
▁Mal	-11.1983
▁angles	-11.1986
neg	-11.1986
▁datetime	-11.1987
▁Rule	-11.199
ret	-11.1991
▁Fat	-11.1991
రి	-11.1992
▁Bank	-11.1996
વ	-11.1998
Main	-11.1999
▁\)**:	-11.2
▁Ku	-11.2005
▁Track	-11.2006
987	-11.2009
▁instances	-11.2009
ो	-11.2009
IF	-11.201
~	-11.201
arrow	-11.2012
ộ	-11.2013
inate	-11.2016
▁caused	-11.2018
ே	-11.2019
▁priority	-11.2023
force	-11.2027
&#34;	-11.203
every	-11.2032
▁∨	-11.2033
inal	-11.2033
▁charged	-11.2034
▁Food	-11.2034
▁Round	-11.2035
tics	-11.2035
▁enable	-11.2037
ν	-11.2037
scores	-11.2038
”:	-11.2038
▁preparing	-11.2039
ී	-11.2039
▁Age	-11.204
▁collision	-11.204
▁thick	-11.2041
ست	-11.2044
rian	-11.2044
▁broader	-11.2047
కు	-11.2047
▁wood	-11.2047
1,3	-11.2048
▁twist	-11.2049
▁Wall	-11.2049
▁incident	-11.205
12345	-11.2054
▁soul	-11.2058
found	-11.2059
▁zone	-11.206
▁sur	-11.2062
▁scar	-11.2064
প	-11.2064
Cost	-11.2064
ptr	-11.2065
clique	-11.2067
chars	-11.2068
(-1)	-11.2072
▁4]	-11.2073
▁district	-11.2073
▁hole	-11.2073
rist	-11.2075
▁foster	-11.2078
▁Level	-11.2078
▁header	-11.2079
▁timeline	-11.2079
▁sta	-11.2081
abstract	-11.2082
xml	-11.2084
Row	-11.2087
1234	-11.2091
▁usual	-11.2094
hol	-11.2094
▁failed	-11.2097
fall	-11.2097
(12)	-11.2101
]+	-11.2102
bat	-11.2103
▁sensitivity	-11.2103
Ro	-11.2104
good	-11.2106
agg	-11.2107
▁Euclidean	-11.2107
▁ctx	-11.2109
▁Store	-11.211
▁distant	-11.2111
▁menu	-11.2113
ension	-11.2113
199	-11.2116
They	-11.2116
▁evaluating	-11.2116
ස්	-11.2117
Query	-11.2118
2),	-11.2118
▁functionality	-11.212
CT	-11.212
▁dinner	-11.2122
LL	-11.2126
▁spark	-11.2127
_0\)	-11.2127
▁partner	-11.2128
ched	-11.2129
▁prepared	-11.2131
▁Cross	-11.2132
Int	-11.2132
CL	-11.2133
▁bike	-11.2134
OL	-11.2139
▁Lorentz	-11.2139
datetime	-11.2139
^{(	-11.2139
▁glow	-11.2141
中	-11.2141
▁manipulation	-11.2142
▁therefore	-11.2142
▁competitive	-11.2147
▁summarize	-11.215
▁là	-11.2151
▁surprise	-11.2152
5.5	-11.2154
▁cake	-11.2156
Token	-11.2158
▁Bra	-11.2161
▁playful	-11.2161
▁roll	-11.2162
▁snippet	-11.2163
▁bot	-11.2163
lac	-11.2164
turn	-11.2168
select	-11.2168
▁orientation	-11.2168
▁god	-11.2169
Question	-11.2169
▁–1	-11.2172
▁upcoming	-11.2179
Block	-11.2179
World	-11.2179
▁sine	-11.218
▁flavor	-11.2181
▁trail	-11.2183
▁Index	-11.2183
+7	-11.2184
▁Ball	-11.2184
▁familiar	-11.2185
▁fails	-11.2191
▁realize	-11.2193
▁polygon	-11.2195
రా	-11.2199
▁incorporate	-11.2201
▁faint	-11.2204
ный	-11.2207
▁describing	-11.2211
▁ì	-11.2213
▁election	-11.2215
▁conflicts	-11.2215
quit	-11.2219
ο	-11.2219
▁operational	-11.222
▁meal	-11.222
▁prediction	-11.2221
▁Michael	-11.2224
▁Special	-11.2224
pattern	-11.2224
UC	-11.2224
▁arch	-11.2225
▁atomic	-11.2228
▁basketball	-11.2228
cade	-11.223
▁crystal	-11.223
▁rolling	-11.2232
▁restaurant	-11.2234
By	-11.2235
▁extremely	-11.2236
▁strongly	-11.2236
ਟ	-11.2236
{3\	-11.2238
ول	-11.2238
Read	-11.224
▁situations	-11.224
200,000	-11.2241
hood	-11.2241
▁Gen	-11.2242
▁Business	-11.2244
▁commitment	-11.2248
▁numerically	-11.2249
asa	-11.2251
ening	-11.2254
▁ordered	-11.2255
There	-11.2255
▁marked	-11.2256
▁learned	-11.2257
▁6]	-11.2258
uni	-11.2259
youtube	-11.226
▁Reaction	-11.226
cpp	-11.2262
▁Derive	-11.2263
eter	-11.2268
References	-11.2269
Monika	-11.2269
▁crop	-11.227
▁Event	-11.2273
gle	-11.2274
une	-11.2275
▁shot	-11.2276
elements	-11.2279
▁Initialize	-11.228
▁fur	-11.2281
▁Angeles	-11.2282
acle	-11.2288
1=1	-11.2289
▁tracking	-11.2289
▁vi	-11.229
▁friendship	-11.2291
click	-11.2291
▁leg	-11.2293
أ	-11.2294
▁bottle	-11.2297
▁timestamp	-11.2303
▁preserve	-11.2305
▁nurse	-11.2307
cis	-11.231
શ	-11.2315
▁Three	-11.2315
▁thread	-11.2318
▁surrounding	-11.2319
▁denotes	-11.2322
▁81	-11.2324
▁Ph	-11.2324
▁novels	-11.2325
ਪ	-11.2326
lier	-11.2328
బ	-11.2329
ગ	-11.2332
maximum	-11.2332
ис	-11.2333
▁parabola	-11.2333
▁concert	-11.2333
OC	-11.2335
000000	-11.2335
Los	-11.234
▁specify	-11.2348
eral	-11.2348
2020	-11.2349
account	-11.235
quantity	-11.2352
750	-11.2352
▁(17,	-11.2353
▁(0,2)	-11.2355
▁cu	-11.2357
وا	-11.236
▁Sea	-11.236
zo	-11.2362
Red	-11.2363
▁generator	-11.2371
]}}	-11.2372
▁determinant	-11.2377
bot	-11.2379
▁exploit	-11.2383
CP	-11.2383
▁Gr	-11.2386
▁coupling	-11.2386
▁nearly	-11.2387
▁ahead	-11.2388
▁designer	-11.2389
▁-1.	-11.239
▁53	-11.2391
2.4	-11.2392
▁fail	-11.2394
▁reliable	-11.2395
▁advantage	-11.2395
▁periods	-11.2397
▁68	-11.2399
▁comic	-11.2399
▁Future	-11.24
▁introduces	-11.2403
▁enzyme	-11.2403
nie	-11.2405
▁iron	-11.2408
▁Female	-11.2408
▁cluster	-11.2409
docs	-11.2409
strings	-11.2411
▁zip	-11.2411
Top	-11.2414
Group	-11.2414
▁ya	-11.2416
▁recommendations	-11.242
uv	-11.2421
▁17,	-11.2421
queue	-11.2422
ү	-11.2425
9.99	-11.2427
▁MA	-11.2428
gro	-11.243
▁votes	-11.2433
SL	-11.2434
▁panels	-11.2435
din	-11.2435
EP	-11.2441
▁albums	-11.2445
(1),	-11.2448
▁emails	-11.2448
LY	-11.2448
▁radical	-11.2448
▁Address	-11.2453
lab	-11.2455
டி	-11.2456
▁slope	-11.2459
▁:=	-11.246
▁emphasize	-11.246
TV	-11.2461
▁businesses	-11.2463
copy	-11.2464
▁versions	-11.2464
▁curr	-11.2465
▁seemed	-11.2466
▁inference	-11.2466
2,0)	-11.2466
vision	-11.247
"?	-11.247
ين	-11.2473
pack	-11.2473
▁April	-11.2474
astic	-11.2475
▁slide	-11.2476
{1}{2}\	-11.2476
▁из	-11.2477
▁tower	-11.2482
▁Prime	-11.2482
人	-11.2483
▁denominator	-11.2483
▁kept	-11.2484
ges	-11.2484
▁(2,3)	-11.2484
alo	-11.2488
▁arise	-11.2491
=13	-11.2491
met	-11.2492
ц	-11.2493
rick	-11.2494
▁meter	-11.2496
release	-11.2497
▁Com	-11.2497
▁॥	-11.2497
▁$50	-11.2498
due	-11.2509
TR	-11.2515
san	-11.2515
insert	-11.2516
▁photograph	-11.252
▁Mini	-11.252
▁Integrate	-11.2521
MC	-11.2523
▁displacement	-11.2525
▁255	-11.2526
nya	-11.2526
▁accident	-11.2528
tile	-11.2528
▁perspectives	-11.2528
▁guard	-11.2529
bind	-11.2536
ste	-11.2536
▁vibrant	-11.2537
▁Imagine	-11.2542
▁Algorithm	-11.2543
▁comfortable	-11.255
▁meant	-11.2551
▁characteristic	-11.2552
▁3`	-11.2553
rig	-11.2555
▁2010	-11.2555
inner	-11.2555
▁trading	-11.2556
▁assert	-11.2558
▁scaling	-11.2558
▁iteration	-11.2559
▁pd	-11.2559
single	-11.2559
▁greatest	-11.256
▁Cho	-11.2561
▁spring	-11.2561
▁simulate	-11.2562
い	-11.2564
875	-11.2565
▁ga	-11.2569
▁Pokémon	-11.2573
RNA	-11.2574
born	-11.258
า	-11.2582
▁$6	-11.2583
report	-11.2588
DS	-11.2589
stem	-11.2589
google	-11.2589
▁(8	-11.2591
▁reject	-11.2595
itch	-11.2598
job	-11.2599
▁titled	-11.26
▁Replace	-11.2601
eff	-11.2601
)=1	-11.2603
shop	-11.2604
▁Role	-11.2605
=14	-11.2606
[3]=2	-11.2608
black	-11.2608
▁OK	-11.2609
▁measurements	-11.2609
▁Snow	-11.261
ban	-11.2615
ela	-11.2615
▁happening	-11.2616
▁naturally	-11.2617
▁loan	-11.2619
▁blockchain	-11.2619
vil	-11.262
▁discovered	-11.2626
"{	-11.2628
▁breathing	-11.2629
hop	-11.2632
▁Style	-11.2632
pmod	-11.2633
firm	-11.2635
Field	-11.2636
ट	-11.2636
▁lattice	-11.2636
▁Basic	-11.2643
▁wrapped	-11.2646
ups	-11.2649
diff	-11.2652
▁Deep	-11.2653
▁enforce	-11.2654
▁technological	-11.2654
▁examine	-11.2656
▁14,	-11.2657
−4	-11.2658
=15	-11.2659
▁grab	-11.2661
▁(7	-11.2663
Scene	-11.2664
▁Growth	-11.2666
($	-11.2667
ough	-11.267
▁hint	-11.2671
▁Min	-11.2673
_7	-11.2674
SD	-11.2675
bro	-11.2677
▁markets	-11.2677
GB	-11.2678
▁tab	-11.268
▁bold	-11.268
▁panel	-11.2681
▁relief	-11.2682
▁rapidly	-11.2683
▁decreases	-11.2684
▁workshop	-11.2684
they	-11.2684
BO	-11.2685
▁foundation	-11.2687
iving	-11.2688
▁ions	-11.2693
▁Force	-11.2693
1),	-11.2693
▁subtle	-11.2694
▁blank	-11.2695
band	-11.2698
▁emergency	-11.27
▁uncertainty	-11.27
▁destination	-11.2701
2022	-11.2705
▁battery	-11.2708
▁covering	-11.2709
▁san	-11.271
FT	-11.2711
▁regime	-11.2713
▁disrupt	-11.2714
▁threats	-11.2714
ith	-11.2716
▁hybrid	-11.2717
7%	-11.2717
Ref	-11.2717
▁communicate	-11.2718
lé	-11.2719
▁beats	-11.2719
▁intended	-11.272
▁8:	-11.2721
ੈ	-11.2722
itter	-11.2723
▁presentation	-11.2731
▁audit	-11.2732
об	-11.2733
▁intense	-11.2733
=20	-11.2737
▁Sometimes	-11.2742
▁alter	-11.2743
▁Fetch	-11.2746
layout	-11.2747
ố	-11.2749
exactly	-11.275
▁Share	-11.275
▁adjusted	-11.2752
▁assets	-11.2753
▁modeling	-11.2756
ún	-11.2757
▁exception	-11.2758
Explanation	-11.2758
▁ਅ	-11.2759
▁Iris	-11.276
RR	-11.2761
వా	-11.2761
▁deposit	-11.2762
statistic	-11.2768
▁signs	-11.2769
Com	-11.2769
▁serves	-11.2769
aut	-11.277
▁drone	-11.277
layer	-11.277
pon	-11.2772
▁NEED	-11.2773
Out	-11.2775
▁sal	-11.2775
rel	-11.278
▁argue	-11.2782
▁stereotypes	-11.2783
▁bounds	-11.2784
ego	-11.2786
▁ter	-11.2787
▁Dick	-11.2787
elle	-11.279
▁taste	-11.2794
8.0	-11.2795
▁passes	-11.2796
Tuple	-11.2796
"),	-11.2796
▁relations	-11.2797
sen	-11.2799
▁poor	-11.2799
▁Wa	-11.28
▁warning	-11.28
▁temperatures	-11.28
▁NH	-11.2801
▁128	-11.2801
▁ON	-11.2802
ом	-11.2802
ча	-11.2803
▁earn	-11.2803
▁combat	-11.2805
▁soil	-11.2807
.)*	-11.2807
udd	-11.2808
▁artifacts	-11.281
▁Fa	-11.2813
▁thousands	-11.2813
ación	-11.2813
fan	-11.2816
▁stuff	-11.282
▁substrings	-11.2823
▁Friday	-11.2824
▁River	-11.2826
▁ව	-11.2826
tant	-11.2826
▁affected	-11.2827
atic	-11.2828
▁triangles	-11.2828
▁mat	-11.2829
mann	-11.283
(7,	-11.2832
window	-11.2834
▁coins	-11.2836
▁algebra	-11.2837
{60}	-11.284
▁Indian	-11.2843
▁schools	-11.2843
▁knew	-11.2844
▁(1,3)	-11.2844
▁alkyl	-11.2845
duct	-11.2845
▁reaching	-11.2845
▁Compare	-11.2847
▁fits	-11.2847
Ar	-11.2847
105	-11.2847
▁varying	-11.2851
▁Modern	-11.2851
र्	-11.2851
▁giant	-11.2852
▁Thompson	-11.2856
":["	-11.2862
Map	-11.2864
ой	-11.2864
≠	-11.2865
▁university	-11.2865
▁observe	-11.2866
ifying	-11.2867
rai	-11.2868
▁€	-11.2869
3%	-11.2869
▁lap	-11.2869
=5,	-11.2871
▁java	-11.2871
ර්	-11.2871
▁Girl	-11.2872
2021	-11.2872
inclusive	-11.2872
▁wrap	-11.2874
了	-11.2874
▁Cur	-11.2874
▁ZIP	-11.2876
2):	-11.2878
▁survival	-11.2884
▁mm	-11.2886
▁Sky	-11.2888
▁SP	-11.2888
▁extensive	-11.2893
front	-11.2894
▁eggs	-11.2895
▁Music	-11.2895
ote	-11.2897
વા	-11.2899
Component	-11.29
▁mole	-11.2901
▁Western	-11.2901
▁renowned	-11.2902
luc	-11.2903
plot	-11.2904
▁Mc	-11.2907
▁40%	-11.2907
▁Trans	-11.2908
▁Doe	-11.2911
▁IS	-11.2911
»	-11.2912
▁curiosity	-11.2912
▁funding	-11.2912
▁Vo	-11.2913
brand	-11.2918
▁mom	-11.2918
zu	-11.292
question	-11.292
osis	-11.2924
tuple	-11.2927
_1\)	-11.2928
▁Apply	-11.2928
▁repair	-11.2929
Address	-11.2935
SU	-11.2935
▁Wal	-11.2937
▁justice	-11.2939
▁ఆ	-11.294
▁estimates	-11.294
una	-11.294
▁Common	-11.2942
▁Fix	-11.2944
Entry	-11.2945
▁continued	-11.2945
poli	-11.2946
▁Random	-11.2946
▁در	-11.2947
▁determining	-11.2949
▁Video	-11.295
container	-11.2952
▁Select	-11.2952
▁$20	-11.2954
ты	-11.2956
}^{-1}	-11.2957
▁Hello	-11.2958
ණ	-11.2958
▁stone	-11.2959
▁notices	-11.296
4,6	-11.2962
ુ	-11.2963
ون	-11.2966
qua	-11.2969
▁Component	-11.2969
efficient	-11.297
▁به	-11.2972
dal	-11.2973
▁expectations	-11.2974
door	-11.2975
▁neither	-11.2975
▁Francisco	-11.2977
▁designing	-11.2979
▁poly	-11.2981
El	-11.2982
▁bake	-11.2982
▁driver	-11.2986
▁foreign	-11.2986
4·	-11.2987
▁previously	-11.2992
▁dreams	-11.2993
▁100)	-11.2993
▁Highlight	-11.2994
▁texture	-11.2995
▁Describe	-11.2996
''(	-11.2997
shed	-11.2999
▁60%	-11.3004
PT	-11.3006
▁extreme	-11.3008
From	-11.3009
cf	-11.3009
▁QR	-11.301
▁LCM	-11.3012
Pool	-11.3012
▁sufficient	-11.3015
▁torch	-11.3015
Ca	-11.3016
▁representative	-11.3016
▁transportation	-11.3018
▁tra	-11.3021
DL	-11.3023
YYYY	-11.3023
▁flex	-11.3026
▁84	-11.3026
}^3	-11.3028
▁Server	-11.3032
▁adoption	-11.3036
SA	-11.3036
request	-11.3038
lap	-11.3038
css	-11.3039
tribu	-11.3039
▁welcome	-11.3041
▁managed	-11.3043
▁introduced	-11.3044
ister	-11.3047
▁err	-11.3048
ẹ́	-11.3049
propto	-11.305
▁pad	-11.3051
▁drawn	-11.3051
▁Fu	-11.3051
▁adopt	-11.3053
▁src	-11.3055
▁overview	-11.3056
Content	-11.3057
▁ETH	-11.3057
ico	-11.3058
chu	-11.3061
▁fake	-11.3063
▁seat	-11.3064
▁diet	-11.3064
ные	-11.3065
▁125	-11.307
▁3-	-11.3074
▁increment	-11.308
▁Increase	-11.3082
▁facilitate	-11.3087
▁Cap	-11.3089
▁forget	-11.309
▁donation	-11.3091
Grid	-11.3092
▁Avoid	-11.3093
ль	-11.3093
⌋	-11.3095
onym	-11.3095
▁React	-11.3095
▁worker	-11.3096
▁Lee	-11.3096
=16	-11.3098
స్	-11.3098
▁57	-11.3099
▁responsibility	-11.3099
ool	-11.3101
cient	-11.3101
▁identifier	-11.3102
{9}	-11.3102
IA	-11.3103
▁les	-11.3103
▁BY	-11.3103
255	-11.3107
MENT	-11.3109
fin	-11.311
sell	-11.311
▁systematic	-11.3111
▁documentation	-11.3111
▁Factor	-11.3111
▁EUR	-11.3114
▁Arch	-11.3114
▁Ethan	-11.3117
▁VK	-11.3117
sel	-11.3119
▁Minimum	-11.3121
sheet	-11.3121
▁mon	-11.3123
tive	-11.3127
▁pink	-11.3128
▁Card	-11.3131
▁recipe	-11.3135
▁req	-11.3136
ధ	-11.3137
floor	-11.314
Resource	-11.314
LS	-11.3141
16,	-11.3141
▁craft	-11.3142
▁hum	-11.3144
audio	-11.3144
risk	-11.3145
organ	-11.3145
▁Block	-11.3148
ão	-11.315
▁105	-11.3152
▁cupcakes	-11.3155
▁Ti	-11.3155
avg	-11.3156
ෝ	-11.3156
▁anxiety	-11.3156
▁href	-11.3159
msg	-11.3161
▁plate	-11.3164
▁van	-11.3165
▁suffix	-11.3167
2)=	-11.3168
▁headers	-11.3169
▁attract	-11.3169
INT	-11.3171
ண	-11.3173
HO	-11.3174
▁Agent	-11.3174
▁Silver	-11.3176
▁regulatory	-11.3178
010	-11.3179
System	-11.3183
▁Asia	-11.3184
▁alright	-11.3186
▁ਦੀ	-11.3187
▁Lucas	-11.3187
particle	-11.3188
▁musical	-11.3191
ங்க	-11.3192
Card	-11.3193
tun	-11.3193
▁Option	-11.3194
▁Direct	-11.3194
▁accurately	-11.3197
lateral	-11.3197
▁Russian	-11.3198
▁Island	-11.32
vol	-11.3201
▁vital	-11.3201
SQL	-11.3202
verb	-11.3203
▁Starting	-11.3204
ONE	-11.3205
▁detected	-11.3205
▁tank	-11.3205
ava	-11.3206
^2\	-11.3206
▁(-1)	-11.3208
▁Material	-11.3209
8000	-11.3209
▁numpy	-11.3209
▁Notes	-11.3213
▁Theorem	-11.3214
▁invariant	-11.3214
▁bear	-11.3217
▁bx	-11.3219
▁arrange	-11.322
wan	-11.3221
far	-11.3222
ના	-11.3223
▁trained	-11.3223
▁Local	-11.3224
augh	-11.3228
heat	-11.3228
▁cheer	-11.3228
gba	-11.3228
▁DE	-11.3231
▁Shi	-11.3232
3)=	-11.3232
cot	-11.3232
▁sin	-11.3233
ரி	-11.3234
live	-11.3234
Enter	-11.3234
1,0	-11.3235
▁db	-11.3235
▁accessible	-11.3236
oz	-11.3241
Episode	-11.3243
▁orbitals	-11.3243
▁31)	-11.3245
▁demonstrate	-11.3245
▁Small	-11.3247
▁0.08	-11.3247
ifies	-11.3249
ਵ	-11.3252
▁agreement	-11.3252
▁leverage	-11.3252
▁ح	-11.3254
▁snacks	-11.3256
ame	-11.3257
▁shock	-11.3257
▁portion	-11.3257
▁grant	-11.3258
▁gallons	-11.3258
්	-11.3259
▁editor	-11.3259
rib	-11.326
▁Linear	-11.3262
▁chair	-11.3262
Queue	-11.3263
▁Technology	-11.3263
^2}{2}	-11.3264
▁scope	-11.3266
▁Clean	-11.3266
▁folder	-11.3268
uel	-11.3268
▁wasn	-11.327
uro	-11.3271
▁obj	-11.3273
▁inventory	-11.3273
static	-11.3277
-30	-11.3277
▁diff	-11.3278
drop	-11.328
▁interactive	-11.3281
berg	-11.3285
oral	-11.3285
IV	-11.3287
Jane	-11.3287
▁Street	-11.3288
▁gone	-11.329
decreasing	-11.3292
rator	-11.3293
ম	-11.3293
▁cont	-11.3298
5},	-11.3298
DO	-11.33
inc	-11.3301
ref	-11.3302
ия	-11.3302
▁ver	-11.3303
ré	-11.3304
7.0	-11.3305
▁outer	-11.3308
▁mistake	-11.3308
{50}	-11.3309
▁100%	-11.331
144	-11.331
▁ప్ర	-11.331
▁actor	-11.3311
SC	-11.3312
▁32)	-11.3313
ising	-11.3317
▁intervention	-11.3317
human	-11.3317
▁Content	-11.3318
`),	-11.3319
▁supplies	-11.332
default	-11.3322
▁IT	-11.3323
▁Gaussian	-11.3325
ulating	-11.3325
▁خ	-11.3327
doi	-11.3327
Initial	-11.3327
▁protocols	-11.3328
▁NULL	-11.3329
▁completion	-11.333
▁grin	-11.3331
BR	-11.3331
043	-11.3332
**—	-11.3333
▁carbons	-11.3334
files	-11.3336
▁integrals	-11.3337
pairs	-11.3337
▁pregnant	-11.3339
▁scalar	-11.3339
▁shapes	-11.334
▁occurred	-11.3342
▁2015	-11.3344
Cell	-11.3348
venue	-11.3349
Dignity	-11.3349
return	-11.3349
_8	-11.3354
izes	-11.3354
longest	-11.3356
▁lati	-11.3357
▁{1,	-11.3359
pin	-11.336
▁buying	-11.3365
dra	-11.3367
(2*	-11.3368
▁bin	-11.3368
мо	-11.3368
▁servers	-11.3371
▁5\	-11.3372
3,4	-11.3372
corn	-11.3373
SM	-11.3374
▁Tech	-11.3375
▁participate	-11.3375
[2]=3	-11.3376
▁debate	-11.3378
▁trouble	-11.3378
▁это	-11.3378
▁Paragraphs	-11.3381
▁native	-11.3386
▁survive	-11.3388
▁guests	-11.339
▁{2,	-11.339
uka	-11.3393
▁dipole	-11.3394
calc	-11.3395
▁arts	-11.3397
▁featuring	-11.3398
ode	-11.3398
▁gear	-11.34
▁filename	-11.3401
▁Volume	-11.3403
▁elimination	-11.3404
fic	-11.3405
gb	-11.3405
document	-11.3411
meter	-11.3411
tools	-11.3412
_2\)	-11.3413
^7	-11.3414
▁retain	-11.3414
then	-11.3415
ி	-11.3415
Screen	-11.3417
oto	-11.3418
▁Systems	-11.3418
▁assumes	-11.342
▁Gar	-11.3421
▁`(0,	-11.3422
▁authority	-11.3425
▁chocolate	-11.3427
▁closely	-11.3428
channel	-11.3433
connecting	-11.3433
▁confident	-11.3436
▁police	-11.3437
▁sheet	-11.3438
PE	-11.3438
KEY	-11.344
▁edit	-11.3441
prob	-11.3443
▁recorded	-11.3443
oma	-11.3445
று	-11.3445
▁lay	-11.3446
▁trajectory	-11.3447
365	-11.3448
▁iterative	-11.3448
."},	-11.3451
▁Draw	-11.3452
period	-11.3453
▁beat	-11.3455
▁UN	-11.3456
▁mood	-11.3457
▁operating	-11.3457
▁bottles	-11.3458
▁tears	-11.3458
▁mechanical	-11.3459
▁100,000	-11.3459
▁Should	-11.3459
Go	-11.346
Se	-11.3464
▁Press	-11.3464
[1]=3	-11.3465
^+	-11.3465
▁Saturday	-11.3466
▁empathy	-11.3466
▁[(	-11.3467
▁substituents	-11.3472
/2)	-11.3475
▁friendly	-11.3478
▁Mis	-11.3478
visit	-11.348
-11	-11.348
▁Bio	-11.348
▁Extract	-11.3481
▁Author	-11.3483
articles	-11.3485
▁opens	-11.3487
▁AWS	-11.3487
▁grass	-11.3487
hin	-11.3487
▁spec	-11.3488
▁`3`	-11.349
}^{\	-11.3491
song	-11.3493
AGE	-11.3494
▁cube	-11.3496
▁consumer	-11.3496
▁Adjust	-11.3497
▁16,	-11.3498
▁camp	-11.3503
ư	-11.3506
▁sunlight	-11.3507
▁23,	-11.3509
fc	-11.3513
pul	-11.3513
rob	-11.3514
லை	-11.3514
▁arrival	-11.3518
▁skip	-11.352
▁flatten	-11.3521
▁apart	-11.3522
remaining	-11.3525
pred	-11.3525
▁candidates	-11.3526
ido	-11.3526
suit	-11.3526
▁Tokyo	-11.353
▁jẹ	-11.3531
▁avoiding	-11.3532
vic	-11.3533
▁10^	-11.3535
eli	-11.3536
3",	-11.3536
Circ	-11.3537
ей	-11.3537
4.0	-11.3538
▁$12	-11.3538
▁(1,1)	-11.3538
DB	-11.354
prop	-11.3542
▁21,	-11.3542
▁Scene	-11.3545
EST	-11.3545
▁straightforward	-11.3546
ción	-11.3549
▁spending	-11.3549
▁Similarly	-11.3549
тор	-11.3549
▁exceeding	-11.3556
▁Visual	-11.3557
▁attendance	-11.3557
known	-11.3558
[6]=1	-11.3558
IVE	-11.356
▁designs	-11.3561
fix	-11.3562
0|	-11.3563
▁December	-11.3565
▁Simple	-11.3565
Current	-11.3565
header	-11.3566
▁expertise	-11.3566
▁binding	-11.3566
▁dish	-11.3566
▁77	-11.3567
ما	-11.3567
{8}	-11.3567
FA	-11.3569
▁Series	-11.3569
zip	-11.3571
▁ser	-11.3574
rie	-11.3575
Manager	-11.3576
▁honor	-11.3576
▁voltage	-11.3576
▁Taylor	-11.3577
▁integrated	-11.3577
▁2016	-11.3579
▁dress	-11.3581
products	-11.3586
Comp	-11.3587
iness	-11.3589
▁mag	-11.3589
▁compact	-11.3589
ule	-11.3593
^2(	-11.3595
▁Formula	-11.3596
hash	-11.3596
cept	-11.3599
▁(1-	-11.3599
solving	-11.3603
▁considerations	-11.3605
▁transparency	-11.3605
aire	-11.3605
Power	-11.3607
say	-11.361
▁cache	-11.361
▁Object	-11.3611
oct	-11.3612
▁Today	-11.3612
▁Response	-11.3614
▁preparation	-11.3615
▁manipulate	-11.3615
▁memories	-11.3616
▁pack	-11.3619
cru	-11.3619
▁um	-11.3619
ци	-11.362
4%	-11.362
mad	-11.362
▁Moreover	-11.3626
▁(0,0)	-11.3629
▁strict	-11.3629
circle	-11.3633
▁Ring	-11.3633
ome	-11.3633
▁об	-11.3634
▁reply	-11.3636
▁burst	-11.3637
▁«	-11.364
Max	-11.3641
▁synthesis	-11.3642
Н	-11.3644
▁creatures	-11.3648
Tip	-11.365
▁Term	-11.365
▁Access	-11.365
▁*/	-11.3651
▁August	-11.3652
{30}	-11.3652
▁intention	-11.3652
stock	-11.3654
▁lexicographical	-11.3654
0:00	-11.3657
▁drama	-11.3657
π	-11.3658
▁*"	-11.366
▁Chapter	-11.366
▁conference	-11.3661
▁Speed	-11.3663
API	-11.3665
▁beside	-11.367
▁59	-11.3671
▁presented	-11.3672
▁targets	-11.3677
indices	-11.3679
▁observation	-11.3689
▁`2`	-11.369
Select	-11.369
lut	-11.3693
flu	-11.3694
▁placement	-11.3695
▁maximizing	-11.3695
▁0.001	-11.3699
possibly	-11.3699
=4:	-11.37
▁phrases	-11.37
php	-11.3704
▁criminal	-11.3705
▁rival	-11.3706
DIFF	-11.3706
▁Gold	-11.3706
▁visitors	-11.3708
ண்ட	-11.3709
180	-11.3709
{16}	-11.3712
▁Mag	-11.3713
▁strike	-11.3714
▁controls	-11.3714
▁102	-11.3718
▁stores	-11.3719
mato	-11.372
▁domains	-11.3721
978	-11.3722
▁becoming	-11.3722
▁ప	-11.3722
TION	-11.3723
▁క	-11.3723
▁Sch	-11.3723
▁expectation	-11.3724
sep	-11.3725
文	-11.3725
▁accommodate	-11.3726
0\	-11.3727
ар	-11.3729
▁inform	-11.3729
▁beach	-11.3729
acy	-11.3729
▁Tu	-11.3731
agon	-11.3731
▁barriers	-11.3732
YOUR	-11.3732
ied	-11.3733
▁kernel	-11.3734
▁£	-11.3735
▁bodies	-11.3736
▁pretty	-11.3736
args	-11.3736
▁cyclic	-11.3737
▁las	-11.3739
▁[7,	-11.374
ía	-11.374
▁bread	-11.3742
▁HTTP	-11.3743
abi	-11.375
▁threat	-11.3752
你	-11.3755
▁pointer	-11.3755
对	-11.3756
FR	-11.3756
श	-11.3758
▁123	-11.376
▁Brown	-11.3764
と	-11.3766
1.6	-11.3769
▁nonlinear	-11.3771
future	-11.3773
learn	-11.3774
▁Moon	-11.3776
ece	-11.3777
▁ف	-11.3778
▁config	-11.3778
▁paintings	-11.3778
▁ratings	-11.378
DF	-11.3781
▁profound	-11.3787
▁dogs	-11.3787
▁recover	-11.3789
▁frequent	-11.379
▁வி	-11.379
grad	-11.3791
▁Training	-11.3794
atur	-11.3797
▁upload	-11.3802
▁alive	-11.3806
▁executive	-11.3807
▁ecosystem	-11.3807
building	-11.3807
ை	-11.3807
_{12}	-11.3811
ло	-11.3811
▁Source	-11.3812
sentence	-11.3814
▁backward	-11.3814
чи	-11.3814
▁cylinder	-11.3822
hit	-11.3823
▁che	-11.3825
"}]	-11.3825
license	-11.3826
rup	-11.3827
▁infection	-11.3827
▁>>>	-11.3828
NC	-11.3828
రు	-11.3829
big	-11.3829
Lo	-11.3831
▁Third	-11.3834
ime	-11.3834
Stat	-11.3834
Up	-11.3836
ook	-11.3836
▁adults	-11.3837
NAME	-11.3837
দ	-11.3837
=1}^{10}	-11.3838
▁proud	-11.3839
▁51	-11.3839
▁impacts	-11.3841
Per	-11.3842
▁"#	-11.3844
bbb	-11.3845
ग	-11.3846
Rating	-11.3847
▁constructive	-11.3849
ison	-11.3851
gov	-11.3852
OUT	-11.3854
வி	-11.3855
▁Mor	-11.3855
▁suggesting	-11.3856
Connection	-11.3857
▁heavily	-11.3858
hello	-11.3858
▁preferences	-11.3862
▁purely	-11.3862
ema	-11.3866
▁courses	-11.3867
{11}	-11.3867
RC	-11.3872
uster	-11.3876
▁critic	-11.388
▁initiatives	-11.3883
▁2*	-11.3886
▁Distribution	-11.3888
▁Bur	-11.3888
▁(18,	-11.3889
[0]=2	-11.389
▁encounter	-11.3891
2025	-11.3892
TE	-11.3894
▁Analyze	-11.3895
▁procedure	-11.3895
ను	-11.3896
▁conducting	-11.3897
▁availability	-11.3898
ה	-11.3899
▁watched	-11.3901
▁hi	-11.3901
▁Stock	-11.3904
activity	-11.3907
who	-11.3907
▁buildings	-11.3907
▁py	-11.3908
▁listening	-11.3909
ו	-11.3909
Progress	-11.3914
lis	-11.3914
▁Ber	-11.3915
▁Win	-11.3917
▁absence	-11.392
▁95%	-11.3922
GE	-11.3925
▁entered	-11.3926
▁Paragraph	-11.3927
BS	-11.3927
▁deployment	-11.393
▁applies	-11.393
▁62	-11.3932
▁stations	-11.3932
▁convey	-11.3932
▁Nor	-11.3933
▁எ	-11.3935
▁packages	-11.3935
/8	-11.3936
▁ranges	-11.3936
8,000	-11.3938
▁vehicles	-11.3938
upper	-11.3939
▁ik	-11.3939
▁dividing	-11.394
▁walks	-11.3944
GO	-11.3944
▁स	-11.3946
им	-11.3948
▁`1`,	-11.3949
▁2500	-11.3955
▁Equations	-11.3955
prod	-11.3956
▁seeing	-11.3956
▁branches	-11.3958
nda	-11.3958
▁các	-11.3959
▁subarrays	-11.3959
mode	-11.396
▁cook	-11.396
▁embrace	-11.3961
▁legacy	-11.3961
food	-11.3962
▁establish	-11.3962
▁Did	-11.3966
▁ග	-11.3966
▁correspond	-11.3968
▁dominant	-11.3969
ility	-11.3969
▁struggle	-11.3969
Str	-11.397
---	-11.397
▁authors	-11.3973
→7	-11.3973
▁б	-11.3975
▁universal	-11.3976
void	-11.3981
problems	-11.3981
▁cream	-11.3981
▁clouds	-11.3981
ਬ	-11.3982
▁prefer	-11.3987
DP	-11.3988
ille	-11.3988
nor	-11.3988
▁motivation	-11.3988
elo	-11.399
▁Load	-11.3993
Controller	-11.3996
▁Target	-11.3996
bil	-11.3996
▁వి	-11.3998
▁rose	-11.3998
τ	-11.4
izar	-11.4001
rey	-11.4003
"))	-11.4006
▁knowing	-11.4006
▁vertically	-11.4009
tens	-11.4009
▁decode	-11.401
▁tied	-11.4011
▁aware	-11.4012
▁interview	-11.4012
▁Twitter	-11.4012
▁aesthetic	-11.4012
tron	-11.4013
બ	-11.4013
మా	-11.4015
▁improvements	-11.4015
^2}{2	-11.4016
Good	-11.4016
sleep	-11.4018
wide	-11.4019
town	-11.402
▁gaze	-11.4021
▁coding	-11.4022
▁silence	-11.4023
▁hardware	-11.4023
▁Platform	-11.4024
varepsilon	-11.4024
▁truck	-11.4024
^-	-11.4024
student	-11.4027
standard	-11.4027
▁30,	-11.4027
events	-11.4027
▁squared	-11.4031
▁2017	-11.4031
▁4-	-11.4034
boot	-11.4037
▁pipeline	-11.4038
-7	-11.4038
short	-11.4039
10000	-11.4039
▁checked	-11.404
ABC	-11.4042
بر	-11.4043
▁whitespace	-11.4045
▁projected	-11.4045
வா	-11.4046
oxy	-11.4049
{100	-11.4051
fra	-11.4052
[9])	-11.4052
▁છે	-11.4054
▁violate	-11.4054
▁weird	-11.4055
ester	-11.4058
charge	-11.4058
album	-11.4061
UR	-11.4062
▁yielding	-11.4063
▁quantities	-11.4064
▁recognized	-11.4065
_0,	-11.4068
▁Pair	-11.4068
smallest	-11.4071
compute	-11.4073
▁variation	-11.4075
▁steel	-11.4075
{1000}	-11.4076
▁Jun	-11.4076
ਿਆ	-11.4078
▁alignment	-11.4079
▁supposed	-11.4079
گ	-11.408
]])	-11.4081
▁61	-11.4081
tz	-11.4085
▁kitchen	-11.4085
1.8	-11.4085
▁underlying	-11.4086
▁placing	-11.4088
ipping	-11.4092
ించ	-11.4093
ற	-11.4094
ả	-11.4095
core	-11.4096
▁dramatic	-11.4096
RM	-11.4096
▁parametric	-11.4096
▁`4`	-11.4097
▁reveal	-11.4102
▁Che	-11.4105
▁Tree	-11.4105
▁warmth	-11.4105
San	-11.4106
comp	-11.4106
▁teeth	-11.4107
▁98	-11.4109
▁Travel	-11.411
EA	-11.411
prev	-11.411
▁classify	-11.4112
▁Fish	-11.4112
One	-11.4112
▁Square	-11.4115
▁sklearn	-11.4117
350	-11.412
▁loops	-11.4122
▁independence	-11.4122
Tr	-11.4125
▁Vector	-11.4126
ટ	-11.4127
▁sustainability	-11.4127
▁abs	-11.4131
TP	-11.4132
double	-11.4135
19,	-11.4136
plane	-11.4136
iel	-11.4136
▁tun	-11.4136
▁shorter	-11.414
ਵਾ	-11.4141
ਆ	-11.4142
▁stickers	-11.4143
made	-11.4143
cro	-11.4145
course	-11.4147
ਰਾ	-11.4148
ச	-11.4148
Ho	-11.4148
▁wealth	-11.4149
▁3]	-11.4149
prec	-11.415
lies	-11.4152
▁logging	-11.4152
especially	-11.4156
17,	-11.4156
▁0]	-11.4156
nothing	-11.4157
ਡ	-11.4159
▁genuine	-11.4159
cup	-11.416
hole	-11.416
▁func	-11.4161
вер	-11.4161
Rank	-11.4164
▁Handle	-11.4165
▁CD	-11.4165
ṣẹ	-11.4165
ised	-11.4166
▁colon	-11.4167
ણ	-11.4169
्य	-11.417
▁Enter	-11.4173
ION	-11.4173
▁bytes	-11.4178
Util	-11.4179
י	-11.418
▁eventually	-11.418
▁cyber	-11.418
▁decade	-11.4181
▁Ham	-11.4182
tab	-11.4182
ators	-11.4187
.\"\	-11.4188
▁innovative	-11.419
nova	-11.4191
▁bonding	-11.4192
anna	-11.4193
128	-11.4193
▁ਦਾ	-11.4195
18,	-11.42
-14	-11.4201
▁Specifically	-11.4202
rine	-11.4202
0.75	-11.4203
▁scheduled	-11.4206
▁facts	-11.4207
▁Heart	-11.4207
▁Weight	-11.4214
?!	-11.4215
ਦਾ	-11.4216
▁est	-11.4216
▁normally	-11.4217
▁210	-11.4219
▁Movie	-11.4219
▁eats	-11.422
eal	-11.422
▁organized	-11.422
▁что	-11.4222
▁hydroxyl	-11.4223
)^3	-11.4223
▁eight	-11.4229
▁Rock	-11.4231
equation	-11.4231
▁Steve	-11.4232
och	-11.4233
▁William	-11.4234
؟	-11.4243
▁ambulance	-11.4243
MB	-11.4244
▁mouse	-11.4244
Big	-11.4244
▁styles	-11.4245
▁evening	-11.4249
render	-11.4249
Scale	-11.4252
3.6	-11.4254
dec	-11.4254
epoch	-11.4255
-1,	-11.4255
▁1–2	-11.4255
delete	-11.4256
+9	-11.4257
▁Australia	-11.4259
▁producing	-11.4261
ер	-11.4271
uch	-11.4271
ACT	-11.4272
{25}	-11.4272
▁Christmas	-11.4273
▁fusion	-11.4274
▁sale	-11.4275
▁distinguish	-11.4278
▁passion	-11.4278
▁unable	-11.428
▁apps	-11.428
▁10^{	-11.4286
▁radial	-11.4286
μ	-11.4288
▁immediate	-11.4288
func	-11.4289
▁Sunday	-11.429
Case	-11.4291
▁disk	-11.4292
▁GR	-11.4294
NS	-11.4295
env	-11.4295
[3]=3	-11.4296
3,5	-11.4297
च	-11.4298
symmetric	-11.4299
}{3}\	-11.43
▁transmission	-11.4308
▁bucket	-11.4309
hard	-11.4314
▁β	-11.4318
3.8	-11.4321
▁stats	-11.4321
▁routes	-11.4323
▁relate	-11.4324
liter	-11.4325
aku	-11.4325
1,5	-11.4327
{0}	-11.4329
template	-11.433
Tech	-11.4333
▁stocks	-11.4334
▁350	-11.4334
▁assignments	-11.4337
▁der	-11.4341
▁confirming	-11.4344
▁256	-11.4347
▁rent	-11.4347
▁economy	-11.435
▁drift	-11.435
▁enemy	-11.435
▁arrive	-11.4353
Moles	-11.4353
2],	-11.4353
nav	-11.4356
users	-11.4357
lain	-11.4357
▁configurations	-11.4357
▁wings	-11.4358
sol	-11.4359
▁publication	-11.436
Reduce	-11.436
▁Understanding	-11.4363
sync	-11.4364
▁personality	-11.4364
ethane	-11.4367
-16	-11.4367
▁Risk	-11.4368
ume	-11.437
લ	-11.437
ante	-11.4371
▁nuclear	-11.4372
น	-11.4372
}_1	-11.4384
▁perception	-11.4387
▁splitting	-11.4388
▁Mars	-11.439
▁ran	-11.4392
ె	-11.4392
▁binomial	-11.4394
▁refrain	-11.4394
▁Array	-11.4394
▁scientist	-11.4399
▁talent	-11.44
▁tight	-11.44
dor	-11.4401
ugu	-11.4401
▁$10,000	-11.4401
▁Val	-11.4402
▁excess	-11.4404
ł	-11.4404
plan	-11.4406
▁splits	-11.4408
▁assumption	-11.441
▁leaders	-11.4414
▁fantasy	-11.4415
duction	-11.4415
▁narrow	-11.4416
▁пере	-11.4417
▁photons	-11.4418
}{100}	-11.4418
▁kilograms	-11.442
▁clip	-11.4421
Back	-11.4421
▁Freedom	-11.4425
ando	-11.4428
ам	-11.4429
ши	-11.4433
prefix	-11.4433
▁supportive	-11.4434
3.2	-11.4435
▁inspiration	-11.4437
▁Account	-11.4438
Dynamic	-11.4442
ş	-11.4445
NET	-11.4447
▁interests	-11.4447
▁decor	-11.4449
ç	-11.4451
00:00	-11.4452
hot	-11.4454
half	-11.4457
▁Kar	-11.4457
wait	-11.4458
▁attitude	-11.4458
大	-11.4459
▁shadows	-11.4463
freq	-11.4466
▁robot	-11.4467
▁/*	-11.4468
2.8	-11.4468
TL	-11.4469
deploy	-11.4469
▁Italian	-11.4469
▁behaviors	-11.4469
▁flexibility	-11.447
▁COVID	-11.447
▁matters	-11.447
eh	-11.4473
Effect	-11.4474
▁parties	-11.4475
ள	-11.4477
United	-11.4477
▁tele	-11.4479
▁mọ	-11.448
▁Building	-11.448
▁thanks	-11.448
Reaction	-11.4481
▁می	-11.4482
ural	-11.4483
▁18,	-11.4485
▁Statement	-11.4487
▁logo	-11.4492
rous	-11.4493
▁gaps	-11.4495
▁∑_{	-11.4495
▁Literature	-11.4496
▁reporting	-11.4497
▁manual	-11.4497
▁suddenly	-11.4499
▁infinity	-11.4502
▁ਬ	-11.4504
▁analytics	-11.4505
▁winner	-11.451
Col	-11.451
NY	-11.451
rio	-11.4511
Blue	-11.4511
TSLA	-11.4511
▁excitement	-11.4513
▁Đ	-11.4515
▁или	-11.4519
▁Luc	-11.4523
'].	-11.4525
▁glowing	-11.4528
▁minimized	-11.4528
320	-11.453
Em	-11.453
Close	-11.4531
▁(19,	-11.4532
▁Close	-11.4532
▁Combining	-11.4535
▁Performance	-11.4536
▁cosine	-11.4536
160	-11.4536
▁bug	-11.4536
{24}	-11.4537
]],	-11.4537
نا	-11.4539
▁imply	-11.454
article	-11.4544
▁cols	-11.4545
DM	-11.4545
▁persist	-11.4547
HS	-11.4549
▁tie	-11.4549
▁ਜ	-11.4549
}{4}\	-11.4551
ать	-11.4554
ى	-11.4556
bell	-11.4558
wen	-11.4558
▁evaluated	-11.4558
▁collective	-11.4561
}{3	-11.4562
odi	-11.4562
▁whatever	-11.4564
Document	-11.4568
▁sinusoidal	-11.4568
▁combining	-11.4568
_1(	-11.4572
shell	-11.4576
▁introduction	-11.4577
tim	-11.4578
▁October	-11.4578
▁showed	-11.4579
{20	-11.4579
▁turning	-11.458
▁Overall	-11.4581
ique	-11.4582
▁..."},	-11.4591
▁mouth	-11.4597
▁ketone	-11.4602
▁Result	-11.4603
▁swaps	-11.4605
'))	-11.4607
▁guest	-11.461
002	-11.461
▁converts	-11.461
▁Results	-11.4612
ение	-11.4612
▁flexible	-11.4612
physical	-11.4614
▁humor	-11.4614
శ	-11.4614
▁[10,	-11.4615
CF	-11.4616
▁т	-11.4617
ите	-11.4617
rou	-11.4618
Base	-11.4618
▁focuses	-11.462
▁schema	-11.462
స	-11.4622
▁denoted	-11.4622
▁rod	-11.4622
(20)	-11.4623
▁discriminant	-11.4623
▁sees	-11.4623
Log	-11.4624
Role	-11.4627
eno	-11.4628
▁proof	-11.4629
▁professionals	-11.4631
▁Quick	-11.4631
▁gang	-11.4632
VI	-11.4633
▁-1,	-11.4634
Super	-11.4634
▁adhere	-11.4635
▁BI	-11.4636
▁మ	-11.4637
▁descriptions	-11.4639
▁10^9	-11.4641
▁Okay	-11.4641
original	-11.4642
్	-11.4643
9.0	-11.4644
▁Professor	-11.4645
▁opponent	-11.4645
0-9	-11.4646
▁burn	-11.4648
▁contained	-11.4648
▁Cu	-11.4652
▁shall	-11.4653
2.3	-11.4655
▁recursion	-11.4656
▁chloride	-11.4656
▁affects	-11.4658
impl	-11.4663
4+	-11.4663
▁minus	-11.4665
▁0.20	-11.4666
ба	-11.4667
▁inclusion	-11.4667
▁versus	-11.4667
▁myth	-11.4668
bd	-11.4671
▁50,000	-11.4673
▁alkene	-11.4676
▁Manager	-11.4677
▁"0	-11.4677
▁accomplish	-11.4678
▁Guide	-11.468
▁Forest	-11.4681
▁procedures	-11.4682
structure	-11.4682
▁pulse	-11.4684
▁realistic	-11.4685
▁absorb	-11.4685
▁`"	-11.4687
otic	-11.4687
▁emphasizing	-11.4689
이	-11.4689
▁copies	-11.4689
▁composed	-11.469
{3}}{2}	-11.469
▁danger	-11.4692
▁draft	-11.4692
fire	-11.4694
sun	-11.4694
▁130	-11.4696
openai	-11.47
▁ق	-11.4703
cite	-11.4703
▁compile	-11.4704
ously	-11.4706
▁startup	-11.4713
▁currency	-11.4713
▁|--------------	-11.4713
▁÷	-11.4714
▁Due	-11.4714
kar	-11.4715
▁ਵ	-11.4715
mask	-11.4717
▁Repeat	-11.4717
yes	-11.4717
▁consistently	-11.4718
ම්	-11.4719
▁10^6	-11.4719
curr	-11.4719
dam	-11.472
225	-11.472
▁'*'	-11.4722
▁19,	-11.4723
igo	-11.4723
▁windows	-11.4723
loads	-11.4724
▁rooted	-11.4725
வை	-11.4726
3=	-11.4726
2},	-11.4727
choice	-11.4728
▁News	-11.4728
Solve	-11.4729
phrase	-11.4729
▁selecting	-11.4731
▁hide	-11.4734
[4]=2	-11.4736
▁img	-11.4737
jọ	-11.4737
dar	-11.4738
Source	-11.4739
break	-11.4741
▁tons	-11.4742
▁Regular	-11.4743
▁industrial	-11.4745
▁reputation	-11.4745
▁agency	-11.4745
▁Features	-11.4745
માં	-11.4746
▁difficulty	-11.4746
▁orders	-11.4747
▁farmer	-11.4748
▁Tuesday	-11.4748
▁alongside	-11.475
0.25	-11.4751
▁intake	-11.4753
either	-11.4755
wọn	-11.4755
▁wisdom	-11.4756
^{-0.05	-11.4759
▁swing	-11.4759
▁Cal	-11.4759
cess	-11.4761
▁ignored	-11.4761
▁ghost	-11.4761
frequency	-11.4761
▁projection	-11.4761
▁`*`	-11.4762
▁Original	-11.4763
▁SO	-11.4764
eller	-11.4764
▁analyst	-11.4765
▁African	-11.4766
MT	-11.4766
▁corrected	-11.4766
▁literal	-11.4767
ජ	-11.4767
▁sodium	-11.4767
▁sọ	-11.4768
gger	-11.4769
▁ي	-11.477
▁Label	-11.477
param	-11.4772
safe	-11.4773
screen	-11.4773
▁knee	-11.4774
▁determination	-11.4779
spin	-11.4781
▁Hand	-11.4781
280	-11.4784
▁threaten	-11.4788
quote	-11.4788
▁variant	-11.4788
Kids	-11.4788
▁incorporating	-11.479
▁pandas	-11.479
▁1.1	-11.4791
Post	-11.4793
ila	-11.4794
▁dust	-11.4794
temperature	-11.4796
Column	-11.4796
Great	-11.4796
}^-	-11.48
▁awe	-11.4802
Mil	-11.4804
sided	-11.4804
▁topological	-11.4804
▁ਨੂੰ	-11.4805
▁faced	-11.4805
▁classroom	-11.4805
▁arranged	-11.4805
▁ATP	-11.4807
λ	-11.4808
(8,	-11.4808
▁Between	-11.4809
▁pose	-11.4811
▁highlighting	-11.4811
▁worried	-11.4812
▁insurance	-11.4812
component	-11.4813
12)	-11.4813
▁Week	-11.4815
▁centered	-11.4815
ణ	-11.4817
▁پ	-11.4818
Im	-11.4818
Energy	-11.482
▁flux	-11.4822
▁expanded	-11.4823
▁eager	-11.4828
హ	-11.4832
3,3	-11.4834
▁ignoring	-11.4834
▁tube	-11.4834
▁protagonist	-11.4835
▁smell	-11.4835
ân	-11.4836
▁perturbation	-11.4836
▁stops	-11.4836
▁hexagon	-11.4841
ception	-11.4845
cia	-11.4845
Page	-11.4848
=0}^{	-11.4851
ذ	-11.4853
▁sight	-11.4854
ак	-11.4854
Thread	-11.4855
Artist	-11.4857
▁afternoon	-11.4857
except	-11.4858
-08	-11.486
fl	-11.4862
4.8	-11.4867
yard	-11.4867
▁html	-11.4869
▁historian	-11.4869
ESS	-11.4869
≥	-11.487
▁до	-11.487
▁substance	-11.4871
3.0	-11.4873
▁forced	-11.4873
–0	-11.4873
▁accordingly	-11.4875
▁reward	-11.4876
▁Bond	-11.4876
▁hero	-11.4877
▁ret	-11.4877
2=1	-11.4879
▁Tea	-11.488
ි	-11.488
▁fluctuations	-11.488
ெ	-11.4881
▁recording	-11.4881
Local	-11.4881
Apple	-11.4882
bed	-11.4883
neighbor	-11.4883
▁populations	-11.4883
^{10}	-11.4885
▁Strategy	-11.4887
▁Dan	-11.4887
▁finished	-11.4888
▁Office	-11.4888
▁identifying	-11.4889
banana	-11.489
▁retired	-11.4891
▁investigate	-11.4892
ને	-11.4892
seconds	-11.4893
▁Fast	-11.4894
ہ	-11.4894
▁molar	-11.4895
▁Edge	-11.4895
▁eigenvalue	-11.4895
download	-11.49
▁piles	-11.4903
▁den	-11.4904
▁sudden	-11.4905
idad	-11.4906
2`.	-11.4911
▁Have	-11.4913
▁performs	-11.4913
profit	-11.4914
▁shoulder	-11.4914
▁grew	-11.4915
1],	-11.4915
▁Log	-11.4921
love	-11.4921
▁installed	-11.4922
195	-11.4923
▁gathering	-11.4923
=1..	-11.4924
kill	-11.4926
▁ester	-11.4926
▁Azure	-11.4927
▁collects	-11.4928
optim	-11.4929
▁protocol	-11.493
▁union	-11.4931
▁flows	-11.4931
{12}	-11.4932
▁freq	-11.4932
▁Four	-11.4932
▁Net	-11.4934
时	-11.4937
▁witness	-11.4937
GET	-11.4939
▁mostly	-11.494
▁poll	-11.494
▁institutions	-11.494
▁Mia	-11.4943
▁vanish	-11.4944
▁Mix	-11.4947
上	-11.4948
▁Condition	-11.4948
third	-11.4948
ride	-11.495
▁ка	-11.4951
▁dim	-11.4952
▁sensor	-11.4956
▁corporate	-11.4957
▁utility	-11.496
btn	-11.4964
ops	-11.4965
▁anime	-11.4967
finite	-11.4968
▁chiral	-11.4968
▁possess	-11.4969
▁கா	-11.497
▁(20,	-11.4972
Length	-11.4972
whisper	-11.4973
ము	-11.4975
▁exclude	-11.4977
IE	-11.4977
▁tissue	-11.4977
▁ban	-11.4978
▁norms	-11.4981
numeric	-11.4982
成	-11.4982
▁benzene	-11.4982
edges	-11.4983
▁div	-11.4983
bottom	-11.4984
Expected	-11.4984
▁QFT	-11.4984
▁symptoms	-11.4984
5°	-11.4985
▁Ji	-11.4986
▁organ	-11.4986
defined	-11.4987
▁10-	-11.4987
▁observations	-11.4991
Pi	-11.4993
mine	-11.4994
▁intrinsic	-11.4994
▁Together	-11.4994
omi	-11.4994
ു	-11.4995
package	-11.4997
▁NY	-11.4998
▁reachable	-11.4998
▁deck	-11.5
entry	-11.5
▁representations	-11.5001
\]\	-11.5002
▁apple	-11.5003
▁downward	-11.5004
pression	-11.5004
enta	-11.5006
▁Record	-11.5008
Free	-11.5009
musician	-11.5009
ML	-11.5012
▁Pour	-11.5012
▁\$1	-11.5012
▁$200	-11.5013
10}	-11.5014
hl	-11.5016
GL	-11.5017
168	-11.5017
▁Fashion	-11.5017
▁illustrate	-11.5017
SR	-11.5018
▁younger	-11.5019
three	-11.502
mix	-11.502
aan	-11.502
▁closing	-11.5021
▁teachers	-11.5024
Po	-11.5024
▁conformation	-11.5029
ulf	-11.503
▁Brand	-11.503
▁traveled	-11.5031
▁Study	-11.5035
▁targeted	-11.5036
OD	-11.5036
aro	-11.5036
▁2012	-11.5038
▁Cha	-11.504
▁ancestor	-11.504
▁cart	-11.5041
▁und	-11.5041
▁Possible	-11.5041
▁enters	-11.5045
▁informed	-11.5045
▁Slade	-11.5047
్య	-11.5049
▁revealing	-11.5051
能	-11.5051
ਧ	-11.5051
▁spherical	-11.5051
な	-11.5052
▁juice	-11.5052
▁25,	-11.5055
lem	-11.5056
ന	-11.5058
],\	-11.5059
▁physically	-11.5059
▁fart	-11.5063
▁swapping	-11.5064
▁با	-11.5065
▁losing	-11.5065
▁2014	-11.5066
[7]=1	-11.5066
mel	-11.5069
ude	-11.5071
umi	-11.5071
creat	-11.5072
cin	-11.5073
▁Unit	-11.5075
▁Flower	-11.5075
"></	-11.5077
▁constructed	-11.5081
binary	-11.5081
}$$	-11.5086
▁tiles	-11.5086
▁ਕਿ	-11.5086
▁0):	-11.5087
▁Ya	-11.5087
▁laptop	-11.5087
▁Choices	-11.5088
memory	-11.5091
▁instruction	-11.5092
▁popularity	-11.5093
interval	-11.5094
▁dz	-11.5096
्या	-11.5097
▁remind	-11.5099
Tag	-11.51
▁brush	-11.5101
▁cultures	-11.5101
5:	-11.5103
2·	-11.5103
▁encountered	-11.5104
west	-11.5107
Request	-11.5107
▁Stream	-11.5108
^3}	-11.5108
▁absorption	-11.5109
▁participation	-11.5109
▁bump	-11.5113
%)	-11.5117
▁enhancing	-11.5121
▁reliability	-11.5121
▁birds	-11.5122
chemical	-11.5123
▁gathered	-11.5123
dataset	-11.5123
bility	-11.5124
▁reagent	-11.5124
varphi	-11.5125
▁Character	-11.5125
Style	-11.5127
ో	-11.5127
uda	-11.5127
▁campaigns	-11.5131
▁parentheses	-11.5132
▁interference	-11.5132
▁villain	-11.5133
▁beliefs	-11.5135
asse	-11.5138
▁specialized	-11.5139
▁September	-11.5139
▁`5`	-11.514
Objective	-11.5142
▁$7	-11.5144
▁ellipse	-11.5144
wind	-11.5144
▁cosmic	-11.5144
Pdf	-11.5145
▁contexts	-11.5149
▁Sales	-11.5149
engine	-11.5149
Pos	-11.515
family	-11.515
Function	-11.5151
▁111	-11.5151
^{-0.5	-11.5153
mount	-11.5154
▁lecture	-11.5156
▁proteins	-11.5158
50000	-11.516
ای	-11.516
▁readers	-11.5162
German	-11.5163
▁extraction	-11.5166
▁dot	-11.5166
▁pairwise	-11.5167
ু	-11.5167
▁fate	-11.5168
▁mess	-11.5168
▁biological	-11.5169
▁thank	-11.517
▁Public	-11.5172
lysis	-11.5174
clear	-11.5175
Update	-11.5176
▁со	-11.5176
bon	-11.5179
▁crash	-11.518
call	-11.5183
▁nth	-11.5183
positions	-11.5184
oku	-11.5184
▁Sequence	-11.5184
ér	-11.5184
▁earned	-11.5187
▁(5)	-11.5188
ander	-11.519
▁-6	-11.5191
▁Facebook	-11.5191
▁Introduction	-11.5192
Electronic	-11.5193
send	-11.5195
▁humanity	-11.5198
grinning	-11.5198
ians	-11.5199
sign	-11.5202
മ	-11.5202
▁possibilities	-11.5202
interest	-11.5204
${	-11.5204
▁Begin	-11.5205
▁Hair	-11.5206
▁Such	-11.5207
නි	-11.5208
▁stated	-11.5209
LC	-11.5211
201	-11.5211
▁अ	-11.5212
▁dealing	-11.5213
▁multiplying	-11.5214
buy	-11.5214
INSERT	-11.5214
▁streaming	-11.5215
kun	-11.5217
−1)	-11.5217
PER	-11.5219
ශ	-11.5221
▁omit	-11.5222
1%	-11.5222
-2-	-11.5223
chloro	-11.5224
Interval	-11.5226
arry	-11.5226
▁comparing	-11.5226
▁utilize	-11.5227
nium	-11.5227
▁как	-11.5228
▁Russia	-11.5228
▁lean	-11.5229
4,000	-11.523
src	-11.5233
Za	-11.5233
Process	-11.5233
▁attending	-11.5234
COOH	-11.5234
mir	-11.5236
ма	-11.5236
▁filters	-11.5237
▁trembling	-11.5238
HA	-11.5238
▁$30	-11.5239
▁athlete	-11.5241
▁graphs	-11.5242
ancing	-11.5243
▁formulate	-11.5244
bia	-11.5244
▁journal	-11.5246
▁blur	-11.5247
145	-11.5248
nel	-11.5249
▁п	-11.5249
分	-11.525
る	-11.525
▁bulk	-11.525
▁Map	-11.525
▁Tur	-11.5252
mass	-11.5253
▁GDP	-11.5256
360	-11.5256
)=3	-11.5257
rail	-11.5258
iri	-11.5258
▁breed	-11.5259
▁discipline	-11.5261
▁bundle	-11.5261
▁similarity	-11.5265
ற்ற	-11.5267
ज	-11.5268
▁alphabet	-11.5271
Math	-11.5271
▁latitude	-11.5273
▁worse	-11.5275
▁interviews	-11.5275
గా	-11.5279
▁scroll	-11.528
easing	-11.5281
▁Help	-11.5282
▁broke	-11.5283
▁indicator	-11.5283
oven	-11.5284
john	-11.5285
bert	-11.5286
▁notation	-11.5286
્	-11.5286
▁වි	-11.5292
▁Ice	-11.5292
Wait	-11.5296
▁independently	-11.5296
▁divergence	-11.5297
▁thin	-11.5297
ве	-11.5297
сь	-11.5298
▁drag	-11.5298
}","	-11.5299
▁inherent	-11.53
▁Core	-11.5301
▁encode	-11.5302
▁Balance	-11.5302
Cu	-11.5302
▁softly	-11.5302
▁Link	-11.5302
rand	-11.5303
▁likelihood	-11.5304
cross	-11.5308
race	-11.531
▁(-2)	-11.5311
topic	-11.5311
▁regional	-11.5311
▁converting	-11.5313
craft	-11.5314
oot	-11.5315
▁login	-11.5318
▁masses	-11.5318
▁chicken	-11.5318
▁Fri	-11.5319
▁advocate	-11.532
▁symmetries	-11.532
▁ONLY	-11.532
git	-11.5324
Hz	-11.5325
▁Ratio	-11.5325
▁Connect	-11.5327
▁Double	-11.533
▁scheme	-11.5331
▁storytelling	-11.5332
ively	-11.5333
health	-11.5334
save	-11.5334
'),	-11.5334
Best	-11.5334
UM	-11.5337
▁reasonable	-11.5338
▁extracted	-11.5338
▁knows	-11.5341
GM	-11.5342
azi	-11.5344
ogen	-11.5344
▁victim	-11.5346
रा	-11.5348
ulated	-11.5348
Div	-11.5349
fusion	-11.535
ക	-11.5351
−5	-11.5358
bio	-11.5359
▁।	-11.536
▁Customer	-11.5361
params	-11.5364
_2),	-11.5365
oko	-11.5365
▁basket	-11.5367
യ	-11.5368
▁Yet	-11.5368
▁governance	-11.5368
▁Care	-11.537
horizontally	-11.5372
▁decades	-11.5378
▁Carbon	-11.5379
minutes	-11.5379
மை	-11.5381
Module	-11.5381
▁1·	-11.5382
▁twin	-11.5383
rise	-11.5384
▁calendar	-11.5385
trivial	-11.5386
555	-11.5389
▁0`	-11.539
opt	-11.539
uz	-11.539
出	-11.5391
OK	-11.5391
▁cybersecurity	-11.5392
^2}}	-11.5392
▁driven	-11.5392
loop	-11.5393
▁adaptation	-11.5394
▁1980	-11.5395
▁counting	-11.5395
▁pause	-11.5397
ville	-11.54
▁bone	-11.5401
▁Lab	-11.5401
▁divisors	-11.5402
য়	-11.5403
ở	-11.5403
Attribute	-11.5403
2.1	-11.5404
▁animated	-11.5404
986	-11.5405
▁Internet	-11.5405
TI	-11.5407
greater	-11.5408
▁හ	-11.5409
▁rhythm	-11.5409
stin	-11.541
▁Если	-11.5411
与	-11.5415
station	-11.5419
යි	-11.542
Over	-11.542
/6	-11.5425
▁බ	-11.5426
ظ	-11.5427
▁`1	-11.5427
▁formulation	-11.5428
lav	-11.5429
followers	-11.543
7.8	-11.5433
▁dependencies	-11.5435
▁adjustments	-11.5435
fect	-11.544
ẹ̀	-11.544
▁delta	-11.5441
▁pitch	-11.5441
enti	-11.5444
_1),	-11.5444
scape	-11.5444
ulu	-11.5447
▁thi	-11.545
▁solely	-11.5451
|^2	-11.5452
pad	-11.5453
▁tough	-11.5455
nut	-11.5462
▁Ipinle	-11.5463
28,	-11.5464
Quantum	-11.5468
Project	-11.5468
▁Rose	-11.5469
Th	-11.5469
▁wonderful	-11.5469
▁fighting	-11.5469
▁http	-11.547
▁losses	-11.5472
party	-11.5474
اس	-11.5475
▁encrypted	-11.5475
▁knock	-11.5475
▁69	-11.5475
▁covariance	-11.5476
▁Application	-11.5476
▁ri	-11.5476
▁Sonic	-11.548
న్	-11.548
Level	-11.548
+10	-11.548
ン	-11.5487
Default	-11.5488
▁10\	-11.549
Song	-11.549
ય	-11.549
cb	-11.549
සි	-11.5491
▁searching	-11.5491
dfrac	-11.5492
Enable	-11.5492
▁operate	-11.5493
▁perceived	-11.5495
ده	-11.5495
▁3.0	-11.5495
▁rely	-11.5497
▁700	-11.5498
▁moderate	-11.5501
▁recall	-11.5501
▁separators	-11.5501
▁outgoing	-11.5502
(“	-11.5502
▁Meta	-11.5502
deg	-11.5502
oro	-11.5502
▁extend	-11.5504
oriented	-11.5504
bẹ	-11.5505
▁94	-11.5506
resource	-11.5506
▁76	-11.5506
ਉ	-11.5507
▁rep	-11.551
▁Swift	-11.5511
-9	-11.5512
▁(0,3)	-11.5513
102	-11.5513
WE	-11.5514
▁floats	-11.5514
▁Strong	-11.5515
ATE	-11.5517
Ph	-11.5517
8),	-11.5517
▁સ	-11.5519
▁concrete	-11.5524
▁proposal	-11.5524
▁pathway	-11.5524
▁Stay	-11.5524
▁encoding	-11.5524
▁**6.	-11.5526
tel	-11.5526
▁household	-11.5528
▁attach	-11.5531
pers	-11.5532
▁il	-11.5535
doc	-11.5537
▁Land	-11.5538
▁artistic	-11.5539
▁consist	-11.554
▁Tra	-11.5541
wrap	-11.5542
450	-11.5542
▁apartment	-11.5543
▁22,	-11.5547
▁bonus	-11.5548
▁vk	-11.5549
0001	-11.5549
chart	-11.5549
▁Way	-11.5551
▁trials	-11.5551
▁forever	-11.5555
▁म	-11.5555
reason	-11.5556
wel	-11.5557
▁Models	-11.5557
▁stomach	-11.556
▁Conditions	-11.5561
▁migration	-11.5561
burg	-11.5567
▁wake	-11.5567
▁stroke	-11.5568
history	-11.557
▁SU	-11.557
▁0).	-11.557
▁reacts	-11.5571
▁operates	-11.5571
TC	-11.5572
shi	-11.5577
▁transforms	-11.5577
▁drops	-11.5577
▁viewers	-11.5578
▁emphasizes	-11.558
dynamic	-11.5581
321	-11.5581
há	-11.5585
▁suspect	-11.5585
25}	-11.5587
master	-11.5587
!!!	-11.5588
▁visiting	-11.5588
▁weapon	-11.5591
▁[],	-11.5592
த்	-11.5592
Sample	-11.5593
这	-11.5596
▁flour	-11.5597
direction	-11.5598
FI	-11.5598
▁σ	-11.56
▁secrets	-11.5603
General	-11.5603
▁venue	-11.5605
▁rigorous	-11.5606
ਜ	-11.5607
iana	-11.5608
▁joke	-11.5608
bad	-11.5608
ς	-11.5608
▁balancing	-11.5608
்	-11.5609
വ	-11.5609
▁nano	-11.5609
▁preferred	-11.561
ford	-11.5614
▁assumed	-11.5614
▁dual	-11.5615
▁Community	-11.5618
▁Heat	-11.5621
行	-11.5621
▁Maya	-11.5624
▁sells	-11.5625
▁drives	-11.5629
prompt	-11.563
RAM	-11.5631
▁2–3	-11.5631
▁(20	-11.5634
ige	-11.5635
▁dev	-11.5637
▁0),	-11.5641
Change	-11.5645
▁energies	-11.5645
▁funny	-11.5646
▁12.5	-11.5647
wiki	-11.5647
shirt	-11.5648
▁researcher	-11.5648
▁1990	-11.565
▁``	-11.5653
▁pat	-11.5655
Character	-11.5655
▁Effects	-11.5656
▁inequalities	-11.5657
▁legend	-11.566
[0]=3	-11.5663
▁bath	-11.5663
▁✓	-11.5665
щ	-11.5666
▁whereas	-11.5667
▁literary	-11.567
▁tradition	-11.5671
▁gba	-11.5671
00000000	-11.5674
▁composite	-11.5675
▁leveraging	-11.5682
▁torque	-11.5682
conf	-11.5682
▁stays	-11.5687
▁Story	-11.5693
OW	-11.5695
لي	-11.5695
-25	-11.5698
▁exercises	-11.5698
▁2:**	-11.5699
batch	-11.5699
▁lighting	-11.5699
ache	-11.57
▁mock	-11.57
▁2023,	-11.5701
control	-11.5705
▁Acid	-11.5706
EMAIL	-11.5707
▁poetry	-11.5707
hai	-11.5707
▁Details	-11.5708
▁demands	-11.5709
▁Unique	-11.5709
Work	-11.571
▁Scooby	-11.5713
filename	-11.5714
▁Kids	-11.5715
^{2}	-11.5716
▁derivation	-11.5719
▁essence	-11.5719
▁trong	-11.572
equi	-11.5725
0.04	-11.5726
▁Ven	-11.5727
Structure	-11.5732
Google	-11.5732
▁92	-11.5733
▁killed	-11.5733
▁struggles	-11.5733
▁judge	-11.5734
▁banana	-11.5734
▁disappear	-11.5741
years	-11.5742
▁empirical	-11.5743
▁spiritual	-11.5745
ீ	-11.5747
cannot	-11.5749
comment	-11.575
▁Old	-11.5752
▁intent	-11.5755
▁unusual	-11.5757
▁раз	-11.5757
▁Andr	-11.5757
}{8}	-11.5758
elli	-11.5759
▁dividend	-11.5761
▁justify	-11.5761
▁plastic	-11.5761
Electron	-11.5761
▁amino	-11.5762
▁serving	-11.5762
▁meals	-11.5766
198	-11.5767
▁broadcast	-11.5768
▁shield	-11.5769
▁Tim	-11.577
▁{0,1,2,	-11.5773
▁fostering	-11.5773
رو	-11.5774
ğ	-11.5778
ব	-11.5778
thumbnail	-11.5781
[::-1]	-11.5781
^{-(	-11.5781
timezone	-11.5781
▁websites	-11.5782
▁1:**	-11.5783
)=4	-11.5788
ாக	-11.5789
▁motor	-11.5789
▁AAPL	-11.579
▁king	-11.579
▁majority	-11.5791
▁Early	-11.5792
▁discrimination	-11.5793
▁mathematics	-11.5793
▁fingers	-11.5793
▁CSV	-11.5794
▁although	-11.5794
matches	-11.5794
▁1),	-11.5797
ту	-11.5797
}^\	-11.5798
▁lifestyle	-11.5799
▁Need	-11.5799
▁Feel	-11.5799
▁rẹ	-11.5799
▁Adventure	-11.5801
▁Les	-11.5802
▁February	-11.5802
\[\	-11.5802
▁acids	-11.5803
▁equality	-11.5804
▁shaped	-11.5804
▁friction	-11.5805
▁electromagnetic	-11.5805
visibility	-11.5806
ரை	-11.5807
▁purchased	-11.5808
POST	-11.5808
abb	-11.5809
tors	-11.581
па	-11.581
▁Dark	-11.581
9.6	-11.5811
-------------|	-11.5814
▁Korea	-11.5815
▁expanding	-11.5816
▁Tools	-11.5816
▁प	-11.5816
▁agents	-11.5816
▁pathways	-11.5816
▁SE	-11.5825
▁Services	-11.5828
ок	-11.583
▁encoded	-11.5831
▁mut	-11.5833
▁optical	-11.5833
▁hate	-11.5834
▁END	-11.5834
▁instrument	-11.5835
1,2	-11.5838
▁Mat	-11.5838
movie	-11.5839
Panel	-11.584
lk	-11.584
EUR	-11.5841
▁sophisticated	-11.5843
▁pricing	-11.5843
▁rendering	-11.5845
▁speaking	-11.5845
Distance	-11.5847
cra	-11.5847
▁confused	-11.5848
▁como	-11.5849
▁−1	-11.585
▁Attack	-11.5852
மா	-11.5853
ski	-11.5854
θ	-11.5855
openAccess	-11.5855
▁gaming	-11.5856
ibi	-11.5856
▁desk	-11.586
234	-11.5863
anim	-11.5864
▁incidents	-11.5864
▁contractions	-11.5864
▁ද	-11.5865
▁summing	-11.5866
▁discrete	-11.5868
ных	-11.5869
ados	-11.587
uru	-11.587
▁medicine	-11.5871
▁wavelength	-11.5871
dan	-11.5872
196	-11.5873
▁Knight	-11.5873
ón	-11.5875
▁Constraint	-11.5876
▁bowl	-11.5878
agent	-11.5879
اب	-11.5879
reference	-11.588
थ	-11.588
▁decomposition	-11.588
note	-11.5882
Host	-11.5882
cas	-11.5884
0+	-11.5884
▁Left	-11.5885
background	-11.5886
analysis	-11.5886
▁Potential	-11.5886
▁nationality	-11.5886
[2]=4	-11.5887
Flu	-11.5888
+0	-11.5889
∨	-11.5889
▁erroneous	-11.5889
▁sending	-11.5889
▁225	-11.5891
▁Bird	-11.5894
Spec	-11.5898
ific	-11.5899
ape	-11.5899
се	-11.59
uki	-11.5901
▁Objective	-11.5901
login	-11.5902
bab	-11.5902
▁80%	-11.5903
▁fell	-11.5903
bling	-11.5904
到	-11.5905
δ	-11.5905
▁cartoon	-11.5906
▁crew	-11.5906
▁Although	-11.5906
▁extends	-11.5909
erry	-11.591
polar	-11.591
▁Abstract	-11.5911
]))	-11.5913
123456	-11.5914
▁manually	-11.5915
▁[6,	-11.5916
667	-11.5917
▁investigation	-11.5918
▁civilization	-11.5919
▁Edit	-11.5919
ди	-11.592
▁undergo	-11.592
▁childhood	-11.5921
▁lips	-11.5922
▁ounces	-11.5923
ું	-11.5923
}}\	-11.5923
▁authentic	-11.5924
RP	-11.5924
▁refine	-11.5924
here	-11.5927
▁contributing	-11.593
▁interior	-11.5931
=0)	-11.5936
▁correction	-11.5937
▁exceptions	-11.5939
ડ	-11.5943
性	-11.5943
▁àwọn	-11.5943
▁finance	-11.5945
007	-11.5947
5.6	-11.5947
▁north	-11.595
uge	-11.595
▁beneficial	-11.5956
▁tattoo	-11.5956
▁clothes	-11.5956
▁poems	-11.5961
下	-11.5961
{2}{	-11.5964
Write	-11.5966
▁clothing	-11.5969
▁Flow	-11.5969
UP	-11.5969
▁endpoint	-11.597
np	-11.5976
gas	-11.5976
▁conjugate	-11.5977
▁decreasing	-11.5979
rook	-11.5979
▁television	-11.5981
▁2008	-11.5982
ඩ	-11.5985
platform	-11.5989
▁cnt	-11.5995
▁ре	-11.5995
▁(9	-11.5996
▁$25	-11.5997
uf	-11.5999
්‍ර	-11.6
▁rising	-11.6
▁Department	-11.6
▁mL	-11.6002
▁evenly	-11.6004
......	-11.6004
Monitor	-11.6006
▁Paul	-11.6008
taking	-11.6008
▁wouldn	-11.6009
ने	-11.6011
▁2013	-11.6013
4",	-11.6014
=18	-11.6014
▁Republic	-11.6015
▁86	-11.6017
▁480	-11.6019
▁employ	-11.6019
connect	-11.602
▁fibonacci	-11.6022
▁housing	-11.6022
ée	-11.6027
▁Photo	-11.6032
EMA	-11.6032
▁(2,1)	-11.6033
Skill	-11.6033
▁SCP	-11.6035
▁electro	-11.6035
240	-11.6036
fb	-11.6038
▁darkness	-11.6038
▁Hor	-11.6038
2019	-11.6042
▁°	-11.6043
▁الت	-11.6044
▁196	-11.6045
}{12}\	-11.6045
Items	-11.6048
▁Studio	-11.6051
wer	-11.6052
▁Season	-11.6052
▁Sand	-11.6052
while	-11.6053
▁...],	-11.606
▁Communication	-11.606
ente	-11.6063
=5:	-11.6064
tire	-11.6064
raz	-11.6065
▁Julia	-11.6067
▁ref	-11.6069
▁protons	-11.607
▁relativity	-11.607
работ	-11.607
ની	-11.607
▁Limit	-11.607
2,4	-11.6073
1)=1	-11.6074
-13	-11.6075
ọn	-11.6075
Prop	-11.6075
▁rental	-11.6076
▁Collect	-11.6077
▁Instructions	-11.6077
UI	-11.6079
▁defect	-11.6079
▁Wednesday	-11.608
UD	-11.6081
▁bob	-11.6082
▁observable	-11.6083
▁shoes	-11.6083
อ	-11.6083
▁Assignments	-11.6083
▁connectivity	-11.6083
▁fly	-11.6088
▁Turn	-11.6088
method	-11.6094
Principle	-11.6095
▁boat	-11.6096
▁icon	-11.6097
▁Profit	-11.6098
▁Considerations	-11.6098
▁consume	-11.6098
▁shifting	-11.6098
▁busy	-11.6099
counter	-11.6103
0,1	-11.6104
▁Exp	-11.6105
▁tip	-11.6105
{15	-11.6107
⇒	-11.6108
appointment	-11.6108
▁97	-11.611
▁pixels	-11.611
}^+	-11.6112
oph	-11.6112
▁Christian	-11.6113
headline	-11.6113
ير	-11.6114
తి	-11.6118
▁clue	-11.6118
nodes	-11.612
▁quotient	-11.6121
▁exc	-11.6122
lr	-11.6122
▁huge	-11.6123
▁conversations	-11.6123
▁dishes	-11.6127
▁Bell	-11.6127
aunt	-11.6128
syn	-11.6128
▁Del	-11.6128
ат	-11.6128
▁brave	-11.613
▁код	-11.6131
2.2	-11.6132
tti	-11.6134
▁sweat	-11.6134
omer	-11.6135
ке	-11.6136
▁uncover	-11.6137
comments	-11.6137
▁Foundation	-11.6138
CU	-11.6138
▁outdoor	-11.6139
▁installation	-11.6141
stereo	-11.6142
2>	-11.6146
▁metadata	-11.6147
ơ	-11.6147
▁sensors	-11.6147
Health	-11.6147
▁confirmed	-11.6148
▁Revolution	-11.6148
▁1800	-11.6148
▁Email	-11.615
ín	-11.6154
▁realized	-11.6155
▁foundational	-11.6156
zing	-11.6157
▁everywhere	-11.6158
▁upward	-11.6159
corp	-11.616
▁Room	-11.6164
▁CON	-11.6165
ether	-11.6166
▁Sur	-11.6167
▁iterate	-11.6168
(0.1	-11.6168
fd	-11.6169
▁inherently	-11.6169
▁Positive	-11.617
▁$150	-11.6171
★	-11.6173
▁Organization	-11.6173
▁RGB	-11.6173
cam	-11.6174
▁genres	-11.6174
288	-11.6177
▁disconnect	-11.6177
▁PC	-11.6177
▁Intelligence	-11.6178
)):	-11.6179
▁Mountain	-11.6181
aco	-11.6182
▁trending	-11.6182
Mon	-11.6182
▁sits	-11.6183
shot	-11.6185
[3]=4	-11.6187
Stream	-11.6187
5,6	-11.6187
▁comedy	-11.6189
▁AD	-11.6189
▁GCD	-11.619
▁initialize	-11.6191
▁chains	-11.6194
▁upgrade	-11.6194
isation	-11.6194
▁enhanced	-11.6195
▁mini	-11.6196
▁4.0	-11.6196
ना	-11.6196
rang	-11.6198
▁provider	-11.6198
▁museum	-11.6198
mil	-11.62
▁swapped	-11.62
logue	-11.6202
▁rings	-11.6203
▁ease	-11.6206
ण	-11.6206
ழ	-11.621
BI	-11.6211
▁reveals	-11.6211
▁centuries	-11.6211
ड	-11.6211
▁possibility	-11.6211
Extra	-11.6212
{2}}{2}	-11.6214
–10	-11.6214
▁Korean	-11.6214
pho	-11.6217
වා	-11.6218
_1^2	-11.6218
CM	-11.6219
When	-11.6219
▁rev	-11.6223
▁mutation	-11.6224
▁scoring	-11.6224
▁pot	-11.6225
Definition	-11.6227
plica	-11.6228
access	-11.6228
▁replacement	-11.6228
▁ultimately	-11.6231
amo	-11.6232
▁pale	-11.6232
PH	-11.6233
▁winter	-11.6235
Est	-11.6235
]`.	-11.6236
▁courage	-11.6237
会	-11.6237
▁intellectual	-11.6237
1=0	-11.6239
GC	-11.624
прав	-11.624
AV	-11.624
▁Watch	-11.624
▁Road	-11.6241
▁shopping	-11.6241
QUESTION	-11.6241
After	-11.6241
▁Cover	-11.6241
bus	-11.6245
DataFrame	-11.6246
Р	-11.625
▁được	-11.625
dig	-11.6252
extend	-11.6253
desc	-11.6254
▁آ	-11.6254
989	-11.6255
▁Challenges	-11.6255
▁curl	-11.6255
▁accounting	-11.6256
views	-11.6259
when	-11.6261
▁longitude	-11.6261
▁Char	-11.6261
▁Dia	-11.6262
▁dice	-11.6263
▁loved	-11.6263
cloud	-11.6264
-2)	-11.6265
▁strengths	-11.6266
electric	-11.6267
security	-11.6268
screenshot	-11.6269
▁Loss	-11.6269
quarter	-11.6269
▁FOR	-11.6271
▁Self	-11.6273
him	-11.6274
▁dense	-11.6274
present	-11.6276
▁φ	-11.6276
▁Critical	-11.6279
rip	-11.628
▁timing	-11.628
_1]	-11.6281
▁oo	-11.6284
▁$500	-11.6286
▁flicker	-11.6286
▁Excel	-11.6287
gia	-11.6288
▁Ny	-11.6288
▁complement	-11.6288
▁explains	-11.6288
▁под	-11.6289
addEventListener	-11.6289
▁diagram	-11.6292
▁studio	-11.6292
cious	-11.6294
▁socio	-11.6295
^8	-11.6297
ounce	-11.6302
ले	-11.6303
▁guy	-11.6303
▁stages	-11.6303
▁Yu	-11.6304
▁President	-11.6305
▁Hill	-11.6305
▁Subject	-11.6306
▁cursor	-11.6306
ారు	-11.6308
aze	-11.6311
112	-11.6312
▁va	-11.6312
ল	-11.6313
学	-11.6315
▁association	-11.6315
▁الأ	-11.6316
▁overcome	-11.6316
}{9}	-11.6317
▁Tell	-11.6317
habit	-11.6317
▁logs	-11.6318
▁است	-11.6318
▁vapor	-11.6319
▁(0-	-11.6319
Other	-11.6321
itis	-11.6322
▁Additional	-11.6322
-18	-11.6322
labels	-11.6325
1.4	-11.6326
್	-11.6328
▁seeds	-11.633
mas	-11.6331
▁Lastly	-11.6334
Chinese	-11.6335
Volume	-11.6335
▁loud	-11.6337
▁Memory	-11.6337
1,2,3	-11.634
▁73	-11.634
െ	-11.6342
א	-11.6342
▁asset	-11.6342
▁Dim	-11.6343
▁scream	-11.6343
▁HCl	-11.6343
MD	-11.6343
Alright	-11.6347
▁0.06	-11.6348
▁nucleophilic	-11.6348
▁1000)	-11.635
▁enables	-11.635
_3)	-11.635
▁Definition	-11.6351
▁108	-11.6352
ι	-11.6354
▁إ	-11.6356
▁handled	-11.6357
પ	-11.6357
▁87	-11.6358
Star	-11.6361
▁convention	-11.6361
ਸਾ	-11.6364
indexing	-11.6367
▁kingdom	-11.6368
▁passionate	-11.6369
Word	-11.6369
dem	-11.6371
HER	-11.6371
▁strengthen	-11.6372
▁served	-11.6373
▁speaker	-11.6373
▁bars	-11.6374
га	-11.6375
(15)	-11.6377
▁Transform	-11.6379
▁equilateral	-11.6381
▁recurrence	-11.6381
cus	-11.6381
▁foods	-11.6382
▁leak	-11.6382
▁texts	-11.6383
strict	-11.6383
Swap	-11.6384
▁Cell	-11.6384
fast	-11.6384
▁Offer	-11.6386
▁resist	-11.6386
▁oun	-11.6387
▁nation	-11.6388
Format	-11.6389
▁1).	-11.6389
▁một	-11.6394
▁apparent	-11.6394
▁UTC	-11.6396
"}}}	-11.6397
Physical	-11.6397
/7	-11.6397
ext	-11.64
192	-11.6402
powered	-11.6403
▁ਵਿੱਚ	-11.6407
▁substrate	-11.6407
▁latency	-11.6407
▁ritual	-11.6407
▁magnet	-11.6409
hun	-11.6411
[1]=4	-11.6413
▁consult	-11.6414
ographic	-11.6415
▁sport	-11.6416
▁Peter	-11.6416
▁protected	-11.6417
▁Predict	-11.6417
ின்	-11.6417
▁stood	-11.6421
▁plain	-11.6424
Task	-11.6425
▁1.6	-11.6425
▁મ	-11.6426
▁Δ	-11.6426
ਇ	-11.6427
▁modules	-11.6428
▁720	-11.6429
▁falling	-11.643
▁mystery	-11.6434
▁135	-11.6434
▁5.0	-11.6438
global	-11.644
0.03	-11.6441
▁-0.5	-11.6441
7]	-11.6443
▁defines	-11.6444
▁1,000	-11.6445
▁1.8	-11.6445
dz	-11.6446
▁monster	-11.6447
▁Negative	-11.6447
▁replacing	-11.6449
▁Shadow	-11.6451
▁cleaning	-11.6452
hor	-11.6452
▁sex	-11.6453
reverse	-11.6453
7.2	-11.6454
▁Bay	-11.6454
eyed	-11.6457
(10,	-11.6458
inger	-11.6459
▁kid	-11.646
▁Goku	-11.646
▁प्र	-11.646
{200}	-11.6461
▁influencer	-11.6462
▁explained	-11.6462
}{2\	-11.6462
▁tan	-11.6464
▁barrier	-11.6466
▁appeal	-11.6467
{2}}	-11.6468
}\))	-11.6469
beat	-11.647
{500}	-11.647
▁decline	-11.6471
ੜ	-11.6474
▁obstacles	-11.6474
ется	-11.6474
▁79	-11.6477
▁showcase	-11.6478
▁preventing	-11.6479
eek	-11.6482
கி	-11.6482
யா	-11.6482
▁**\(	-11.6483
டை	-11.6484
surface	-11.6484
roo	-11.6484
▁restrict	-11.6486
Notice	-11.6486
{40}	-11.6487
▁catalyst	-11.6487
tte	-11.6489
!*	-11.6489
▁Latest	-11.6491
▁Break	-11.6491
▁1,000,000	-11.6492
exe	-11.6493
▁Par	-11.6493
▁fu	-11.6494
LD	-11.6494
▁travels	-11.6494
210	-11.6494
aste	-11.6496
▁LA	-11.6497
دا	-11.6498
▁rotational	-11.6498
mac	-11.6498
▁quest	-11.6499
22,	-11.6499
▁underscores	-11.65
ides	-11.65
gui	-11.65
Char	-11.6501
▁recursively	-11.6502
stitu	-11.6502
▁outfit	-11.6503
small	-11.6504
▁stretch	-11.6504
10,000	-11.6505
▁translated	-11.6509
Origin	-11.6509
ਹਾ	-11.6511
▁estate	-11.6513
ọrọ	-11.6513
module	-11.6513
models	-11.6514
Purpose	-11.6514
build	-11.6515
▁Pack	-11.6516
▁discussed	-11.6517
▁laser	-11.6518
fu	-11.6518
latter	-11.6519
▁league	-11.652
▁Poly	-11.6522
ви	-11.6524
▁Sent	-11.6524
Condition	-11.6526
▁hang	-11.6527
▁philosophy	-11.6527
▁carried	-11.6527
▁wife	-11.6527
▁swim	-11.6527
▁doubt	-11.6529
."}	-11.6533
Mode	-11.6534
▁Checking	-11.6535
▁{3,	-11.6535
▁Recent	-11.6537
▁attended	-11.6538
▁admin	-11.6539
ચ	-11.654
▁achieving	-11.654
▁manufacturing	-11.654
▁identifies	-11.654
wikipedia	-11.654
▁snap	-11.6541
▁embedding	-11.6541
▁Sil	-11.6542
▁Word	-11.6542
4.2	-11.6544
oji	-11.6546
own	-11.6547
Move	-11.6548
▁Android	-11.6548
AU	-11.6549
▁Nu	-11.6551
sales	-11.6552
disclaimer	-11.6554
ott	-11.6554
▁Mad	-11.6554
latitude	-11.6554
ত	-11.6559
ICE	-11.6559
▁(12	-11.6561
▁pride	-11.6562
/3)	-11.6562
▁settle	-11.6563
▁jumps	-11.6564
0=1	-11.6564
bid	-11.6565
▁goods	-11.6567
rack	-11.6568
▁Einstein	-11.6569
uan	-11.6572
▁Child	-11.6572
▁safely	-11.6572
σ	-11.6576
▁cows	-11.6576
▁optimally	-11.6577
▁එ	-11.6578
▁Ayano	-11.658
生	-11.658
▁tomorrow	-11.658
▁Electric	-11.6583
▁Status	-11.6585
▁Spider	-11.6585
▁lived	-11.6586
}{4	-11.6586
▁aromatic	-11.6586
▁intersect	-11.6586
▁meme	-11.6588
▁Sec	-11.6591
સ	-11.6591
9%	-11.6593
▁appeared	-11.6593
Low	-11.6594
▁Ques	-11.6594
▁Bro	-11.6595
▁**“	-11.6595
▁Single	-11.6595
भ	-11.6595
_0^2	-11.6596
▁ages	-11.6596
▁emit	-11.6598
exit	-11.6598
3000	-11.6598
▁restored	-11.6599
▁Expression	-11.66
▁2011	-11.66
▁violation	-11.6607
▁buys	-11.6611
▁elderly	-11.6612
writing	-11.6612
ход	-11.6612
▁\"22	-11.6613
ital	-11.6613
▁Upon	-11.6615
ිය	-11.6616
▁annually	-11.6619
▁gun	-11.662
▁residual	-11.6621
enc	-11.6621
666	-11.6624
▁synthetic	-11.6624
ching	-11.6625
▁formatting	-11.6625
▁maintains	-11.6625
anga	-11.6627
▁Policy	-11.6627
▁sad	-11.663
▁tweet	-11.6632
ై	-11.6633
Mass	-11.6634
▁\)):	-11.6634
▁ordinary	-11.6634
▁kWh	-11.6635
▁ਹੋ	-11.6636
▁earns	-11.6637
Naruto	-11.6637
mis	-11.6639
مل	-11.6639
▁youth	-11.664
▁Range	-11.664
му	-11.6643
cyclic	-11.6646
(1,0)	-11.6646
11)	-11.6647
▁Jon	-11.6648
▁crisis	-11.6648
▁rotating	-11.6648
▁faith	-11.6648
تر	-11.6648
▁prefers	-11.665
Speed	-11.665
0.50	-11.6651
ਰੀ	-11.6652
▁specializing	-11.6652
▁workflow	-11.6654
▁Employee	-11.6655
▁roughly	-11.6656
too	-11.6656
=0:	-11.6656
▁trauma	-11.6657
3=1	-11.6658
合	-11.6661
▁COM	-11.6661
▁fellow	-11.6662
gif	-11.6662
archive	-11.6663
=6,	-11.6663
▁0–1	-11.6663
▁Live	-11.6663
▁Overview	-11.6663
{25	-11.6664
క్	-11.6664
--------------|	-11.6666
▁isomer	-11.6668
EG	-11.667
▁74	-11.6671
ू	-11.6672
▁Major	-11.6673
correct	-11.6674
ל	-11.6675
▁advertising	-11.6675
▁imaginary	-11.6675
widget	-11.6675
▁baseline	-11.6677
▁coat	-11.6678
▁Steel	-11.6679
transaction	-11.6679
dust	-11.6681
▁Joe	-11.6681
▁ọmọ	-11.6684
▁excellent	-11.6689
▁expensive	-11.6689
▁nucleophile	-11.6689
react	-11.6689
▁shuffle	-11.6689
▁contemporary	-11.6689
Percentage	-11.6689
▁Girls	-11.6691
▁Was	-11.6692
▁elevation	-11.6692
▁А	-11.6693
Okay	-11.6693
flag	-11.6693
1.7	-11.6694
нов	-11.6694
▁classified	-11.6695
▁caption	-11.6697
URL	-11.6697
▁removes	-11.6698
▁creature	-11.6698
▁82	-11.6699
ரா	-11.6701
▁sibling	-11.6703
▁conducted	-11.6704
▁staying	-11.6707
▁instant	-11.671
Unknown	-11.671
generation	-11.671
▁generations	-11.6718
Identify	-11.6721
probability	-11.6722
▁normalized	-11.6722
▁finishing	-11.6722
Password	-11.6726
▁vote	-11.6727
friend	-11.6727
た	-11.6729
eva	-11.673
▁eco	-11.6731
▁belong	-11.6732
▁defend	-11.6735
English	-11.6735
coordinate	-11.6737
▁4000	-11.6737
▁donate	-11.6737
series	-11.6737
▁shots	-11.6738
▁patch	-11.6738
要	-11.6743
Category	-11.6743
IG	-11.6743
Session	-11.6744
▁TypeError	-11.6745
▁0.95	-11.6745
Convert	-11.6749
quer	-11.6749
▁pushing	-11.675
▁captured	-11.675
▁hydro	-11.6751
_2]	-11.6751
eme	-11.6756
▁CI	-11.6756
Ver	-11.676
▁clique	-11.676
MIN	-11.676
generate	-11.676
▁armor	-11.6762
▁⌊	-11.6764
▁connects	-11.6764
eps	-11.6765
▁visually	-11.6766
ebra	-11.6766
▁$100	-11.6767
nar	-11.6768
▁Euler	-11.6768
数	-11.677
Symmetry	-11.677
training	-11.6771
▁clusters	-11.6772
[0]=4	-11.6773
electron	-11.6774
Chat	-11.6775
asset	-11.6775
▁Cup	-11.6779
pen	-11.6779
▁gray	-11.6783
▁Programming	-11.6784
ark	-11.6785
▁Complete	-11.6785
zone	-11.6785
▁graphic	-11.679
▁inspire	-11.6791
▁vol	-11.6792
▁investments	-11.6792
▁Spring	-11.6793
ự	-11.6793
salary	-11.6793
▁Carl	-11.6797
▁illustration	-11.6798
▁transparent	-11.6798
▁anchor	-11.6798
highlighted	-11.68
)\):	-11.6801
about	-11.6803
Target	-11.6806
▁graduate	-11.6807
▁Anti	-11.6812
▁imaging	-11.6812
▁producer	-11.6813
Goal	-11.6815
▁LLM	-11.6815
▁fiber	-11.6817
1111	-11.6817
▁infer	-11.682
▁precisely	-11.682
children	-11.682
▁computers	-11.6821
lah	-11.6822
conscious	-11.6823
▁(100	-11.6826
∈{	-11.6827
▁comedic	-11.6827
▁220	-11.6828
▁Marketing	-11.683
▁Integration	-11.683
▁Er	-11.6831
textbf	-11.6831
story	-11.6835
104	-11.6835
very	-11.6839
Reason	-11.6839
socket	-11.684
ட்டு	-11.684
▁registered	-11.6841
▁mathematically	-11.6842
▁Fran	-11.6842
3.4	-11.6843
ду	-11.6844
▁actors	-11.6848
▁Newton	-11.6848
යේ	-11.6848
▁pole	-11.6849
boy	-11.6849
▁surge	-11.685
Status	-11.6851
▁Jan	-11.6851
Frequency	-11.6853
▁embedded	-11.6853
ළ	-11.6853
▁Mrs	-11.6853
^{3	-11.6857
▁celebrate	-11.6858
▁floors	-11.6859
▁luck	-11.6863
▁November	-11.6864
▁ज	-11.6865
SN	-11.6865
од	-11.6865
dim	-11.6866
▁restrictions	-11.6866
▁electrophilic	-11.6867
▁veteran	-11.6867
▁rigid	-11.6867
▁steal	-11.6868
ود	-11.6868
HE	-11.687
ario	-11.687
▁આ	-11.6872
ता	-11.6874
▁clause	-11.6875
▁History	-11.6875
1.3	-11.6877
▁reinforce	-11.6877
▁`5`.	-11.6878
Sheet	-11.6878
buffer	-11.6879
动	-11.688
▁multiplied	-11.688
本	-11.6881
▁systematically	-11.6882
▁anagrams	-11.6883
▁ft	-11.6884
▁conventional	-11.6887
ection	-11.6888
▁Bill	-11.6888
▁wine	-11.6889
4.6	-11.6889
▁iterations	-11.6889
▁gains	-11.689
logy	-11.6892
▁wheel	-11.6893
▁%>	-11.6894
▁renewable	-11.6894
wear	-11.6895
500,000	-11.6896
▁э	-11.6897
1|	-11.6899
▁personalized	-11.6901
▁relativistic	-11.6901
7.6	-11.6902
cial	-11.6903
▁contradiction	-11.6904
▁permission	-11.6905
2013	-11.6906
▁chamber	-11.6909
▁exam	-11.6909
excel	-11.691
▁*“	-11.691
▁Decor	-11.6912
▁influences	-11.6913
lur	-11.6914
432	-11.6917
▁Location	-11.6918
season	-11.6919
sys	-11.6919
▁linguistic	-11.6921
▁cooking	-11.6922
Available	-11.6922
▁soccer	-11.6922
JPY	-11.6922
]]]	-11.6924
▁pie	-11.6925
950	-11.6926
pow	-11.6928
sec	-11.6929
▁millions	-11.693
machine	-11.6934
▁sculpture	-11.6936
▁residents	-11.6936
▁Summing	-11.6937
▁combines	-11.6939
lusion	-11.6939
ress	-11.694
▁Validate	-11.6941
▁emotion	-11.6942
▁आ	-11.6943
▁Engineer	-11.6944
▁uniformly	-11.6945
▁spots	-11.6946
owner	-11.6947
tha	-11.695
▁7]	-11.695
▁senior	-11.695
▁Creating	-11.695
▁sw	-11.695
0=0	-11.6952
▁pipe	-11.6952
▁Band	-11.6956
hir	-11.6956
▁EX	-11.6961
▁joined	-11.6963
▁Dream	-11.6963
▁opinion	-11.6964
▁Retrieve	-11.6964
▁dad	-11.6965
▁را	-11.6967
−)	-11.6969
▁dependent	-11.6971
▁performances	-11.6973
▁pseudo	-11.6974
▁algebraic	-11.6974
▁arnold	-11.6975
▁0.30	-11.6975
из	-11.6975
4000	-11.6978
attr	-11.6978
commerce	-11.6978
▁Ol	-11.6978
▁somewhere	-11.6978
▁affecting	-11.6982
music	-11.6985
▁71	-11.6986
185	-11.6986
4.9	-11.6991
▁Rhaenyra	-11.6992
▁Detailed	-11.6992
hoo	-11.6993
ador	-11.6997
▁ge	-11.6997
▁increasingly	-11.6999
اء	-11.7001
▁suggested	-11.7001
▁ML	-11.7002
▁buttons	-11.7003
▁guitar	-11.7006
▁Para	-11.7007
▁England	-11.7007
GBP	-11.7008
▁surrounded	-11.7011
▁boys	-11.7012
{0.1	-11.7013
▁Tips	-11.7015
▁fees	-11.7015
connected	-11.7016
30,000	-11.7017
solve	-11.7019
▁<!--	-11.702
420	-11.7021
allow	-11.7024
▁pencils	-11.7026
▁wavefunction	-11.7026
▁750	-11.7027
वा	-11.7028
mos	-11.7029
▁thermodynamic	-11.7032
▁pregnancy	-11.7034
▁awkward	-11.7034
▁ja	-11.7034
sky	-11.7035
department	-11.7035
▁Translate	-11.7036
▁seasons	-11.7037
flat	-11.7038
▁Sound	-11.7043
140	-11.7047
▁Uni	-11.7048
▁supplier	-11.7048
2,500	-11.7049
SELECT	-11.705
▁authentication	-11.7051
▁Budget	-11.7052
▁factory	-11.7052
font	-11.7052
claim	-11.7055
▁mismatch	-11.7056
▁500,000	-11.7056
▁flying	-11.7058
▁percent	-11.7058
→0,	-11.7058
Personality	-11.7059
我	-11.7062
▁↔	-11.7062
Configuration	-11.7062
▁Necklace	-11.7062
▁diffusion	-11.7062
▁injury	-11.7062
▁mixing	-11.7062
▁Transformation	-11.7062
▁Lord	-11.7064
▁ties	-11.7065
▁jokes	-11.7066
TT	-11.7066
Psych	-11.7067
Week	-11.7067
[1]=0	-11.7068
▁Lin	-11.7074
)^{	-11.7076
▁Size	-11.7077
ault	-11.7078
Given	-11.7079
▁unity	-11.708
▁intercept	-11.708
cel	-11.7083
Age	-11.7083
1},	-11.7083
▁submit	-11.7084
155	-11.7088
▁orthogonal	-11.709
▁satellite	-11.709
ख	-11.709
▁jacket	-11.709
▁Ident	-11.7091
▁`4`.	-11.7096
▁சி	-11.7097
6,000	-11.7097
▁merely	-11.7097
ор	-11.7099
▁circumstances	-11.7104
consonant	-11.7105
▁bubble	-11.7105
ional	-11.7105
▁******	-11.7107
▁10]	-11.7111
ну	-11.7112
Cap	-11.7112
▁8]	-11.7113
crypto	-11.7114
▁triples	-11.7114
▁Jordan	-11.7117
▁vice	-11.7117
▁Pat	-11.7117
ਲਾ	-11.712
ETH	-11.7122
erie	-11.7122
▁கு	-11.7123
apa	-11.7125
▁regulation	-11.7129
▁subjects	-11.7129
té	-11.713
Alternative	-11.7132
1',	-11.7134
▁Animal	-11.7134
[5]=2	-11.7136
Location	-11.7137
execute	-11.7137
▁contributed	-11.7137
▁-10	-11.7138
posing	-11.7138
▁Never	-11.7139
985	-11.7139
▁picks	-11.714
{4}{3}	-11.7143
▁originally	-11.7145
shadow	-11.7149
▁Latin	-11.7149
▁peaceful	-11.7152
▁Italy	-11.7154
Plan	-11.7154
{16	-11.7155
[4]=3	-11.7156
▁$0	-11.7159
▁Economic	-11.716
هم	-11.716
▁introducing	-11.7161
Minimize	-11.7161
▁generic	-11.7162
ాల	-11.7165
▁yoo	-11.7166
▁وال	-11.7167
▁(~	-11.7168
▁Hey	-11.7169
▁Т	-11.717
▁dependence	-11.7171
akan	-11.7172
posed	-11.7172
▁diagrams	-11.7173
▁brands	-11.7173
ELL	-11.7175
后	-11.7175
▁helped	-11.7178
▁Financial	-11.718
ит	-11.7181
Based	-11.7182
▁-0.1	-11.7184
Difference	-11.7185
▁rotated	-11.7188
Build	-11.7189
ร	-11.719
▁grinned	-11.719
▁Young	-11.7191
yon	-11.7194
▁Zero	-11.7195
▁ත	-11.7195
▁revealed	-11.7197
▁invite	-11.7197
▁headlines	-11.7199
natural	-11.7199
▁Goo	-11.72
often	-11.72
▁alt	-11.7202
▁mentor	-11.7203
ળ	-11.7204
hon	-11.7204
tip	-11.7205
▁loyalty	-11.7205
▁blow	-11.7206
▁histogram	-11.7207
rí	-11.7207
4},	-11.7208
▁Scott	-11.7209
Chris	-11.721
▁Doctor	-11.7212
▁trivial	-11.7212
pha	-11.7212
STR	-11.7213
TOR	-11.7213
▁promotion	-11.7214
public	-11.7215
▁Box	-11.7216
▁Linux	-11.7217
▁achievable	-11.7218
▁forbidden	-11.7218
holder	-11.722
▁maa	-11.7223
coming	-11.7225
Matrix	-11.7225
▁Solutions	-11.7228
233	-11.7232
新	-11.7232
▁manifest	-11.7233
▁với	-11.7233
ین	-11.7233
▁Jacobian	-11.7234
▁bigger	-11.7235
▁(21,	-11.7236
ista	-11.7236
▁acceptable	-11.7238
▁Family	-11.7238
got	-11.7239
▁quietly	-11.7239
▁Relationship	-11.7239
travel	-11.724
▁electricity	-11.7241
▁arrives	-11.7241
Challenge	-11.7242
▁ك	-11.7242
plant	-11.7242
III	-11.7242
▁(((	-11.7243
▁01	-11.7243
▁happiness	-11.7247
▁slice	-11.7247
▁unstable	-11.7247
▁hull	-11.7247
vit	-11.7248
also	-11.725
Flag	-11.7251
[2]=5	-11.7251
proxy	-11.7253
▁fitness	-11.7253
▁accepted	-11.7255
mọ	-11.7256
▁dose	-11.7257
RU	-11.7259
▁suppress	-11.726
▁residue	-11.7261
abba	-11.7261
Entity	-11.7262
▁SN	-11.7262
▁mud	-11.7263
="0	-11.7263
{1}{2	-11.7265
fib	-11.7269
103	-11.7269
Family	-11.727
encia	-11.727
▁contraction	-11.7271
Primary	-11.7271
▁register	-11.7274
▁Perfect	-11.7274
Empty	-11.7274
▁politician	-11.7276
▁casual	-11.7276
▁Custom	-11.7277
_{2	-11.7279
▁consideration	-11.7282
▁''.	-11.7282
▁consumed	-11.7287
lore	-11.7287
▁Jacob	-11.7289
▁drum	-11.7289
▁Whether	-11.729
▁babies	-11.729
▁Middle	-11.7293
▁sword	-11.7293
▁concentrations	-11.7295
▁evolve	-11.7296
ری	-11.7298
[0]=0	-11.7299
▁definitions	-11.73
ائ	-11.7301
▁Government	-11.7302
hana	-11.7303
▁Royal	-11.7304
▁Alpha	-11.7306
PU	-11.7306
▁breathe	-11.7306
]*	-11.7308
1011	-11.7309
ති	-11.7312
▁adjustment	-11.7316
▁switches	-11.7316
ного	-11.7317
aria	-11.7319
▁Division	-11.732
▁charm	-11.732
customer	-11.7321
2|	-11.7323
▁URLs	-11.7324
lining	-11.7325
▁adj	-11.7325
)·	-11.7328
▁maximal	-11.7328
Null	-11.7329
ova	-11.7331
▁વ	-11.7332
kappa	-11.7334
▁Dirac	-11.7334
-%	-11.7334
▁75%	-11.7335
iki	-11.7339
7·	-11.734
CON	-11.7342
Cut	-11.7343
▁Constant	-11.7347
▁vulnerabilities	-11.7348
▁Pendant	-11.7348
6.8	-11.7348
▁worldwide	-11.735
▁так	-11.7353
}_\	-11.7355
Genre	-11.7355
▁Train	-11.7356
▁Think	-11.7356
▁lessons	-11.7357
▁mal	-11.7358
▁executed	-11.7361
▁Mindy	-11.7362
或	-11.7362
▁conv	-11.7362
▁Journal	-11.7365
Sam	-11.7369
RED	-11.7374
features	-11.7376
छ	-11.7377
ખ	-11.7377
="32"	-11.7377
duplicate	-11.738
▁grace	-11.7381
▁complexities	-11.7385
▁definitely	-11.7386
kle	-11.7386
ACK	-11.7386
888	-11.7386
▁injection	-11.7386
dE	-11.7386
1[	-11.7387
▁Micro	-11.7388
VE	-11.7388
▁Pizza	-11.7389
▁Wave	-11.739
ō	-11.7392
▁Plugging	-11.7392
▁balloon	-11.7392
▁Population	-11.7393
▁offered	-11.7396
▁shipping	-11.7396
▁threads	-11.7397
▁nervous	-11.7397
\,\	-11.74
ended	-11.74
cine	-11.7401
▁CPU	-11.7402
perfect	-11.7406
▁negligible	-11.7406
▁chess	-11.7406
▁exciting	-11.7406
り	-11.7407
▁breakfast	-11.7407
▁Notice	-11.7411
▁wax	-11.7412
▁Mel	-11.7412
endo	-11.7413
▁Qui	-11.7413
▁smiling	-11.7415
edu	-11.7418
=17	-11.7421
▁pip	-11.7424
▁0.07	-11.7425
▁Hours	-11.7426
▁Though	-11.7431
▁uint	-11.7431
science	-11.7434
material	-11.7435
ading	-11.7435
作	-11.7435
▁sketch	-11.7435
Wireless	-11.7436
▁Required	-11.7436
▁'__	-11.7436
cil	-11.744
lá	-11.744
கள	-11.744
‘	-11.7442
▁entering	-11.7442
▁440	-11.7442
кт	-11.7443
▁Has	-11.7445
OO	-11.7445
ener	-11.7446
▁Nick	-11.7447
▁empower	-11.7448
1.25	-11.7448
through	-11.7449
地	-11.745
Multi	-11.745
බ	-11.745
யில்	-11.745
▁preference	-11.7451
chan	-11.7451
▁spectral	-11.7452
csharp	-11.7453
пол	-11.7456
▁rush	-11.7456
pal	-11.7458
▁Methods	-11.7458
▁slot	-11.7459
▁induced	-11.746
лу	-11.7461
GI	-11.7462
▁Greek	-11.7465
し	-11.7466
gene	-11.7467
context	-11.7467
▁editing	-11.7467
▁carries	-11.7468
40,000	-11.7468
coding	-11.7473
▁cutting	-11.7475
▁struct	-11.7478
న్న	-11.7478
▁numerator	-11.7479
️	-11.7479
▁sec	-11.748
β	-11.748
Menu	-11.748
▁varies	-11.7481
▁temporary	-11.7481
income	-11.7482
▁Hotel	-11.7482
▁perpendicular	-11.7483
Author	-11.7484
▁fruits	-11.7485
Crypto	-11.7486
▁balls	-11.7486
▁Rearrange	-11.7488
▁Effect	-11.7491
4.7	-11.7494
▁unnecessary	-11.7494
▁assigns	-11.7496
▁Filter	-11.7496
olu	-11.7496
▁(1,4)	-11.7503
▁weigh	-11.7504
▁concerned	-11.7505
▁${	-11.7507
))`	-11.7507
rome	-11.7507
▁SECTION	-11.7509
▁manuscript	-11.7509
▁không	-11.7509
▁gesture	-11.7509
▁royal	-11.7509
support	-11.751
▁Airport	-11.751
▁Phone	-11.7511
-17	-11.7512
miss	-11.7512
Active	-11.7512
▁gradually	-11.7512
nested	-11.7513
Full	-11.7513
▁Op	-11.7514
(100)	-11.7514
ologist	-11.7514
▁coin	-11.7517
▁protest	-11.7518
tune	-11.752
▁slices	-11.7521
publish	-11.7521
▁iteratively	-11.7522
SF	-11.7522
මා	-11.7522
▁expenditure	-11.7524
▁Tool	-11.7526
▁$9	-11.7527
▁lag	-11.7527
सा	-11.753
{1,2}	-11.7531
▁Horse	-11.7532
tention	-11.7533
▁thousand	-11.7533
}{15}	-11.7533
6.25	-11.7534
1080	-11.7534
▁trusted	-11.7535
Hold	-11.7537
▁runtime	-11.7538
▁applicable	-11.7538
▁unethical	-11.7538
Hydrogen	-11.7539
▁traits	-11.7539
▁relies	-11.7543
Hash	-11.7544
▁qual	-11.755
▁colored	-11.755
median	-11.7551
RY	-11.7551
γ	-11.7553
▁emerging	-11.7553
▁phenomena	-11.7553
▁PRO	-11.7555
▁Bitcoin	-11.7559
Label	-11.7559
▁slots	-11.756
ART	-11.7567
ّ	-11.7568
▁utilizing	-11.7568
▁equity	-11.7568
▁membrane	-11.7569
Long	-11.7571
▁phases	-11.7571
Mexican	-11.7571
Please	-11.7571
▁Computer	-11.7572
published	-11.7572
▁zones	-11.7572
▁К	-11.7573
pub	-11.7573
VM	-11.7574
aja	-11.7574
▁Stability	-11.7574
forall	-11.7575
4=	-11.7575
▁ఇ	-11.7575
Missing	-11.7576
Num	-11.7577
offset	-11.7577
▁shut	-11.7577
▁(2,2)	-11.7578
▁MB	-11.7578
2*	-11.7579
▁reset	-11.7579
▁ж	-11.7581
3.9	-11.7583
ichi	-11.7583
ला	-11.7585
canvas	-11.7587
longitude	-11.7587
hara	-11.7587
shortest	-11.7589
▁Spin	-11.7589
▁reminder	-11.759
▁Golden	-11.7591
▁shoot	-11.7592
Body	-11.7594
▁از	-11.7595
hap	-11.7595
kẹ	-11.7595
vowel	-11.7597
اد	-11.7598
[1:]	-11.7599
▁arrived	-11.76
▁pod	-11.76
от	-11.76
▁те	-11.7601
▁PDF	-11.7601
▁tense	-11.7602
▁seed	-11.7604
வு	-11.7607
▁INT	-11.7608
▁hip	-11.7608
▁sectors	-11.7609
▁Hall	-11.761
975	-11.7611
▁achieves	-11.7612
З	-11.7612
MF	-11.7613
▁Physical	-11.7614
▁rewritten	-11.7614
230	-11.7615
▁emission	-11.7616
olic	-11.7617
Green	-11.7617
▁objectives	-11.7618
▁workplace	-11.7618
×3	-11.7618
▁(-4)	-11.7622
▁1080	-11.7626
▁treasure	-11.7627
▁mitigate	-11.7627
▁2007	-11.7628
)]`	-11.763
▁stuck	-11.763
▁notable	-11.7631
BTC	-11.7631
▁navigation	-11.7633
Life	-11.7634
Invest	-11.7634
▁relatively	-11.7635
predict	-11.7635
Sports	-11.7635
▁Ocean	-11.7635
880	-11.7636
onia	-11.7638
▁glucose	-11.7639
▁sau	-11.764
▁cable	-11.7641
解	-11.7643
▁که	-11.7643
Cons	-11.7643
stage	-11.7645
▁(3,4)	-11.7646
▁Layer	-11.7647
▁rural	-11.7648
Problem	-11.7648
Charlie	-11.7648
XOR	-11.765
ilo	-11.765
▁helper	-11.765
▁discovery	-11.7651
_1}{	-11.7654
rgb	-11.7655
dependence	-11.7655
Validation	-11.7657
Auto	-11.7657
▁scattering	-11.7658
▁Safety	-11.7658
▁explanations	-11.7659
Pop	-11.7659
భ	-11.7662
Jo	-11.7662
compose	-11.7663
primes	-11.7663
▁Vol	-11.7664
tutorial	-11.7665
disc	-11.7665
ల్	-11.7667
▁electrical	-11.7668
▁belief	-11.7669
▁evolving	-11.7669
lev	-11.7671
NE	-11.7672
▁Hilbert	-11.7672
Play	-11.7673
ZM	-11.7673
▁exponentially	-11.7674
▁definite	-11.7674
{17}	-11.7674
▁Rome	-11.7675
▁Ten	-11.7677
▁mine	-11.7679
largest	-11.768
7.4	-11.768
60,000	-11.768
▁overlapping	-11.7681
▁dé	-11.7682
▁Ranger	-11.7684
▁lake	-11.7684
▁Discuss	-11.7684
▁10^5	-11.7686
уч	-11.7687
یا	-11.7687
等	-11.7687
▁Side	-11.7687
▁advisor	-11.7687
▁romantic	-11.7687
ITY	-11.7687
ਨਾ	-11.7688
▁macro	-11.7688
▁Tail	-11.7694
⌊	-11.7695
▁tourist	-11.7695
Tree	-11.7697
▁profiles	-11.7697
udge	-11.7699
▁Period	-11.7702
▁0→1	-11.7702
corporation	-11.7702
▁approval	-11.7702
▁overhead	-11.7702
▁healing	-11.7703
alphabetic	-11.7704
▁Magic	-11.7706
)/(	-11.7707
▁GB	-11.7707
teen	-11.7709
▁trailing	-11.7713
}=\	-11.7716
▁Natural	-11.7716
▁tactics	-11.7719
ப்பு	-11.772
▁ruin	-11.7722
###	-11.7722
▁tile	-11.7723
romo	-11.7725
▁traditions	-11.7727
▁Martin	-11.7728
▁diabetes	-11.7732
admin	-11.7733
esse	-11.7734
▁0.002	-11.7734
gain	-11.7735
residential	-11.7737
ает	-11.7739
folk	-11.7739
▁Meanwhile	-11.7739
[0,	-11.774
before	-11.7741
!",	-11.7741
▁presses	-11.7741
▁glasses	-11.7744
once	-11.7744
2−	-11.7745
▁М	-11.7745
▁homogeneous	-11.7746
ương	-11.7747
▁PARAGRAPH	-11.7747
▁enemies	-11.7747
▁suspicious	-11.7747
▁ethnic	-11.7747
{14}	-11.7748
▁shy	-11.7749
abilities	-11.7751
▁interventions	-11.7752
>"}.	-11.7753
→8	-11.7754
Direction	-11.7754
▁textbook	-11.7754
▁Mode	-11.7755
345	-11.7757
▁1.3	-11.7757
▁recipes	-11.7759
cio	-11.776
mente	-11.776
如	-11.7762
shaped	-11.7762
▁succeed	-11.7763
▁grateful	-11.7763
▁graphics	-11.7764
▁Jackson	-11.7764
▁$120	-11.7765
▁Gene	-11.7766
Reg	-11.7766
ECT	-11.7767
▁opera	-11.7768
Hydro	-11.7769
க்கு	-11.7769
▁Phase	-11.7771
chat	-11.7773
IST	-11.7774
▁newline	-11.7775
▁Adam	-11.7776
▁Suddenly	-11.7778
▁Hospital	-11.7778
Response	-11.7779
his	-11.7779
```	-11.7783
▁adjusting	-11.7783
tell	-11.7784
Term	-11.7785
▁Pay	-11.7785
Prime	-11.7788
▁Fit	-11.7789
▁destroy	-11.7789
▁←	-11.779
▁Hero	-11.7792
▁peaks	-11.7792
▁Secret	-11.7792
子	-11.7793
▁calculus	-11.7793
▁scrap	-11.7794
▁compatibility	-11.7794
▁newly	-11.7795
SIZE	-11.7796
▁tune	-11.7796
சு	-11.7798
▁heroes	-11.78
Hi	-11.78
cele	-11.7801
▁preserved	-11.7803
▁walked	-11.7806
▁Fund	-11.7807
DC	-11.7807
945	-11.7807
help	-11.7807
▁0)\)	-11.7807
ධ	-11.7808
▁ஒரு	-11.7808
conv	-11.7809
టి	-11.7809
▁chill	-11.7812
▁demonstrates	-11.7814
▁cyclo	-11.7816
▁insight	-11.7816
generated	-11.7817
Unit	-11.7818
Correct	-11.7819
▁George	-11.782
▁wrote	-11.7823
3,000	-11.7824
▁PHP	-11.7824
▁Site	-11.7826
னை	-11.7827
TM	-11.7828
design	-11.7828
තු	-11.7829
large	-11.7829
▁fault	-11.783
▁[8,	-11.783
▁releases	-11.7832
route	-11.7833
[0..	-11.7835
Rate	-11.7835
▁dive	-11.7837
▁loyal	-11.7838
Setting	-11.7838
cout	-11.7838
▁verification	-11.7839
effective	-11.784
exclusion	-11.784
driver	-11.7841
mond	-11.7842
си	-11.7842
▁crea	-11.7842
▁loose	-11.7843
▁Mind	-11.7844
▁Soviet	-11.7844
Float	-11.7844
anta	-11.7845
▁defining	-11.7846
▁Dear	-11.7847
▁SpongeBob	-11.7849
bet	-11.785
dart	-11.7852
▁treating	-11.7852
uter	-11.7853
)=5	-11.7854
▁chronic	-11.7854
▁bulb	-11.7854
▁buyer	-11.7855
▁Physics	-11.7858
rock	-11.7858
▁whenever	-11.7858
▁Software	-11.7859
▁gained	-11.7859
9),	-11.7861
gie	-11.7862
▁0\),	-11.7863
entity	-11.7864
aking	-11.7865
▁Save	-11.7866
▁(2,4)	-11.7867
▁thoughtful	-11.7868
ă	-11.7868
▁`3`.	-11.787
harm	-11.7873
2–	-11.7874
rash	-11.7875
wall	-11.7875
__':	-11.7876
2.7	-11.7877
▁letting	-11.7879
▁rough	-11.788
▁Album	-11.7881
Script	-11.7882
Cloud	-11.7882
▁Must	-11.7882
{50	-11.7883
▁oscillator	-11.7884
▁grammar	-11.7884
humidity	-11.7884
▁punch	-11.7885
apped	-11.7885
▁legendary	-11.7886
139	-11.7887
soundcloud	-11.7888
▁Pattern	-11.7888
▁lit	-11.7888
ako	-11.7889
▁birthday	-11.789
tier	-11.7891
foot	-11.7891
performance	-11.7893
▁analyses	-11.7894
988	-11.7895
evaluate	-11.7896
▁Ob	-11.7897
▁scared	-11.7897
ṣe	-11.7897
lift	-11.7899
national	-11.7899
ISBN	-11.79
▁church	-11.79
▁clinic	-11.7902
▁acceptance	-11.7902
4.4	-11.7904
▁Smart	-11.7905
▁fin	-11.7906
deep	-11.7908
▁avoids	-11.7909
MR	-11.791
▁civil	-11.7911
ще	-11.7911
▁cv	-11.7912
ной	-11.7912
▁saving	-11.7912
accuracy	-11.7914
contact	-11.7914
sight	-11.7914
▁mural	-11.7914
वि	-11.7915
▁modular	-11.7917
Race	-11.7917
▁depict	-11.7919
▁Fall	-11.7919
▁Berlin	-11.792
▁shifted	-11.7923
▁teenager	-11.7924
gender	-11.7928
▁narratives	-11.793
threshold	-11.793
多	-11.793
▁capacities	-11.793
▁delicate	-11.793
▁divider	-11.793
▁halide	-11.793
▁slip	-11.7932
keras	-11.7933
_2}{	-11.7933
▁portal	-11.7933
Exact	-11.7934
gcd	-11.7936
▁endless	-11.7937
222	-11.7942
3.7	-11.7943
φ	-11.7945
▁receiving	-11.7946
City	-11.7946
talk	-11.7947
▁hunt	-11.7948
▁colour	-11.7949
▁employment	-11.7949
▁contest	-11.795
▁bringing	-11.7951
▁visualization	-11.7951
▁belonging	-11.7953
-------------	-11.7954
'},	-11.7954
3.1	-11.7955
handler	-11.7956
Valid	-11.7957
▁constructor	-11.7958
▁(22,	-11.7959
▁hire	-11.796
▁Quality	-11.7961
850	-11.7961
▁Far	-11.7961
▁Aaron	-11.7962
inch	-11.7963
thread	-11.7964
▁Storage	-11.7965
▁Within	-11.7967
rog	-11.7968
abil	-11.797
6.4	-11.797
▁`(1,	-11.7971
▁bands	-11.7971
lio	-11.7973
加	-11.7976
▁religion	-11.7976
▁automation	-11.7976
▁coordination	-11.7976
ਜ਼	-11.7977
▁RETURN	-11.7977
่	-11.7977
▁Further	-11.7977
▁characterized	-11.7977
▁president	-11.7978
▁refresh	-11.7978
▁opened	-11.798
▁stationary	-11.798
{4\	-11.798
▁permit	-11.7981
ਮਾ	-11.7982
▁switching	-11.7984
ló	-11.7985
▁kcal	-11.7985
175	-11.7988
LU	-11.799
度	-11.7992
▁traverse	-11.7992
Integer	-11.7993
{18}	-11.7993
▁planned	-11.7994
▁placeholders	-11.7994
▁Article	-11.7995
}{(1	-11.7997
▁Hard	-11.7997
GR	-11.7998
▁aimed	-11.7998
▁isolate	-11.8001
▁blending	-11.8001
8.4	-11.8002
▁guarantee	-11.8003
▁Asian	-11.8003
mL	-11.8005
▁revolution	-11.8005
▁hex	-11.8006
0.08	-11.8007
▁disaster	-11.8007
▁regularly	-11.801
▁Lady	-11.8011
ري	-11.8014
107	-11.8015
▁Strength	-11.8015
▁(30	-11.8018
Mouse	-11.8019
ල්	-11.8019
▁delivered	-11.8021
standing	-11.8021
▁quotation	-11.8023
goals	-11.8024
440	-11.8026
toggle	-11.8027
▁Setup	-11.8027
▁Shop	-11.8028
hold	-11.8028
▁anywhere	-11.8032
▁disp	-11.8033
▁Charlotte	-11.8033
▁Plot	-11.8034
▁lcm	-11.8036
▁vulnerability	-11.8038
▁flame	-11.8039
Who	-11.804
▁Empty	-11.804
▁wage	-11.804
▁Plant	-11.8043
propane	-11.8044
▁Ethereum	-11.8049
need	-11.8049
motive	-11.805
▁competitor	-11.8054
▁tunnel	-11.8054
▁320	-11.8057
▁Pass	-11.8059
▁blogger	-11.806
▁diseases	-11.8061
▁0.85	-11.8062
ến	-11.8063
∩	-11.807
Bottom	-11.807
▁justification	-11.807
Contract	-11.8072
super	-11.8072
▁2003	-11.8073
▁Allow	-11.8073
▁Kai	-11.8077
▁Present	-11.8078
Next	-11.8078
▁kindness	-11.8078
▁je	-11.8079
(30)	-11.808
doe	-11.8084
শ	-11.8085
▁horror	-11.8085
▁numerous	-11.8085
▁Engagement	-11.8085
▁advise	-11.8085
HH	-11.8086
(11)	-11.8089
omic	-11.8089
▁premium	-11.8089
latest	-11.8092
▁radians	-11.8094
▁defeat	-11.8096
▁confront	-11.8097
්‍ය	-11.8097
▁believes	-11.8097
shirts	-11.8098
▁கொ	-11.8099
▁`7`.	-11.81
个	-11.81
ą	-11.8101
▁Framework	-11.8101
multi	-11.8101
▁whispered	-11.8101
[3]=5	-11.8102
▁excluding	-11.8106
▁2009	-11.8107
though	-11.8107
▁Reading	-11.8107
6%	-11.8108
▁Mary	-11.811
{-1	-11.8111
Profile	-11.8111
member	-11.8113
QU	-11.8114
-22	-11.8115
igh	-11.8116
▁measuring	-11.8116
ง	-11.8117
COUNT	-11.8117
▁marble	-11.8117
cultural	-11.8122
had	-11.8123
▁pound	-11.8124
▁Roll	-11.8124
▁mentions	-11.8125
▁Pan	-11.8128
发	-11.8132
ổ	-11.8132
ધ	-11.8132
▁manifold	-11.8132
▁heritage	-11.8132
▁misinformation	-11.8132
▁alphanumeric	-11.8133
▁Iron	-11.8133
GG	-11.8134
thro	-11.8134
ono	-11.8136
▁cats	-11.8137
Home	-11.8137
consecutive	-11.8138
▁displayed	-11.8141
ध	-11.8142
▁spreading	-11.8146
▁chips	-11.8147
可以	-11.8148
▁philosophical	-11.8148
▁volatility	-11.8148
1·	-11.815
{120}	-11.815
▁ਵਿਚ	-11.8151
ouch	-11.8151
▁dynamically	-11.8152
GH	-11.8152
▁Behavior	-11.8153
▁Annual	-11.8154
Any	-11.8154
5:00	-11.8154
Ella	-11.8157
′(	-11.8157
alter	-11.8157
▁ब	-11.8159
ие	-11.8161
hack	-11.8163
▁emphasis	-11.8163
▁fascinating	-11.8163
▁vulnerable	-11.8163
▁abuse	-11.8165
▁conceptual	-11.8166
▁climb	-11.8166
roman	-11.8166
▁cubes	-11.8167
solid	-11.8167
flex	-11.8168
▁GPU	-11.8168
▁bomb	-11.8169
android	-11.817
Activity	-11.8172
sphere	-11.8172
నా	-11.8173
▁tested	-11.8176
integers	-11.8177
වේ	-11.8178
▁weapons	-11.8178
ек	-11.8178
йте	-11.8179
looking	-11.8179
▁entertainment	-11.818
meters	-11.8181
Sort	-11.8181
▁iconic	-11.8182
▁Bel	-11.8183
▁developers	-11.8188
▁thereby	-11.8189
▁musicians	-11.8189
▁compete	-11.819
▁solver	-11.819
(1,5)	-11.8191
▁portray	-11.8191
(1,2)	-11.8193
Ah	-11.8195
Internal	-11.8195
WI	-11.8195
▁protective	-11.8196
▁`6`.	-11.8197
▁Multiple	-11.82
▁databases	-11.8201
mini	-11.8203
▁virus	-11.8203
▁packets	-11.8203
▁Mid	-11.8204
004	-11.8205
sym	-11.8205
Some	-11.8207
▁Thomas	-11.8209
linked	-11.8209
▁evil	-11.821
以	-11.821
5,7	-11.8215
Show	-11.8215
Cat	-11.8215
−1]	-11.8216
schedule	-11.8217
layers	-11.8217
ால்	-11.8219
▁shelf	-11.8219
Search	-11.822
anni	-11.8222
▁holidays	-11.8225
▁Saiyan	-11.8227
8]	-11.8227
▁harmony	-11.8227
activate	-11.8227
3},	-11.8228
▁accessibility	-11.8228
▁polarization	-11.8229
teams	-11.823
ਜਾ	-11.8231
▁sheets	-11.8231
▁unlock	-11.8232
▁Wrap	-11.8232
▁cute	-11.8234
ask	-11.8236
▁counted	-11.8239
▁Determining	-11.824
▁Creative	-11.824
roc	-11.8241
▁Ash	-11.8243
▁{0,2,	-11.8244
▁Experience	-11.8247
▁raising	-11.8248
flower	-11.825
▁3–4	-11.825
Front	-11.8251
▁5.5	-11.8252
volution	-11.8254
7,8	-11.8254
Radius	-11.8258
▁propose	-11.826
▁Clip	-11.826
▁gbe	-11.8261
zA	-11.8261
▁Course	-11.8261
reach	-11.8261
serial	-11.8264
▁90%	-11.8264
nia	-11.8265
▁traveling	-11.8266
▁Charge	-11.8269
▁cheeks	-11.827
aaaa	-11.8271
modal	-11.8271
ии	-11.8272
Light	-11.8273
Port	-11.8273
Regression	-11.8274
▁nose	-11.8275
stat	-11.8278
gbo	-11.8279
Pass	-11.8279
▁ether	-11.828
▁(2023)	-11.828
▁costume	-11.8281
▁filtering	-11.8282
Morning	-11.8285
videos	-11.8288
=0;	-11.8289
▁actively	-11.8289
▁rope	-11.829
logical	-11.829
▁substantial	-11.829
▁copper	-11.829
▁printing	-11.829
▁converge	-11.8291
▁aircraft	-11.8291
thought	-11.8292
275	-11.8292
▁-12	-11.8293
765	-11.8294
▁similarly	-11.8297
was	-11.8298
▁packet	-11.8299
isbn	-11.83
bytes	-11.83
lime	-11.8301
▁biases	-11.8302
▁factorization	-11.8302
Stack	-11.8302
▁Ave	-11.8302
xrightarrow	-11.8303
за	-11.8303
▁erase	-11.8305
▁industries	-11.8306
▁substituting	-11.8306
▁если	-11.8306
Compute	-11.8306
▁iterates	-11.8306
960	-11.8306
awk	-11.8307
▁HP	-11.8308
▁persistent	-11.8308
▁baseball	-11.831
Patient	-11.8312
▁maze	-11.8313
▁70%	-11.8313
▁(-3)	-11.8314
Op	-11.8314
▁suppose	-11.8315
Transaction	-11.8316
▁coherent	-11.8316
4,4	-11.8317
▁cuts	-11.8317
[4]=4	-11.8319
▁Д	-11.8319
FE	-11.8322
COM	-11.8322
▁stabilization	-11.8322
▁Inside	-11.8323
386	-11.8325
▁Valid	-11.8326
▁Down	-11.8328
tokens	-11.8329
ông	-11.833
ADD	-11.8331
ANT	-11.8335
ష	-11.8338
ồ	-11.8338
▁OPTIONS	-11.8338
TYPE	-11.8338
▁speakers	-11.8338
^9	-11.8339
citation	-11.8341
arily	-11.8341
▁Install	-11.8342
▁manga	-11.8347
▁highlighted	-11.8349
面	-11.8354
?!”	-11.8354
▁Bracelet	-11.8354
▁hesitate	-11.8354
یک	-11.8355
▁throws	-11.8359
வர்	-11.8361
▁approximated	-11.8361
▁skilled	-11.8362
Email	-11.8363
▁blanket	-11.8363
atter	-11.8363
cache	-11.8365
▁normalization	-11.8365
▁pants	-11.8365
▁singular	-11.8368
▁delve	-11.837
ữ	-11.837
▁Craft	-11.8371
▁env	-11.8373
▁nutrient	-11.8374
▁மு	-11.8375
0.15	-11.8375
▁contracts	-11.8378
▁Ollie	-11.8379
itude	-11.838
iên	-11.8383
Appearance	-11.8386
▁Encourage	-11.8386
▁footprint	-11.8387
▁நா	-11.8387
▁targeting	-11.8388
Config	-11.8388
fund	-11.839
▁hello	-11.839
▁researchers	-11.839
▁fairness	-11.8391
▁Drop	-11.8394
▁ads	-11.8394
▁substituted	-11.8394
ਹੀ	-11.8395
▁ما	-11.8396
لم	-11.8397
bool	-11.8398
_{1	-11.8399
130	-11.84
▁volumes	-11.8401
[1]=5	-11.8402
protein	-11.8402
▁legitimate	-11.8402
▁cryptography	-11.8402
▁distinction	-11.8403
▁Alternatively	-11.8403
▁committed	-11.8403
▁hor	-11.8403
proof	-11.8405
▁accent	-11.8406
▁barely	-11.8409
Renderer	-11.841
166	-11.8411
aux	-11.8417
uint	-11.8418
▁soldiers	-11.8418
NF	-11.8418
▁Kokona	-11.8418
√	-11.8418
▁federal	-11.8419
ground	-11.8421
ண்டு	-11.8421
▁analogous	-11.8423
lare	-11.8426
▁lacks	-11.8427
▁snack	-11.8429
▁shake	-11.8429
1>	-11.843
Lilac	-11.8434
▁Writing	-11.8435
▁Nigeria	-11.8435
▁acknowledge	-11.8435
▁registration	-11.8435
▁dropped	-11.8436
rude	-11.8437
கு	-11.8438
▁depression	-11.8439
▁voter	-11.844
-24	-11.844
quant	-11.8442
ARD	-11.8442
▁jar	-11.8442
Walk	-11.8443
▁debt	-11.8445
▁continent	-11.8446
▁bacteria	-11.8447
▁ratios	-11.8447
▁Integer	-11.8449
ം	-11.8451
▁circumference	-11.8451
▁phenomenon	-11.8451
▁understood	-11.8451
izo	-11.8451
Detect	-11.8453
▁analyzed	-11.8454
5.00	-11.8454
▁Games	-11.8457
▁parity	-11.8458
ube	-11.8458
ắ	-11.8458
▁Advanced	-11.8459
custom	-11.846
gross	-11.846
6.67	-11.8462
Control	-11.8467
▁aggregate	-11.8467
Angular	-11.8467
xyz	-11.8469
▁packs	-11.8469
Dane	-11.8469
▁acidic	-11.8469
▁defaultdict	-11.847
▁retention	-11.8471
Partial	-11.8471
▁explaining	-11.8473
Month	-11.8474
Win	-11.8474
▁Considering	-11.8475
▁quarterly	-11.8475
(3,3)	-11.8476
▁heads	-11.8476
Sun	-11.8476
▁Efficiency	-11.8477
−6	-11.8479
ந்து	-11.8479
▁ended	-11.8479
▁conc	-11.8482
instance	-11.8484
தா	-11.8485
▁bull	-11.8496
selected	-11.8496
digits	-11.8498
ো	-11.85
▁supplement	-11.85
hero	-11.85
▁honey	-11.8501
▁kills	-11.8502
▁aligned	-11.8504
(0.5	-11.8505
▁2005	-11.8506
▁'.'	-11.8507
agged	-11.8507
1.05	-11.8509
▁invariance	-11.851
▁putting	-11.8511
mise	-11.8513
▁பா	-11.8514
Thr	-11.8516
Derivative	-11.8516
ૂ	-11.8516
▁ਪ੍ਰ	-11.8516
NASA	-11.8517
bedroom	-11.8517
between	-11.8517
lute	-11.8518
UK	-11.8518
▁Robert	-11.8518
percentage	-11.8519
▁190	-11.8521
011	-11.8521
▁alarm	-11.8521
Vel	-11.8521
▁pal	-11.8522
usd	-11.8522
quin	-11.8522
▁partners	-11.8524
▁Mechanism	-11.8524
5.8	-11.8525
▁predictive	-11.8526
650	-11.8528
Mean	-11.8532
▁meat	-11.8532
▁empire	-11.8532
Optimize	-11.8533
▁Month	-11.8534
▁theater	-11.8534
ের	-11.8535
▁interacting	-11.8535
izable	-11.8537
▁contradict	-11.8538
▁Metal	-11.8538
GT	-11.8539
0.99	-11.8539
ör	-11.854
▁seg	-11.854
YES	-11.854
▁verified	-11.8541
▁captures	-11.8544
▁cout	-11.8544
para	-11.8546
may	-11.8548
▁collaborative	-11.8548
▁flood	-11.8549
▁Investment	-11.8549
▁Valley	-11.8549
aged	-11.8549
▁shimmering	-11.8549
Trend	-11.8551
▁Script	-11.8551
▁palindromes	-11.8551
▁`7`	-11.8553
2)=1	-11.8555
▁factual	-11.8557
▁ਆ	-11.8557
5+	-11.8557
▁Stone	-11.8557
▁loading	-11.8559
Space	-11.8564
▁rice	-11.8565
Amount	-11.8568
kai	-11.8568
compile	-11.8569
trend	-11.857
ਦੇ	-11.8572
otimes	-11.8573
chen	-11.8574
treat	-11.8574
▁Lead	-11.8581
phenyl	-11.8581
▁nonempty	-11.8582
construct	-11.8582
Technical	-11.8583
720	-11.8583
▁Normal	-11.8584
Art	-11.8585
▁odds	-11.8585
ought	-11.8589
654	-11.859
▁commit	-11.859
iloc	-11.8591
butyl	-11.8591
ác	-11.8594
550	-11.8595
▁1/2	-11.8596
来	-11.8597
▁south	-11.8598
Meta	-11.8602
Attack	-11.8602
▁λ	-11.8604
▁Mod	-11.8605
physics	-11.8607
offs	-11.861
disposable	-11.8614
arse	-11.8616
▁viewed	-11.8616
▁tired	-11.8617
4=1	-11.8617
Uh	-11.8618
9.9	-11.8618
▁Online	-11.8618
▁Partition	-11.8618
▁globally	-11.8618
tica	-11.862
▁О	-11.8621
▁3·	-11.8622
▁dancing	-11.8623
}{30}	-11.8626
▁adventures	-11.8626
▁constantly	-11.863
并	-11.863
▁doors	-11.8633
▁Join	-11.8633
▁hover	-11.8634
▁Variables	-11.8636
primary	-11.8637
аль	-11.8637
▁flattened	-11.8641
rake	-11.8642
yne	-11.8642
bank	-11.8642
[...]
