<unk>	0
<s>	0
</s>	0
<|user|>	0
<|assistant|>	0
<|system|>	0
<|environment|>	0
<|end|>	0
.	-3.52106
,	-3.54566
▁the	-3.62232
▁	-3.69761
s	-3.96281
▁of	-4.28992
▁and	-4.397
▁a	-4.42895
▁to	-4.5162
:	-4.61601
▁is	-4.76186
▁in	-4.80892
▁\	-4.86345
▁=	-4.89346
▁-	-4.93642
)	-4.94664
-	-5.01876
▁(	-5.08769
_	-5.10439
▁for	-5.31224
(	-5.32781
▁The	-5.35307
▁"	-5.35357
▁**	-5.36558
▁\(	-5.53638
'	-5.57754
▁that	-5.59213
▁with	-5.60905
▁are	-5.70039
t	-5.70549
▁+	-5.75173
{	-5.81421
}	-5.84159
":	-5.84956
▁or	-5.91589
▁on	-5.96055
▁as	-5.98152
▁by	-6.00252
i	-6.00609
▁be	-6.01217
n	-6.02023
▁`	-6.02611
’	-6.02968
d	-6.03962
ing	-6.06301
▁A	-6.07631
▁from	-6.08723
▁1	-6.09009
**	-6.09571
x	-6.17886
▁you	-6.18164
▁it	-6.18696
▁\)	-6.1898
▁\[	-6.19132
▁\]	-6.19224
/	-6.21345
▁I	-6.22563
ed	-6.24973
▁2	-6.27936
frac	-6.31953
▁at	-6.37417
e	-6.37996
▁can	-6.39576
▁an	-6.40955
a	-6.4218
▁this	-6.43266
▁not	-6.51935
▁3	-6.52147
▁if	-6.52778
▁|	-6.55483
▁0	-6.56816
:**	-6.56958
text	-6.57998
?	-6.59853
",	-6.60077
"	-6.6088
▁{"	-6.61133
▁have	-6.62385
y	-6.63607
;	-6.64626
▁5	-6.67401
▁each	-6.68123
▁has	-6.69458
[	-6.69495
▁x	-6.72537
▁person	-6.72603
\	-6.74182
▁who	-6.74849
▁function	-6.7559
`	-6.76063
`,	-6.78026
▁your	-6.78296
2	-6.78756
▁“	-6.78761
▁all	-6.79059
▁one	-6.79208
m	-6.79992
▁we	-6.80228
]	-6.80794
▁4	-6.81487
A	-6.81831
▁number	-6.8267
▁was	-6.82826
▁'	-6.84701
▁S	-6.86602
▁You	-6.89305
).	-6.90166
ly	-6.91189
▁B	-6.92017
▁their	-6.9236
▁C	-6.92706
k	-6.94234
▁more	-6.95023
r	-6.9652
1	-6.96812
g	-6.97217
▁which	-7.00585
▁but	-7.01133
▁P	-7.0157
b	-7.02538
S	-7.0326
▁<	-7.0469
▁*	-7.04784
▁1.	-7.05489
▁into	-7.07116
er	-7.07264
c	-7.07943
>	-7.08632
▁should	-7.09017
▁This	-7.09086
▁t	-7.09354
!	-7.09916
▁2.	-7.10182
▁will	-7.1041
▁In	-7.11025
▁total	-7.11486
▁time	-7.12412
C	-7.13189
▁###	-7.14399
▁list	-7.15358
B	-7.15941
▁about	-7.1736
▁c	-7.18516
▁#	-7.19295
),	-7.22001
p	-7.22285
▁any	-7.23108
▁n	-7.24874
▁where	-7.25014
▁given	-7.2557
**:	-7.25647
▁10	-7.26207
▁[	-7.27476
▁two	-7.27505
▁If	-7.27734
▁they	-7.28129
u	-7.28338
▁6	-7.2918
▁his	-7.29788
re	-7.29882
▁return	-7.29915
▁e	-7.30519
|	-7.30703
in	-7.32401
▁her	-7.32497
al	-7.33055
▁---	-7.33533
▁so	-7.33901
▁other	-7.34294
3	-7.34376
▁these	-7.34929
▁first	-7.35652
▁i	-7.36753
^2	-7.37002
▁need	-7.37529
▁may	-7.39879
▁For	-7.39937
▁its	-7.40364
▁only	-7.40608
▁{	-7.41253
▁me	-7.42917
▁such	-7.43032
f	-7.435
—	-7.43688
▁b	-7.44184
▁E	-7.44889
▁new	-7.4543
▁no	-7.45965
▁like	-7.45969
▁T	-7.46222
▁&	-7.46708
▁than	-7.47505
times	-7.47833
▁use	-7.47996
▁them	-7.48778
):	-7.49056
▁answer	-7.49867
right	-7.49992
▁also	-7.50222
▁he	-7.50442
▁We	-7.50459
T	-7.52608
▁what	-7.5264
left	-7.53007
▁3.	-7.53785
▁y	-7.54781
▁over	-7.54892
pi	-7.54904
▁within	-7.55093
▁R	-7.55476
▁```	-7.55694
▁using	-7.55697
▁find	-7.55801
▁p	-7.57308
▁different	-7.57343
es	-7.57381
▁It	-7.57461
name	-7.57926
▁k	-7.58855
▁up	-7.58952
id	-7.59455
v	-7.60077
▁8	-7.60382
results	-7.60542
▁f	-7.60719
{\	-7.60829
▁data	-7.61217
P	-7.61676
▁there	-7.61974
▁were	-7.6286
▁To	-7.63261
▁when	-7.639
4	-7.64195
▁between	-7.64423
▁must	-7.64896
▁line	-7.65289
D	-7.65328
▁how	-7.65659
*	-7.65702
▁out	-7.6586
▁}	-7.66373
▁Output	-7.66438
▁would	-7.67648
”	-7.68141
h	-7.68507
0	-7.6879
▁7	-7.6932
▁d	-7.69392
▁Each	-7.69481
▁values	-7.70072
▁Your	-7.7019
th	-7.70257
▁F	-7.70346
▁\).	-7.70524
H	-7.70762
▁make	-7.7095
▁per	-7.71193
o	-7.7123
cdot	-7.71565
or	-7.7161
▁do	-7.73095
}}	-7.73171
▁both	-7.73387
▁Answer	-7.7413
▁\),	-7.74209
▁order	-7.75195
▁–	-7.75586
I	-7.76456
▁some	-7.7654
j	-7.77341
▁D	-7.77449
▁G	-7.77529
L	-7.78556
()	-7.79286
▁Here	-7.7931
F	-7.7956
_{	-7.79674
▁left	-7.80368
E	-7.8054
...	-7.81322
\)	-7.81644
▁value	-7.81964
▁L	-7.82078
l	-7.82231
=	-7.82971
▁M	-7.83056
▁N	-7.83757
M	-7.83924
int	-7.84403
▁input	-7.84445
▁$	-7.85717
▁Let	-7.85905
5	-7.86554
▁final	-7.87001
}{	-7.87146
▁4.	-7.88201
(\	-7.8822
▁H	-7.88591
com	-7.88625
▁people	-7.89902
▁v	-7.89913
▁through	-7.90582
N	-7.90966
▁been	-7.91037
▁many	-7.91054
▁12	-7.91054
to	-7.91147
▁loves	-7.91856
R	-7.91921
▁after	-7.92382
▁single	-7.92737
.”	-7.93176
▁print	-7.93803
▁my	-7.94211
▁\"	-7.94378
▁20	-7.94788
▁r	-7.9505
▁following	-7.95126
▁she	-7.95605
▁9	-7.95626
▁functions	-7.95658
▁word	-7.96285
▁had	-7.97478
▁def	-7.97689
://	-7.988
▁problem	-7.99362
function	-7.99391
',	-7.99749
▁m	-7.99751
▁name	-8.00231
▁set	-8.00806
▁string	-8.00833
▁know	-8.0107
▁most	-8.01255
K	-8.01327
▁while	-8.01342
▁used	-8.01869
▁•	-8.0192
▁then	-8.02101
▁years	-8.02269
▁could	-8.02962
6	-8.03153
▁words	-8.03165
▁get	-8.03468
▁→	-8.03637
▁re	-8.03784
$	-8.03885
."	-8.03985
▁same	-8.04951
▁tags	-8.05854
X	-8.05941
></	-8.06096
calls	-8.0689
▁user	-8.07003
▁XML	-8.0708
z	-8.07274
▁de	-8.07395
V	-8.08318
▁just	-8.08476
functions	-8.08569
);	-8.08843
▁15	-8.0917
sqrt	-8.09342
▁system	-8.09348
w	-8.10173
G	-8.10456
▁K	-8.10883
▁end	-8.10994
▁cost	-8.11127
▁X	-8.11555
ation	-8.12565
▁output	-8.12686
ic	-8.1287
▁integer	-8.1346
▁information	-8.13613
▁water	-8.141
▁sum	-8.14294
ll	-8.14401
▁V	-8.14479
▁our	-8.15206
▁==	-8.15794
▁help	-8.16692
▁right	-8.18079
▁What	-8.1834
▁even	-8.18668
7	-8.18793
▁W	-8.19026
approx	-8.20116
▁He	-8.20489
▁does	-8.20578
able	-8.20647
_1	-8.21348
▁provided	-8.21487
The	-8.21545
9	-8.22435
▁possible	-8.22455
▁House	-8.22559
on	-8.22627
▁5.	-8.22754
▁want	-8.23182
▁\(\	-8.2334
▁solve	-8.23647
O	-8.23914
▁equation	-8.2395
▁three	-8.24392
▁non	-8.24643
▁hours	-8.25093
▁length	-8.25559
▁every	-8.26016
▁There	-8.26018
▁They	-8.26278
▁work	-8.26321
sin	-8.26743
8	-8.26757
▁next	-8.2748
","	-8.27608
ve	-8.2761
":"	-8.27698
▁1,	-8.28177
▁numbers	-8.28219
sum	-8.28222
▁j	-8.28403
▁un	-8.2866
title	-8.28862
▁day	-8.28943
▁So	-8.29234
▁result	-8.29451
▁contains	-8.29617
ity	-8.29949
W	-8.30357
▁30	-8.3085
▁\):	-8.3091
▁1)	-8.30916
▁year	-8.31464
▁second	-8.31923
▁part	-8.32075
end	-8.32124
▁because	-8.32338
▁main	-8.33083
▁under	-8.33353
_0	-8.33807
▁well	-8.33978
▁energy	-8.34192
an	-8.34402
▁AI	-8.34508
▁directly	-8.34722
▁include	-8.3483
▁vertices	-8.35027
▁way	-8.35036
▁world	-8.35061
▁1:	-8.35211
the	-8.35439
▁call	-8.35439
ers	-8.35459
▁child	-8.35556
_2	-8.35836
▁Thus	-8.35997
▁found	-8.36124
▁range	-8.36153
▁group	-8.36387
▁form	-8.36639
▁100	-8.36644
▁Given	-8.37254
▁g	-8.37352
▁##	-8.37647
▁task	-8.37843
("	-8.38212
▁model	-8.38221
▁unique	-8.38665
it	-8.38708
en	-8.3881
▁example	-8.38843
▁≤	-8.389
▁code	-8.39148
▁let	-8.39186
mu	-8.39485
us	-8.39568
▁w	-8.39678
▁edge	-8.40013
▁correct	-8.40533
is	-8.40731
▁without	-8.40895
▁Now	-8.4093
▁Input	-8.41049
▁import	-8.41735
▁edges	-8.41784
▁rate	-8.41964
▁before	-8.41997
▁self	-8.42152
▁points	-8.42454
▁integers	-8.42598
▁2:	-8.42692
▁house	-8.42958
▁least	-8.43111
▁step	-8.43187
▁high	-8.43289
▁now	-8.43394
▁containing	-8.4367
▁uses	-8.43902
▁point	-8.44735
▁//	-8.44813
▁current	-8.44836
▁those	-8.45023
▁2,	-8.45077
▁take	-8.4544
▁here	-8.45786
+	-8.45858
▁vertex	-8.45893
cos	-8.46
▁down	-8.46267
▁being	-8.46677
="	-8.46841
▁>	-8.4707
▁O	-8.47624
Y	-8.47861
▁else	-8.47953
▁U	-8.48157
▁program	-8.48851
▁area	-8.48933
▁specific	-8.49049
▁Please	-8.49115
▁key	-8.49592
▁####	-8.49601
▁50	-8.50044
▁18	-8.50173
lambda	-8.50259
▁But	-8.50308
▁maximum	-8.5088
▁back	-8.50927
\":	-8.5117
▁6.	-8.51174
▁Example	-8.51258
https	-8.51395
▁during	-8.51594
_{\	-8.51672
▁determine	-8.51942
▁much	-8.52026
▁assist	-8.52074
▁might	-8.53041
▁J	-8.53105
▁calculate	-8.53127
▁average	-8.53553
▁—	-8.53938
▁int	-8.54114
':	-8.54179
ion	-8.54216
▁graph	-8.54463
at	-8.54615
▁(0,	-8.54992
▁state	-8.55081
▁query	-8.55172
▁last	-8.55605
▁Don	-8.5562
▁2)	-8.55878
10	-8.56309
alpha	-8.56377
▁path	-8.56478
▁solution	-8.56687
▁see	-8.56694
▁⇒	-8.56715
▁11	-8.56743
mathbf	-8.5678
▁long	-8.56831
▁Format	-8.56961
▁As	-8.57476
▁best	-8.57503
and	-8.57938
▁provide	-8.58299
▁Re	-8.58346
by	-8.58478
▁across	-8.59071
partial	-8.59133
▁product	-8.60098
J	-8.60122
▁However	-8.60231
▁based	-8.60359
▁h	-8.60914
1,	-8.6119
▁space	-8.61982
▁very	-8.61989
▁...	-8.623
▁standard	-8.6264
▁exactly	-8.62874
▁Since	-8.63309
▁class	-8.63777
^{	-8.63987
▁She	-8.64105
le	-8.64387
#	-8.64574
ar	-8.64597
as	-8.64626
do	-8.64919
▁own	-8.65073
▁response	-8.65206
▁Y	-8.65355
▁process	-8.65442
▁smoothie	-8.65956
ness	-8.65979
▁start	-8.66024
▁sequence	-8.66105
▁Alice	-8.66314
▁minutes	-8.66444
▁around	-8.66445
_3	-8.66525
▁case	-8.66527
ive	-8.66781
▁\\	-8.66929
▁(1,	-8.66938
▁(1	-8.6702
‐	-8.67165
▁Final	-8.67258
▁due	-8.67347
str	-8.67528
▁life	-8.67568
up	-8.67593
▁power	-8.67947
**.	-8.67955
▁No	-8.67975
▁When	-8.67984
▁means	-8.68127
▁often	-8.68159
age	-8.68238
▁helpful	-8.68268
▁calls	-8.68514
))	-8.68573
▁question	-8.68636
beta	-8.68673
▁times	-8.68675
▁made	-8.68736
▁distance	-8.68967
▁him	-8.69856
▁separated	-8.69861
▁assistant	-8.6995
▁hope	-8.6998
▁change	-8.70025
▁16	-8.70146
▁/	-8.70469
▁assumptions	-8.70569
▁An	-8.70644
▁results	-8.70739
▁New	-8.70749
▁How	-8.70818
▁Calculate	-8.70961
▁days	-8.71217
ment	-8.7158
▁less	-8.71585
▁said	-8.7165
▁public	-8.71744
▁19	-8.71846
▁z	-8.71941
▁lover	-8.72358
▁sort	-8.72466
('	-8.72741
▁still	-8.73008
▁us	-8.73639
}\	-8.73659
,"	-8.73683
▁3,	-8.73831
▁plug	-8.73903
Z	-8.73971
▁positive	-8.74024
▁research	-8.74356
▁students	-8.74363
no	-8.74367
▁go	-8.74683
▁List	-8.75208
▁And	-8.75253
▁Part	-8.75385
▁Can	-8.75677
calling	-8.7575
▁small	-8.7591
▁important	-8.76063
▁7.	-8.76148
▁including	-8.76166
▁create	-8.76316
▁3)	-8.76401
▁local	-8.76711
▁signatures	-8.7709
2,	-8.77207
▁good	-8.77672
▁another	-8.7789
▁large	-8.78411
▁elements	-8.78597
▁color	-8.78663
▁array	-8.79029
▁support	-8.79178
separated	-8.79203
man	-8.79366
▁l	-8.79399
▁type	-8.79541
▁test	-8.79547
time	-8.79642
phi	-8.79834
▁health	-8.80158
▁available	-8.80463
▁Step	-8.80488
▁above	-8.8057
▁true	-8.80573
▁valid	-8.80639
▁terms	-8.80993
▁size	-8.81559
Clue	-8.82078
▁children	-8.82131
▁conditions	-8.82149
data	-8.82542
ent	-8.82679
▁["	-8.82775
▁always	-8.83116
▁Q	-8.83132
▁(2,	-8.83259
"},	-8.83415
▁These	-8.83485
▁check	-8.83501
▁Python	-8.8387
ate	-8.84039
▁Alex	-8.84164
▁common	-8.84501
▁food	-8.84607
▁Total	-8.84639
▁matrix	-8.85107
▁amount	-8.85443
▁str	-8.85503
▁Use	-8.85611
▁real	-8.85625
quad	-8.85743
▁field	-8.85763
▁human	-8.86136
▁weight	-8.86163
▁14	-8.86219
omega	-8.86422
▁don	-8.86451
▁light	-8.86727
^	-8.86809
type	-8.86921
▁David	-8.87028
▁potential	-8.87259
▁13	-8.87505
15	-8.87845
▁term	-8.87994
▁index	-8.88135
el	-8.88141
16	-8.88224
ln	-8.88691
Output	-8.88998
ine	-8.89182
}{\	-8.89217
il	-8.89376
▁8.	-8.89844
▁give	-8.8994
12	-8.90063
<	-8.90092
▁since	-8.90237
▁-1	-8.90293
▁game	-8.90655
▁equal	-8.90666
50	-8.9068
q	-8.90761
CH	-8.90776
▁show	-8.90839
boxed	-8.9117
▁social	-8.9118
▁known	-8.91214
▁element	-8.91275
▁[{"	-8.91276
▁characters	-8.91298
▁25	-8.91441
▁side	-8.91452
▁favorite	-8.91498
▁required	-8.91514
▁9.	-8.91589
▁0,	-8.91628
▁level	-8.91709
▁something	-8.91712
leq	-8.91801
ary	-8.91864
▁study	-8.92021
min	-8.92129
[1]	-8.92141
▁Bob	-8.92161
ist	-8.92165
▁ensure	-8.92226
▁did	-8.92819
▁count	-8.9292
▁think	-8.92979
log	-8.93017
▁details	-8.93233
▁4)	-8.9361
▁×	-8.93884
ism	-8.94086
list	-8.94156
▁At	-8.94158
▁book	-8.94338
Q	-8.94342
▁24	-8.94419
▁After	-8.94589
▁...,	-8.94624
theta	-8.94757
30	-8.94785
▁sub	-8.94983
▁initial	-8.95145
▁follows	-8.95391
un	-8.95485
▁Therefore	-8.9563
▁Write	-8.95832
get	-8.95914
de	-8.95962
▁mother	-8.961
11	-8.96277
▁character	-8.9629
▁text	-8.9652
▁cell	-8.96589
▁max	-8.96771
▁mean	-8.96853
▁place	-8.96863
line	-8.96879
")	-8.96944
▁All	-8.97048
^3	-8.97154
▁5,	-8.97163
▁original	-8.97254
▁full	-8.97496
▁40	-8.9756
[0]	-8.97879
▁man	-8.97925
▁probability	-8.97991
▁tree	-8.98079
ian	-8.98174
▁keep	-8.9862
▁distribution	-8.98766
],	-8.98771
▁once	-8.98799
▁spaces	-8.98855
▁(3,	-8.98944
▁First	-8.99085
▁named	-8.99126
▁row	-8.99331
python	-8.99331
▁off	-8.99418
▁against	-8.99561
▁called	-8.99712
▁growth	-8.99729
date	-8.99942
▁team	-9.00157
▁representing	-9.00175
▁week	-9.0027
▁needs	-9.00423
▁cells	-9.00599
ul	-9.00618
▁Natsuki	-9.00917
▁5)	-9.00992
▁Carol	-9.01028
▁either	-9.01095
▁Do	-9.01117
▁add	-9.01172
▁4,	-9.01245
ry	-9.01354
▁complex	-9.01555
▁format	-9.01616
ch	-9.01665
et	-9.0169
^{-	-9.01797
▁top	-9.01866
▁language	-9.01899
▁60	-9.02124
▁structure	-9.02325
▁root	-9.02343
▁method	-9.02464
▁home	-9.02517
In	-9.02791
▁One	-9.02848
ization	-9.02939
▁body	-9.03044
est	-9.03056
25	-9.03084
▁position	-9.03313
out	-9.03452
▁comma	-9.03493
▁minimum	-9.03659
▁school	-9.04102
▁try	-9.04112
▁approach	-9.04138
▁needed	-9.04214
▁performance	-9.04575
▁con	-9.04662
2)	-9.04688
value	-9.04698
▁tell	-9.04745
▁contain	-9.04876
▁among	-9.05108
org	-9.05122
na	-9.06139
▁"""	-9.0628
▁dictionary	-9.06285
sigma	-9.06385
▁base	-9.06407
ant	-9.06414
▁further	-9.06509
▁ordering	-9.06509
▁u	-9.06539
**,	-9.06596
▁making	-9.06646
▁file	-9.06691
▁cannot	-9.06701
20	-9.06747
"}}	-9.07005
21	-9.07012
▁score	-9.0714
▁someone	-9.07431
–	-9.07441
▁little	-9.0762
ty	-9.07692
▁family	-9.07799
▁expected	-9.07891
▁together	-9.0803
▁too	-9.08266
▁project	-9.08315
▁period	-9.08317
ia	-9.0875
U	-9.08978
')	-9.09013
year	-9.09164
▁empty	-9.09195
step	-9.09215
▁content	-9.09456
▁look	-9.09492
like	-9.09978
▁pre	-9.09988
▁ASCII	-9.10065
▁square	-9.10149
▁expression	-9.10275
▁Z	-9.10382
▁Arnold	-9.10414
▁story	-9.10441
Unicode	-9.10503
▁via	-9.10548
_1,	-9.1078
▁formula	-9.10816
▁free	-9.10905
▁selected	-9.10915
▁Using	-9.11016
of	-9.1132
dt	-9.11522
▁la	-9.11536
▁four	-9.1209
▁multiple	-9.12179
▁By	-9.12302
url	-9.12473
▁learning	-9.12492
▁break	-9.12534
▁drinker	-9.12744
▁0.5	-9.12809
▁hand	-9.13054
ized	-9.13338
www	-9.13497
24	-9.13579
▁risk	-9.13583
ting	-9.13591
Step	-9.13608
▁len	-9.1385
not	-9.13864
(0)	-9.13885
▁On	-9.13903
▁constant	-9.13927
▁gives	-9.13992
17	-9.14045
max	-9.14146
▁zero	-9.14219
▁image	-9.14282
▁development	-9.14512
▁low	-9.14579
um	-9.14584
▁better	-9.14679
▁present	-9.14944
▁population	-9.15434
▁(4,	-9.15518
set	-9.15563
▁lines	-9.15589
13	-9.15616
▁control	-9.15833
ous	-9.15996
▁meters	-9.16142
14	-9.16201
▁short	-9.16306
▁condition	-9.16306
▁From	-9.16445
▁17	-9.16647
self	-9.16798
▁along	-9.16858
main	-9.16858
▁negative	-9.17203
▁+=	-9.17326
▁That	-9.17365
18	-9.17418
▁%	-9.17427
▁Name	-9.17662
▁increase	-9.17743
\",\	-9.17779
▁groups	-9.17806
ac	-9.17924
▁few	-9.18023
)**	-9.18058
▁De	-9.18062
▁Dr	-9.1808
▁models	-9.18129
▁impact	-9.18142
▁distinct	-9.18143
(1	-9.18279
▁sentence	-9.18471
▁takes	-9.18646
one	-9.18673
&	-9.18709
▁systems	-9.18709
▁price	-9.18849
▁const	-9.18868
▁open	-9.18868
▁__	-9.19062
▁10.	-9.19097
▁address	-9.19347
%	-9.19445
?”	-9.19466
▁white	-9.19508
▁city	-9.19541
▁simple	-9.19587
▁ascending	-9.19984
▁$\	-9.20043
▁->	-9.20096
▁already	-9.20242
▁analysis	-9.20299
for	-9.20312
▁come	-9.20517
▁becomes	-9.20777
▁say	-9.20838
▁remaining	-9.214
ro	-9.21672
append	-9.219
▁changes	-9.22194
):**	-9.22323
▁history	-9.22461
▁descending	-9.22476
ad	-9.22543
▁third	-9.22631
▁table	-9.22871
▁6)	-9.22965
▁pair	-9.23087
▁several	-9.23097
ling	-9.23125
▁event	-9.2331
▁products	-9.23311
red	-9.23467
▁Sayori	-9.23506
ance	-9.23528
,”	-9.23548
▁lives	-9.23586
▁natural	-9.23662
▁write	-9.23665
():	-9.2371
▁200	-9.23766
▁series	-9.23776
▁move	-9.23874
▁quantum	-9.23893
▁future	-9.23903
)^2	-9.23911
▁Determine	-9.23981
▁general	-9.24095
▁node	-9.24145
▁access	-9.24157
▁books	-9.24306
▁‘	-9.24346
)}	-9.24366
▁[]	-9.24396
▁target	-9.24433
am	-9.24443
@	-9.24498
co	-9.2496
less	-9.2503
▁American	-9.25109
▁additional	-9.25115
link	-9.25153
▁post	-9.25177
▁until	-9.25183
▁states	-9.2522
▁higher	-9.2528
▁equations	-9.25522
ri	-9.25577
▁methods	-9.25781
▁cases	-9.25807
▁never	-9.26069
per	-9.26171
_2,	-9.26484
ie	-9.26543
▁age	-9.26567
▁parts	-9.26692
ol	-9.26709
▁whether	-9.2672
▁air	-9.26865
▁11.	-9.26871
▁design	-9.26961
])	-9.26997
ton	-9.27074
▁6,	-9.27074
▁`0`	-9.27086
▁float	-9.27211
▁old	-9.27223
based	-9.27335
be	-9.27369
·	-9.27374
▁steps	-9.27517
00	-9.2761
▁height	-9.27654
▁consider	-9.27679
▁blue	-9.27686
▁etc	-9.27695
▁surface	-9.27742
▁past	-9.27795
▁understand	-9.27906
▁search	-9.27922
^2}	-9.27937
▁error	-9.28039
▁great	-9.28177
▁mass	-9.28196
▁United	-9.2829
▁en	-9.28368
▁dt	-9.28737
▁ID	-9.28764
▁community	-9.28871
▁3:	-9.28892
▁become	-9.28895
▁others	-9.29047
ra	-9.29056
▁requires	-9.29315
alice	-9.29348
▁13.	-9.29445
if	-9.29454
▁object	-9.29482
</	-9.29547
▁complete	-9.29568
ta	-9.29615
▁prime	-9.29735
te	-9.2988
".	-9.30009
▁compute	-9.30059
();	-9.301
ur	-9.30147
count	-9.30248
▁flow	-9.303
22	-9.30305
▁With	-9.30348
▁early	-9.30416
▁speed	-9.30604
▁fish	-9.30612
▁government	-9.30755
▁am	-9.30943
▁Then	-9.30962
▁(!	-9.31096
pm	-9.31121
▁sure	-9.31155
▁University	-9.3137
----------------	-9.31422
begin	-9.31428
▁grid	-9.31441
▁items	-9.31514
▁country	-9.31585
!”	-9.31615
▁defined	-9.31652
▁7)	-9.31735
▁action	-9.31756
ir	-9.31805
▁car	-9.31832
▁0)	-9.31846
li	-9.32035
▁entire	-9.32151
▁player	-9.32201
▁-\	-9.32206
▁understanding	-9.3221
▁things	-9.3225
ma	-9.32301
06	-9.32302
▁source	-9.32352
▁critical	-9.32432
▁12.	-9.32479
▁English	-9.32604
▁read	-9.32744
▁quotes	-9.32809
▁events	-9.32845
▁indices	-9.33027
▁represents	-9.33059
||	-9.33152
example	-9.33163
▁o	-9.33194
▁None	-9.332
▁student	-9.33307
▁starting	-9.33388
Total	-9.33405
▁away	-9.33445
▁null	-9.33451
os	-9.33465
ce	-9.33591
26	-9.33595
▁again	-9.33733
▁strings	-9.33745
▁logic	-9.33965
19	-9.34008
32	-9.34058
gamma	-9.34077
▁represented	-9.34125
▁(5,	-9.34204
▁column	-9.34209
ally	-9.34234
▁message	-9.34336
▁play	-9.34369
▁care	-9.34398
[2]	-9.34432
\),	-9.34457
▁months	-9.34485
la	-9.34595
▁working	-9.34656
▁below	-9.34668
▁heart	-9.34727
▁resources	-9.34766
ies	-9.34779
▁choose	-9.3478
▁lower	-9.34861
▁States	-9.34982
▁labeled	-9.35144
rs	-9.35178
ated	-9.35249
▁role	-9.35285
▁run	-9.35374
▁pairs	-9.35384
{1}{	-9.35457
input	-9.35482
tic	-9.3571
().	-9.35885
▁</	-9.35896
▁month	-9.36042
▁14.	-9.36216
▁far	-9.3628
order	-9.36444
im	-9.36465
st	-9.36518
result	-9.36681
▁special	-9.36718
Re	-9.36978
▁Some	-9.37061
day	-9.37144
▁women	-9.37269
▁wants	-9.37321
▁di	-9.37383
val	-9.37607
row	-9.37855
key	-9.37964
▁individual	-9.38088
▁black	-9.3812
▁street	-9.38185
▁https	-9.38237
bar	-9.38314
▁normal	-9.38344
▁experience	-9.38385
▁sorted	-9.38438
▁million	-9.38498
=2	-9.38615
▁approximately	-9.39159
▁adjacent	-9.3917
▁company	-9.393
})	-9.39382
▁difference	-9.3939
ne	-9.39562
ating	-9.39645
▁Monika	-9.39745
price	-9.39778
▁various	-9.39842
▁<=	-9.39865
23	-9.40032
▁context	-9.40036
}{2}	-9.40043
▁blood	-9.40131
▁double	-9.4015
▁Sub	-9.40176
▁clear	-9.40193
nu	-9.40297
ful	-9.40356
ish	-9.40433
▁ni	-9.40515
▁War	-9.40614
▁carbon	-9.40797
\).	-9.4098
▁share	-9.41114
▁species	-9.41119
é	-9.41243
▁significant	-9.41278
▁effects	-9.41302
^\	-9.41321
▁min	-9.41379
▁says	-9.41423
▁match	-9.41651
▁respect	-9.4166
▁ways	-9.41663
(1)	-9.4174
▁face	-9.41762
using	-9.41784
▁0.1	-9.41803
▁training	-9.41856
`.	-9.41902
ip	-9.4207
▁Provide	-9.42105
▁please	-9.42127
▁leading	-9.42286
28	-9.42299
27	-9.42373
split	-9.4238
▁disease	-9.42392
▁certain	-9.42434
▁war	-9.42473
']	-9.42487
▁law	-9.42536
▁related	-9.42547
▁men	-9.42854
▁Yuri	-9.42882
]:	-9.42982
▁perspective	-9.43005
45	-9.43036
▁course	-9.43049
▁going	-9.43117
▁physical	-9.43248
▁head	-9.43619
all	-9.43714
▁why	-9.43733
▁force	-9.43902
▁My	-9.43904
▁likely	-9.43969
▁True	-9.43973
▁St	-9.44085
from	-9.44104
▁operations	-9.44123
▁120	-9.44158
geq	-9.44247
▁region	-9.44351
NOT	-9.44439
▁types	-9.44651
▁units	-9.44657
▁effect	-9.44688
(2)	-9.44701
▁While	-9.44762
2.	-9.44887
▁dis	-9.44898
▁similar	-9.44936
num	-9.44992
▁eyes	-9.45011
▁standing	-9.45222
▁account	-9.45319
▁half	-9.45447
string	-9.4546
▁feel	-9.4561
▁8)	-9.45649
▁ti	-9.45707
player	-9.4584
▁questions	-9.4588
▁num	-9.45886
▁capacity	-9.4597
▁especially	-9.46271
▁pressure	-9.46402
▁itself	-9.46441
▁page	-9.46445
▁media	-9.46489
▁sense	-9.46563
▁seen	-9.46724
▁paper	-9.46745
total	-9.46776
▁factor	-9.46807
▁yes	-9.4685
▁follow	-9.46933
▁15.	-9.46938
ize	-9.46978
▁cause	-9.47131
ah	-9.47185
hat	-9.47218
▁today	-9.47316
▁review	-9.4744
▁500	-9.47542
▁really	-9.47599
][	-9.47628
son	-9.47708
29	-9.47838
▁activities	-9.47917
▁strong	-9.47954
▁National	-9.48049
he	-9.4843
▁room	-9.48464
▁theory	-9.48481
▁major	-9.48647
▁works	-9.48673
path	-9.48674
▁individuals	-9.48909
▁7,	-9.48954
▁fact	-9.48961
▁levels	-9.49003
60	-9.49021
▁business	-9.49037
▁land	-9.49096
▁considered	-9.49161
▁150	-9.49216
▁enough	-9.49275
problem	-9.4933
▁center	-9.49383
▁environment	-9.49532
▁meaning	-9.49559
▁Set	-9.49561
ter	-9.49609
▁optimal	-9.49851
▁script	-9.49916
▁phone	-9.50018
land	-9.50031
▁plan	-9.50041
▁factors	-9.50227
ard	-9.50236
▁put	-9.50241
▁Also	-9.50256
▁reaction	-9.50635
Delta	-9.50718
▁greater	-9.50849
ng	-9.51167
▁later	-9.51216
▁continue	-9.51233
▁characteristics	-9.51329
▁technology	-9.51481
▁network	-9.51609
▁love	-9.51801
▁World	-9.51834
▁q	-9.51843
▁areas	-9.51933
▁handle	-9.51974
▁personal	-9.52042
▁tea	-9.52222
▁rather	-9.52329
▁treatment	-9.5233
['	-9.52343
ative	-9.52357
ang	-9.52373
▁constraints	-9.52395
▁German	-9.52448
▁backticks	-9.52468
▁young	-9.52568
▁acid	-9.52633
3)	-9.52684
].	-9.52798
div	-9.52826
▁art	-9.5287
▁goal	-9.52871
=1	-9.52989
▁nature	-9.53286
0,	-9.53362
())	-9.53395
▁Check	-9.53396
ence	-9.53399
▁red	-9.53469
。	-9.53504
▁includes	-9.53685
▁False	-9.53742
▁Is	-9.53837
▁45	-9.53978
▁knowledge	-9.54034
ba	-9.54195
▁boquet	-9.54225
▁21	-9.54351
▁global	-9.54353
▁lead	-9.54359
▁build	-9.5441
▁having	-9.54433
▁market	-9.5451
House	-9.54659
▁integral	-9.54661
▁connected	-9.54722
▁whole	-9.54775
+1	-9.5482
▁Co	-9.55017
40	-9.55084
▁returns	-9.55107
▁balance	-9.55208
64	-9.55216
▁false	-9.55269
ab	-9.55296
}\)	-9.55342
▁names	-9.55345
35	-9.55406
▁temperature	-9.55461
▁hour	-9.55464
▁Everyone	-9.55598
▁puzzle	-9.55616
▁item	-9.55628
size	-9.55703
▁British	-9.55715
▁(6,	-9.55869
▁music	-9.55925
5)	-9.56057
▁section	-9.56539
Name	-9.56562
▁doesn	-9.56634
▁Con	-9.56794
▁features	-9.5681
▁gas	-9.56947
▁avoid	-9.56959
▁Al	-9.56993
▁shows	-9.57052
](	-9.57094
▁makes	-9.57132
▁five	-9.5715
▁issues	-9.5719
}(	-9.57274
▁al	-9.5738
▁John	-9.57409
ID	-9.57421
len	-9.57455
04	-9.57517
▁"__	-9.57519
[1],	-9.57568
ka	-9.57614
▁God	-9.5762
▁particular	-9.5768
100	-9.57704
▁request	-9.57771
▁quadratic	-9.57791
No	-9.57866
▁able	-9.5792
me	-9.57937
da	-9.58002
add	-9.58037
map	-9.58061
▁production	-9.58142
bob	-9.58227
▁rest	-9.58266
io	-9.58295
▁algorithm	-9.58434
▁require	-9.58482
▁focus	-9.58504
▁reach	-9.58507
▁pattern	-9.58534
=3	-9.58591
▁written	-9.58653
▁appear	-9.58668
▁select	-9.58671
▁education	-9.58717
的	-9.58731
__":	-9.58856
Calculate	-9.58924
▁2023	-9.5897
▁version	-9.58981
code	-9.59016
▁detailed	-9.59109
we	-9.59116
▁whose	-9.59227
ial	-9.59239
▁dog	-9.59303
▁costs	-9.59363
delta	-9.59393
▁close	-9.59406
▁economic	-9.59438
3,	-9.59442
▁science	-9.59458
▁activity	-9.59465
▁Red	-9.59472
▁La	-9.59776
▁command	-9.59785
▁problems	-9.59786
▁frequency	-9.59812
▁though	-9.5982
▁0:	-9.60136
pmatrix	-9.60271
▁according	-9.60321
lo	-9.60344
▁spent	-9.60414
ure	-9.60438
▁done	-9.60508
▁countries	-9.60661
▁Chinese	-9.60688
▁vs	-9.60739
▁mind	-9.60843
▁random	-9.60856
▁reduce	-9.60885
!"	-9.60933
▁money	-9.60956
▁building	-9.61022
▁operation	-9.61025
▁interest	-9.61059
▁houses	-9.61107
[3]	-9.61116
▁80	-9.61271
▁animals	-9.6155
▁hard	-9.61572
▁medical	-9.61581
▁se	-9.6163
▁addition	-9.61644
▁0.2	-9.61658
▁online	-9.61671
▁co	-9.61719
▁quality	-9.61809
34	-9.61811
▁linear	-9.62117
▁multi	-9.6223
▁remains	-9.62336
▁Number	-9.62406
{1	-9.62421
▁inside	-9.62441
"}]}	-9.62443
▁sides	-9.62533
▁Earth	-9.62561
▁political	-9.62568
▁anything	-9.6264
▁video	-9.62661
▁weeks	-9.62753
▁York	-9.6277
▁cheese	-9.62778
__	-9.62781
▁yet	-9.62804
▁9,	-9.62954
▁material	-9.62996
▁volume	-9.63035
▁1000	-9.63079
">	-9.63089
▁Options	-9.63232
ap	-9.63325
▁cat	-9.63385
▁studies	-9.63506
▁date	-9.63657
▁loss	-9.63768
▁usually	-9.63794
▁email	-9.63812
▁learn	-9.63902
▁(2	-9.63908
▁sound	-9.63958
▁evidence	-9.64125
▁involves	-9.64183
▁Day	-9.64233
let	-9.64274
▁Google	-9.64383
▁service	-9.64405
ted	-9.64425
root	-9.64444
▁patients	-9.64494
▁8,	-9.64557
▁behavior	-9.6456
▁Find	-9.64572
▁near	-9.64585
go	-9.64609
with	-9.648
▁0.3	-9.64954
▁differential	-9.65068
▁instead	-9.65243
)\)	-9.65371
▁machine	-9.65576
arnold	-9.65629
▁living	-9.65644
▁necessary	-9.65651
▁security	-9.65697
▁9)	-9.65709
psi	-9.65718
▁members	-9.65721
▁associated	-9.65746
our	-9.65877
▁effective	-9.65892
ities	-9.6597
▁et	-9.66016
▁management	-9.66028
▁largest	-9.66086
▁pro	-9.66117
▁cancer	-9.66153
▁binary	-9.66174
▁report	-9.66215
new	-9.6625
▁exists	-9.66274
48	-9.66468
▁resulting	-9.66558
▁ratio	-9.66575
▁ground	-9.6661
▁Or	-9.66715
index	-9.66778
user	-9.66864
▁night	-9.6689
arr	-9.66903
▁feet	-9.66941
а	-9.67106
▁inter	-9.67171
ability	-9.67208
▁ever	-9.67253
▁Time	-9.67254
ge	-9.67344
▁percent	-9.67402
▁creating	-9.67588
▁modern	-9.67668
▁legal	-9.67775
▁appears	-9.67817
▁private	-9.67906
▁tools	-9.67945
▁generate	-9.68015
▁style	-9.68111
▁analyze	-9.68151
To	-9.68327
▁si	-9.68327
▁perform	-9.68365
▁US	-9.68491
▁reading	-9.68524
ron	-9.68565
▁eye	-9.6857
▁job	-9.68647
▁turn	-9.68655
▁improve	-9.68743
▁90	-9.68748
ner	-9.68765
▁His	-9.68867
▁Her	-9.68885
length	-9.68891
▁maximize	-9.6904
ij	-9.69137
▁st	-9.69228
▁recent	-9.69273
bit	-9.69335
▁deep	-9.69453
▁budget	-9.69512
▁undirected	-9.69529
31	-9.6953
▁site	-9.6959
ẹ	-9.6966
▁miles	-9.69743
▁2024	-9.69851
▁block	-9.69884
▁skills	-9.69914
▁300	-9.69937
david	-9.69938
▁36	-9.69943
36	-9.6997
strip	-9.69975
▁author	-9.70021
▁Print	-9.70116
▁bond	-9.70181
▁matter	-9.70251
▁rules	-9.70286
▁Blue	-9.70326
▁32	-9.70354
▁thought	-9.704
mp	-9.70549
▁provides	-9.70554
▁corresponding	-9.7056
▁taken	-9.70598
vec	-9.70677
▁Me	-9.70744
▁revenue	-9.70772
▁subject	-9.70788
▁owner	-9.70864
ca	-9.70865
▁degree	-9.70893
ium	-9.70899
carol	-9.70922
▁writing	-9.71022
ه	-9.71048
▁sys	-9.71157
▁choice	-9.71271
ina	-9.71346
numbered	-9.71469
▁10)	-9.71687
▁smoker	-9.71697
4,	-9.71838
ru	-9.71874
snippet	-9.7198
$.	-9.72111
▁application	-9.72118
em	-9.72184
1)	-9.72289
▁idea	-9.72292
▁practice	-9.72354
▁relationship	-9.72378
mo	-9.7243
200	-9.72471
-1	-9.72479
test	-9.72522
=4	-9.72538
▁sample	-9.72578
over	-9.72663
▁created	-9.72703
▁smokes	-9.72793
▁added	-9.72801
▁bit	-9.72969
res	-9.72994
▁friends	-9.73004
▁latest	-9.7318
▁title	-9.73198
▁travel	-9.73348
▁except	-9.73417
▁smallest	-9.73547
izing	-9.73561
▁article	-9.73611
▁prevent	-9.73619
▁complexity	-9.73634
ha	-9.73715
01	-9.73721
▁got	-9.73796
▁(\(	-9.73855
▁28	-9.7387
▁kind	-9.73969
file	-9.73986
▁Try	-9.74001
ors	-9.74088
blue	-9.74101
port	-9.7413
ana	-9.74143
▁digital	-9.74155
▁looking	-9.74278
▁State	-9.74278
▁27	-9.74413
▁minimize	-9.74524
▁keys	-9.74558
▁fire	-9.74565
▁positions	-9.74614
▁derivative	-9.74656
▁Yes	-9.74663
−	-9.7469
▁influence	-9.74692
▁beer	-9.74707
▁built	-9.74717
▁rule	-9.74746
▁Not	-9.74805
500	-9.74851
▁Na	-9.74883
▁Clues	-9.75069
▁polynomial	-9.75109
{2	-9.75262
▁Great	-9.75308
▁described	-9.75338
▁coffee	-9.75347
▁safety	-9.75382
▁daily	-9.75405
▁fields	-9.75482
▁fun	-9.75516
old	-9.75559
start	-9.75619
▁note	-9.75885
▁outside	-9.7591
▁forms	-9.75922
▁Key	-9.75988
my	-9.76024
\"\	-9.76025
▁services	-9.76051
ak	-9.761
▁Un	-9.76157
▁JSON	-9.76289
▁arr	-9.76417
ward	-9.76492
▁nodes	-9.76497
You	-9.7654
term	-9.76594
ene	-9.76732
▁view	-9.76741
▁basic	-9.7675
▁voice	-9.76759
(0,	-9.76787
▁fill	-9.76808
▁pain	-9.76829
▁represent	-9.76935
▁charge	-9.76956
á	-9.76964
▁sets	-9.76971
ise	-9.76975
rho	-9.77097
▁star	-9.77108
▁direct	-9.77134
^{\	-9.77149
mol	-9.77456
▁document	-9.77476
▁everyone	-9.77489
py	-9.7751
state	-9.77524
▁vector	-9.77544
▁du	-9.77556
▁arrangement	-9.77557
1.	-9.77565
▁23	-9.77586
→	-9.77638
▁parent	-9.7771
▁tuple	-9.77845
▁35	-9.78034
▁(7,	-9.78058
▁efficiency	-9.7809
ut	-9.78176
back	-9.7829
led	-9.7843
▁anti	-9.78466
▁exist	-9.78492
33	-9.78505
▁raise	-9.78526
▁cover	-9.78719
▁sometimes	-9.78742
▁green	-9.78749
(3)	-9.78763
▁Pro	-9.78784
▁historical	-9.78799
▁unit	-9.78838
▁meet	-9.7889
ex	-9.78905
▁ensuring	-9.78975
read	-9.7905
px	-9.79175
con	-9.79244
(1,	-9.7935
ick	-9.79414
▁plant	-9.79489
09	-9.79491
▁taking	-9.79582
"}	-9.79662
▁[1,	-9.79692
ਰ	-9.79737
▁moment	-9.79743
е	-9.79778
▁Add	-9.79798
-2	-9.79812
▁baby	-9.7992
rangle	-9.79932
ology	-9.80132
▁occurs	-9.80132
▁background	-9.80134
▁radius	-9.80145
▁pick	-9.8015
▁Additionally	-9.80164
▁century	-9.80247
▁live	-9.80265
▁components	-9.80266
▁4:	-9.80335
▁became	-9.80365
▁central	-9.80372
ay	-9.80434
▁store	-9.80506
▁games	-9.80627
▁fetch	-9.80652
▁22	-9.80693
▁upon	-9.80726
▁-2	-9.80737
▁Be	-9.80771
net	-9.80789
▁elif	-9.80814
dy	-9.81115
▁coordinates	-9.81195
▁achieve	-9.81202
▁2000	-9.81246
cat	-9.81296
▁May	-9.813
▁26	-9.81336
í	-9.81352
▁1]	-9.8143
status	-9.81461
{3}	-9.81479
▁button	-9.81512
▁however	-9.81536
sh	-9.81539
▁fry	-9.81554
▁national	-9.81559
▁Note	-9.81564
▁1.5	-9.81567
▁memory	-9.81787
▁parameters	-9.8187
ification	-9.81871
▁0;	-9.81887
▁modeled	-9.81915
▁software	-9.81981
ó	-9.82102
We	-9.82211
so	-9.82295
▁API	-9.82346
▁heat	-9.82395
▁images	-9.82435
▁Compute	-9.82461
▁statement	-9.82499
▁Car	-9.8256
▁milk	-9.82611
di	-9.8262
▁solutions	-9.82625
{1}{2}	-9.82768
▁seconds	-9.82773
▁computer	-9.82877
▁width	-9.82901
▁pay	-9.82936
=6	-9.8307
▁cultural	-9.83154
form	-9.8316
mod	-9.83222
▁$1	-9.83232
▁financial	-9.83292
▁increased	-9.83336
▁в	-9.83369
▁longer	-9.83427
▁<<	-9.83434
score	-9.83504
les	-9.8357
▁starts	-9.83688
▁increasing	-9.8372
т	-9.83815
ten	-9.83887
▁safe	-9.83898
rate	-9.83983
▁develop	-9.84018
▁ch	-9.84064
▁policy	-9.84122
oc	-9.84163
▁$$	-9.84175
▁actually	-9.84227
ship	-9.84234
▁previous	-9.84294
▁dollars	-9.84479
▁allows	-9.8451
ite	-9.8463
▁Certainly	-9.84661
▁produce	-9.84682
▁sea	-9.84709
▁ability	-9.84903
▁brain	-9.84919
90	-9.84924
▁challenges	-9.84989
]]	-9.85005
▁contact	-9.85031
▁America	-9.85082
=0	-9.85168
▁lot	-9.85228
▁calculated	-9.85266
▁interval	-9.8536
▁professional	-9.85374
▁pages	-9.8539
▁smaller	-9.85426
▁tasks	-9.85444
▁compared	-9.85452
▁users	-9.85513
▁properties	-9.85538
▁strategies	-9.85562
▁overall	-9.85572
▁followed	-9.85612
▁act	-9.8567
▁System	-9.85726
▁letters	-9.85848
▁yellow	-9.85893
▁dp	-9.85901
▁behind	-9.85912
ci	-9.86066
ster	-9.86102
Cl	-9.86154
▁variable	-9.86178
▁remain	-9.86287
▁Go	-9.86399
position	-9.86608
water	-9.86649
▁Finally	-9.86671
▁otherwise	-9.86785
▁environmental	-9.86824
▁Master	-9.86834
ide	-9.86842
▁directed	-9.86911
▁Health	-9.86931
▁almost	-9.86935
po	-9.86957
▁digits	-9.86971
▁season	-9.87018
▁options	-9.8703
▁annual	-9.87105
▁density	-9.87169
▁big	-9.87264
"]}}	-9.87295
)`	-9.87298
▁materials	-9.87341
▁plans	-9.8738
▁communication	-9.87424
▁everything	-9.87482
▁larger	-9.87488
▁collection	-9.87521
▁instance	-9.8761
▁1?	-9.87622
▁knight	-9.87639
▁2\	-9.87769
▁app	-9.88132
▁cross	-9.88211
▁display	-9.88287
body	-9.88299
side	-9.8831
ile	-9.88405
▁processes	-9.88442
▁combined	-9.88478
▁remove	-9.88495
▁−	-9.88591
kt	-9.88629
ig	-9.88629
▁chosen	-9.88702
▁techniques	-9.88739
▁matches	-9.88739
▁Emily	-9.88843
▁brown	-9.88864
"]	-9.88887
▁woman	-9.89054
lan	-9.8906
]`	-9.8918
▁Man	-9.89196
pe	-9.89276
▁simply	-9.89399
70	-9.89456
▁typically	-9.89474
▁Next	-9.89565
▁@	-9.89664
board	-9.89678
▁`1`	-9.89774
number	-9.89842
▁map	-9.89907
?"	-9.89914
▁profit	-9.89918
42	-9.89921
▁sp	-9.9
ier	-9.90016
▁People	-9.90076
▁Assume	-9.90087
▁stop	-9.90234
▁drinks	-9.90305
low	-9.90458
▁!=	-9.90557
▁themselves	-9.90616
▁plants	-9.90645
▁forces	-9.90669
▁came	-9.90672
▁stress	-9.90758
▁Could	-9.90809
level	-9.90856
4)	-9.90875
her	-9.90878
49	-9.90881
▁Le	-9.90912
hi	-9.9095
▁cycle	-9.90988
55	-9.91064
▁16.	-9.91071
▁km	-9.91159
▁issue	-9.91205
80	-9.91214
▁Just	-9.91515
▁property	-9.91597
▁limit	-9.91632
▁sun	-9.91652
▁North	-9.91655
▁lack	-9.91715
▁web	-9.91795
▁extra	-9.91827
▁published	-9.91851
ever	-9.91877
▁rights	-9.91938
ible	-9.91983
▁designed	-9.91989
▁active	-9.9201
▁round	-9.92049
▁took	-9.92132
▁Substitute	-9.92157
▁death	-9.92187
▁bird	-9.92193
▁maintain	-9.92223
▁constraint	-9.92381
▁direction	-9.92391
ler	-9.92438
▁super	-9.92453
▁roots	-9.92519
▁City	-9.92524
^{-\	-9.92553
38	-9.92612
image	-9.92627
▁location	-9.9269
▁believe	-9.92716
ious	-9.92778
point	-9.92789
▁hair	-9.92801
▁comes	-9.92837
▁allowed	-9.92972
▁film	-9.93027
Key	-9.9307
se	-9.93102
(2	-9.93129
▁colors	-9.9314
▁thing	-9.93206
▁South	-9.93308
word	-9.93582
Time	-9.93587
▁scale	-9.93618
39	-9.9366
It	-9.93681
▁developed	-9.93705
ions	-9.93718
▁Data	-9.9375
▁mid	-9.93812
negative	-9.93821
[4]	-9.93826
▁advanced	-9.93831
+1)	-9.93874
▁THE	-9.93936
lin	-9.93976
▁void	-9.94008
▁patterns	-9.9401
▁Consider	-9.94081
ens	-9.94203
▁actual	-9.94211
▁sources	-9.94237
light	-9.94247
▁allow	-9.94261
_4	-9.94294
▁status	-9.94356
▁regular	-9.94378
▁rates	-9.94415
▁numerical	-9.94425
▁letter	-9.94443
lar	-9.94508
▁currently	-9.94549
}{1	-9.94594
.*	-9.9463
▁appropriate	-9.94708
▁skin	-9.94733
car	-9.94922
exp	-9.94958
▁oil	-9.94994
▁AND	-9.95034
▁partial	-9.95062
amp	-9.95071
off	-9.95103
▁le	-9.95187
ny	-9.95197
▁track	-9.95202
▁running	-9.95216
^4	-9.95235
col	-9.95291
head	-9.95307
▁circle	-9.95468
▁hold	-9.95484
Final	-9.95485
pa	-9.9561
▁eating	-9.95615
▁summary	-9.95656
▁particularly	-9.95703
▁с	-9.95792
▁record	-9.95828
ي	-9.95853
▁considering	-9.95858
▁climate	-9.95956
▁remember	-9.96055
▁six	-9.96066
▁sorry	-9.96132
▁determined	-9.9615
▁won	-9.96161
▁component	-9.96172
=5	-9.96256
▁shown	-9.9629
▁=>	-9.9631
Id	-9.96379
▁(8,	-9.96396
▁perfect	-9.96398
mon	-9.9644
▁velocity	-9.96443
▁inequality	-9.965
▁alone	-9.965
▁trying	-9.96782
ran	-9.96784
tion	-9.96833
▁Why	-9.96856
▁Row	-9.96874
Error	-9.96903
▁combination	-9.96906
▁China	-9.9695
ر	-9.96998
▁processing	-9.97055
▁master	-9.97077
▁Se	-9.97126
rating	-9.97184
table	-9.97195
top	-9.97239
▁traditional	-9.97299
▁places	-9.97327
▁involved	-9.97331
=1}^{	-9.97343
mi	-9.97371
44	-9.97407
▁identify	-9.97443
▁variables	-9.97469
75	-9.97473
ara	-9.97511
List	-9.97551
▁highest	-9.97577
aw	-9.97654
ator	-9.97742
▁frame	-9.97751
▁primary	-9.9778
mathcal	-9.97785
work	-9.97794
▁patient	-9.97811
▁guide	-9.97855
app	-9.97889
▁equilibrium	-9.97921
▁train	-9.97932
▁culture	-9.98133
▁Over	-9.98174
)\	-9.98179
46	-9.98182
True	-9.98188
style	-9.98213
▁trade	-9.98304
dict	-9.9837
▁doing	-9.98414
▁late	-9.9843
-3	-9.98445
▁wide	-9.98607
▁attention	-9.98681
can	-9.9874
men	-9.98762
▁reads	-9.98818
▁offer	-9.98836
▁satisfy	-9.98855
▁ask	-9.9897
▁70	-9.99012
lt	-9.99035
use	-9.99053
▁phase	-9.9907
▁success	-9.99212
▁Returns	-9.99213
▁Both	-9.99265
▁sign	-9.99272
▁beyond	-9.99375
▁Review	-9.99386
▁bi	-9.99425
▁During	-9.99477
ning	-9.99522
▁records	-9.99523
item	-9.99541
▁res	-9.99579
infty	-9.9958
html	-9.99606
▁и	-9.9962
way	-9.99622
▁front	-9.99688
OH	-9.99688
▁tool	-9.99716
▁rows	-9.99722
▁stay	-9.9978
▁Group	-9.99795
▁High	-9.99863
47	-9.99909
sub	-9.99929
▁ideas	-9.99929
▁forward	-10.0007
м	-10.0008
▁international	-10.0009
▁friend	-10.001
▁club	-10.0012
▁talk	-10.0014
▁Create	-10.0015
yl	-10.002
▁Many	-10.0024
▁`(	-10.0028
▁bar	-10.003
▁pe	-10.0031
▁29	-10.0041
ley	-10.0044
▁{'	-10.0045
▁exact	-10.0047
▁hands	-10.0048
lic	-10.0048
▁Most	-10.0058
▁Show	-10.006
ified	-10.0061
which	-10.0061
▁char	-10.0064
05	-10.0075
ik	-10.0079
▁Only	-10.0097
▁Pre	-10.0108
IN	-10.0109
▁Sa	-10.0115
▁(19	-10.0118
▁moving	-10.0119
▁scores	-10.012
color	-10.0121
▁Table	-10.0127
ung	-10.0129
▁specified	-10.0136
▁society	-10.014
▁odd	-10.014
▁implement	-10.0141
▁missing	-10.0151
ations	-10.0152
▁database	-10.0154
▁strength	-10.0158
=8	-10.0162
▁getting	-10.0172
▁programming	-10.0175
п	-10.0178
▁75	-10.0186
▁seems	-10.0188
▁objects	-10.0199
▁investment	-10.02
▁window	-10.0206
▁actions	-10.0207
▁31	-10.021
▁Problem	-10.0211
▁practices	-10.0212
br	-10.0216
▁ethical	-10.022
у	-10.0221
▁Prince	-10.0223
5,	-10.0228
ن	-10.0233
▁quickly	-10.0235
▁Eye	-10.0242
к	-10.0244
7,	-10.0253
▁industry	-10.0254
▁id	-10.0255
ists	-10.0259
▁separate	-10.026
▁goals	-10.0267
▁scene	-10.0272
▁loop	-10.0279
▁meeting	-10.0283
CO	-10.0288
▁included	-10.0293
▁OR	-10.0303
▁news	-10.0315
▁decides	-10.0318
▁Mo	-10.0329
▁internal	-10.0331
▁fourth	-10.0337
▁fixed	-10.0338
▁popular	-10.034
▁En	-10.034
array	-10.0342
last	-10.0346
▁(\	-10.0348
▁(3	-10.0349
▁started	-10.035
400	-10.0352
=7	-10.0353
tau	-10.0354
▁ex	-10.0357
▁wave	-10.036
6)	-10.0361
}$	-10.0363
▁produced	-10.0366
ug	-10.0368
▁palindrome	-10.0369
Data	-10.0369
▁flower	-10.0372
current	-10.0373
▁increases	-10.0375
▁0.4	-10.0376
▁setting	-10.0377
▁goes	-10.0377
▁relevant	-10.0384
65	-10.0384
▁requirements	-10.0391
▁math	-10.0392
▁angle	-10.0392
▁stage	-10.0396
▁Any	-10.0405
02	-10.0406
If	-10.0407
▁essential	-10.041
▁generally	-10.0411
▁Research	-10.0415
▁protect	-10.0416
▁occur	-10.0421
jpg	-10.0442
▁Their	-10.045
▁shape	-10.0451
▁Other	-10.0453
▁Center	-10.0454
each	-10.0455
ం	-10.0457
▁movement	-10.046
▁lost	-10.0461
▁34	-10.0465
6,	-10.0467
▁decimal	-10.0468
▁library	-10.0477
▁dark	-10.048
▁da	-10.0489
▁began	-10.0493
1:	-10.0498
▁convert	-10.0504
▁constants	-10.0507
41	-10.0511
▁knave	-10.0522
99	-10.0525
=9	-10.0534
▁limited	-10.0534
▁throughout	-10.0544
07	-10.0548
▁universe	-10.0551
ice	-10.0558
▁attack	-10.0567
kin	-10.0567
");	-10.0569
ord	-10.0573
▁soon	-10.0584
▁subset	-10.0589
▁decision	-10.0593
node	-10.0595
▁tax	-10.0601
▁sales	-10.0614
▁independent	-10.0622
▁mod	-10.0624
▁received	-10.0625
▁Fibonacci	-10.0627
▁^	-10.0629
▁URL	-10.0632
que	-10.0634
▁Make	-10.0635
▁drink	-10.0639
▁Li	-10.0639
non	-10.0643
▁layer	-10.0648
What	-10.0648
▁percentage	-10.0649
▁11)	-10.065
▁planning	-10.0652
_\	-10.0652
iv	-10.0658
▁deviation	-10.0658
▁stack	-10.066
"],	-10.066
pt	-10.0674
03	-10.0682
ی	-10.0683
▁server	-10.0684
ey	-10.0684
ping	-10.0692
▁files	-10.0706
)]	-10.0718
▁Get	-10.0721
▁narrative	-10.0725
ham	-10.073
vi	-10.0733
ni	-10.0738
▁assume	-10.0739
meta	-10.0741
▁spread	-10.0744
▁situation	-10.0745
New	-10.0759
▁capital	-10.0761
tor	-10.0763
▁reference	-10.0779
▁reduction	-10.0779
▁didn	-10.078
▁School	-10.0784
▁dataset	-10.0787
▁mental	-10.0788
next	-10.0788
▁stories	-10.0789
▁toward	-10.079
à	-10.0795
▁0.8	-10.0799
▁Fred	-10.0799
▁projects	-10.0801
join	-10.0802
▁respectively	-10.0804
lower	-10.0805
OR	-10.0805
▁motion	-10.0807
(5)	-10.0818
53	-10.082
du	-10.083
▁Even	-10.0838
▁≥	-10.0839
▁fuel	-10.084
▁beginning	-10.0842
bi	-10.0842
▁Two	-10.0843
▁parents	-10.085
mm	-10.0853
ai	-10.0855
▁Bar	-10.0883
▁ten	-10.0884
den	-10.0886
ical	-10.0895
▁Dis	-10.0897
▁programs	-10.09
lu	-10.0903
37	-10.0904
▁symptoms	-10.0914
▁description	-10.0917
air	-10.0918
}_	-10.0926
▁CO	-10.0928
AR	-10.0928
▁Ma	-10.0932
▁reason	-10.0933
▁strategy	-10.0936
▁thus	-10.0941
[0],	-10.0941
op	-10.0943
▁Science	-10.0946
▁scientific	-10.0949
ING	-10.095
▁bring	-10.095
▁demand	-10.0958
but	-10.0958
▁0.6	-10.0966
":{"	-10.0974
▁purple	-10.0975
▁$2	-10.0977
▁batch	-10.0981
ED	-10.0985
▁fully	-10.0985
▁>=	-10.0987
72	-10.0988
fish	-10.1014
down	-10.102
▁presence	-10.1024
▁players	-10.1027
Summary	-10.1031
▁48	-10.104
63	-10.1042
96	-10.1047
(4)	-10.1049
▁Solve	-10.1049
▁permutation	-10.105
tr	-10.1052
ock	-10.1053
ast	-10.1053
▁ancient	-10.1062
▁interactions	-10.1065
▁hypothesis	-10.1066
ل	-10.1076
▁importance	-10.1076
▁piece	-10.1077
city	-10.1078
▁Mexican	-10.1085
0.5	-10.1092
"},{"	-10.1094
▁Based	-10.1094
▁equivalent	-10.1094
▁member	-10.1096
US	-10.1101
ane	-10.1102
2:	-10.1103
tan	-10.1104
▁nothing	-10.1106
▁Suppose	-10.1108
der	-10.1112
om	-10.1117
▁device	-10.112
▁towards	-10.1121
▁split	-10.1124
▁literature	-10.1126
▁birth	-10.1127
▁twice	-10.1128
▁send	-10.1131
▁dx	-10.1133
▁website	-10.1134
95	-10.1143
ja	-10.1144
▁lists	-10.1146
▁animal	-10.1146
▁damage	-10.1148
▁box	-10.1149
▁fall	-10.1152
▁connection	-10.1153
/2	-10.1155
[0])	-10.1157
▁French	-10.1157
▁identity	-10.1164
▁requested	-10.1166
▁wind	-10.1169
▁visit	-10.117
▁Col	-10.1173
▁asked	-10.1174
54	-10.1177
ons	-10.1178
ash	-10.1185
▁keeps	-10.1186
0}	-10.1192
ke	-10.1192
[5]	-10.12
▁pizza	-10.1203
▁highly	-10.1205
label	-10.1209
▁external	-10.1209
▁lo	-10.1212
▁Art	-10.1213
lon	-10.1219
▁wọn	-10.1223
123	-10.1228
{(	-10.1228
ada	-10.1233
▁shift	-10.1236
Carol	-10.1243
▁mathematical	-10.1252
▁(1)	-10.1253
▁[0,	-10.1254
)}{	-10.1259
email	-10.1262
।	-10.1262
ы	-10.1263
▁clean	-10.1264
▁0.0	-10.1267
▁symmetry	-10.1278
wa	-10.128
dot	-10.128
▁Per	-10.1281
epsilon	-10.1282
model	-10.1284
▁spend	-10.1285
▁difficult	-10.1294
pre	-10.1297
▁leaves	-10.1298
prime	-10.1314
▁Mall	-10.1315
▁duration	-10.1335
▁save	-10.1335
[1])	-10.1336
▁receive	-10.1336
▁stock	-10.1336
▁income	-10.1337
This	-10.1337
▁challenge	-10.1341
61	-10.1343
▁0.05	-10.1343
istic	-10.1344
▁feature	-10.1344
▁ago	-10.1348
▁depth	-10.1351
▁Analysis	-10.1353
▁formed	-10.1355
field	-10.136
▁interested	-10.1369
▁chain	-10.1375
▁led	-10.1375
▁reduced	-10.1376
▁Question	-10.1381
▁Model	-10.1381
▁researchers	-10.1381
▁relative	-10.1391
tra	-10.1394
▁update	-10.1396
ele	-10.1409
▁apply	-10.1414
▁spin	-10.1417
ding	-10.1426
▁regions	-10.1429
▁coefficients	-10.1431
▁San	-10.1432
▁easy	-10.1434
spaces	-10.1435
ee	-10.1437
▁grow	-10.1439
▁scenario	-10.144
{2}	-10.1447
8,	-10.1449
ren	-10.1449
onic	-10.1453
char	-10.1454
uff	-10.1457
authorId	-10.1463
▁trees	-10.1466
▁quite	-10.1472
\):	-10.1479
1000	-10.1481
▁2010	-10.1484
▁himself	-10.1485
▁Mr	-10.1497
ring	-10.1501
93	-10.1502
-4	-10.1504
▁moves	-10.151
97	-10.1511
tro	-10.1514
▁finding	-10.1517
،	-10.1525
г	-10.153
▁June	-10.1535
bb	-10.1544
▁structures	-10.1549
▁plot	-10.1551
▁degrees	-10.1553
▁transition	-10.1555
▁yields	-10.1559
▁que	-10.1559
▁El	-10.157
▁-------	-10.1571
▁Hence	-10.1575
▁(0	-10.1576
ம்	-10.1584
▁office	-10.1585
▁Solving	-10.1592
▁Test	-10.1594
3.	-10.1596
▁journey	-10.1597
▁giving	-10.1604
▁fast	-10.1623
ama	-10.1633
▁electron	-10.1636
▁successful	-10.1647
▁label	-10.1659
ach	-10.1661
66	-10.1676
team	-10.1698
run	-10.1708
▁purpose	-10.1708
▁----------	-10.1708
▁python	-10.1711
▁Desert	-10.1714
▁evaluate	-10.1717
De	-10.1718
▁screen	-10.172
▁Team	-10.1721
▁figure	-10.1723
▁division	-10.1723
▁progress	-10.1731
▁concept	-10.1739
qui	-10.174
ray	-10.1742
57	-10.1747
lat	-10.1747
Con	-10.1748
▁See	-10.1754
▁treat	-10.1755
▁pass	-10.1763
▁ba	-10.1764
▁press	-10.1765
▁Mar	-10.1773
▁divide	-10.1774
='	-10.1775
▁var	-10.1781
ය	-10.1784
▁reported	-10.1787
▁(2)	-10.1794
▁tr	-10.1796
ze	-10.1801
▁Parameters	-10.1801
For	-10.1803
▁host	-10.1803
▁son	-10.1808
ue	-10.1812
▁Ex	-10.1813
▁providing	-10.1814
▁5:	-10.1821
▁cycles	-10.1821
ell	-10.1822
43	-10.1825
are	-10.1825
▁cut	-10.1835
▁exchange	-10.1835
}{4}	-10.1841
▁fear	-10.1844
▁stir	-10.1849
▁Di	-10.185
з	-10.1859
▁applications	-10.1865
▁fit	-10.1872
08	-10.189
book	-10.1891
▁hydrogen	-10.1892
▁ma	-10.1895
white	-10.1895
▁2012	-10.1902
ify	-10.1906
▁ring	-10.191
nd	-10.1915
api	-10.1918
▁User	-10.1925
▁forest	-10.1927
د	-10.1927
even	-10.1933
▁Traptor	-10.1935
▁applied	-10.1935
▁exceed	-10.194
fa	-10.1944
space	-10.1946
▁signal	-10.1951
▁Act	-10.1952
▁developing	-10.1952
▁buy	-10.1957
▁enthusiast	-10.1961
ਨ	-10.1964
▁differences	-10.1973
82	-10.1976
ual	-10.1977
▁longest	-10.1978
▁columns	-10.1981
gu	-10.1984
post	-10.1988
▁visual	-10.199
▁domain	-10.1991
▁articles	-10.1996
▁`0	-10.1997
-10	-10.1997
▁wait	-10.2
this	-10.2002
Answer	-10.2004
81	-10.2007
circ	-10.2011
▁yield	-10.2013
▁Power	-10.2017
▁explain	-10.2018
ries	-10.2021
▁optimization	-10.2023
ER	-10.2025
▁supply	-10.2027
▁suggest	-10.204
▁military	-10.2041
cc	-10.2042
ea	-10.2044
▁looks	-10.2051
▁testing	-10.2052
▁ready	-10.2052
▁Cost	-10.2054
▁explore	-10.206
ff	-10.2064
▁garden	-10.2064
ern	-10.2065
▁representation	-10.2068
▁Billy	-10.2069
▁Ra	-10.2072
▁lunch	-10.2072
▁leaving	-10.2075
?**	-10.2078
▁10,	-10.2081
act	-10.2082
▁communities	-10.2083
▁prompt	-10.2083
-12	-10.2096
ging	-10.2104
▁Galaxy	-10.2105
▁Europe	-10.2109
4}	-10.2113
▁shared	-10.2117
und	-10.2121
cing	-10.2121
AT	-10.2123
implies	-10.2129
ose	-10.2132
tag	-10.2133
Type	-10.214
▁benefits	-10.2142
▁healthy	-10.2142
▁fine	-10.2155
▁offers	-10.2156
▁(9,	-10.2158
}{3}	-10.216
56	-10.2165
ow	-10.2167
▁win	-10.217
undirected	-10.2172
▁practical	-10.2176
▁slow	-10.2177
▁cities	-10.2181
67	-10.2183
▁placed	-10.2185
▁NOT	-10.2185
▁Gu	-10.2188
▁customer	-10.2189
ga	-10.2191
▁quick	-10.2193
▁session	-10.2193
▁More	-10.2196
▁Pall	-10.2196
▁implementation	-10.22
▁solar	-10.221
▁observed	-10.2211
52	-10.2214
▁schedule	-10.2218
tin	-10.2224
idx	-10.2226
ph	-10.2227
▁cm	-10.2228
weight	-10.2229
▁seek	-10.2231
▁XOR	-10.2232
}_2\	-10.2237
▁paths	-10.224
▁Timothy	-10.2242
▁Darkness	-10.2242
tal	-10.2264
location	-10.2267
ez	-10.2269
}_2	-10.2274
▁located	-10.2276
▁Samsung	-10.2277
▁II	-10.2277
▁Explanation	-10.2277
+2	-10.2279
я	-10.2279
▁micro	-10.2283
▁leave	-10.2284
▁middle	-10.2291
▁causes	-10.23
л	-10.23
、	-10.2301
▁held	-10.2306
▁analyzing	-10.2307
▁default	-10.2309
▁weather	-10.2313
ade	-10.2314
za	-10.2316
▁choices	-10.2316
ho	-10.2321
▁participants	-10.2323
н	-10.2324
▁33	-10.2326
▁weights	-10.2346
content	-10.2347
0)	-10.2349
ub	-10.235
▁measure	-10.235
dog	-10.2351
▁existing	-10.2353
▁enhance	-10.2354
}}{	-10.2355
▁caused	-10.2357
▁soup	-10.2364
▁wall	-10.2366
▁consists	-10.2368
▁stability	-10.2373
chi	-10.2373
▁по	-10.2374
▁bottom	-10.2376
▁European	-10.2376
83	-10.2377
rank	-10.2378
▁completed	-10.2378
▁oxygen	-10.238
▁proper	-10.2385
symbol	-10.2389
nan	-10.239
well	-10.2391
▁engagement	-10.2393
▁Are	-10.2395
▁ice	-10.2396
▁doctor	-10.2396
rin	-10.2402
51	-10.2403
▁link	-10.2405
empty	-10.2409
▁went	-10.2412
▁custom	-10.2413
ological	-10.2415
▁Dunhill	-10.242
▁expect	-10.242
▁core	-10.2426
see	-10.2434
▁{\	-10.2435
ins	-10.2438
▁ends	-10.2441
▁concentration	-10.2441
▁measures	-10.2443
▁King	-10.2443
False	-10.2446
▁interaction	-10.2457
▁wrong	-10.2457
▁resource	-10.246
▁efficient	-10.2461
▁400	-10.2469
▁powerful	-10.2472
▁rise	-10.2479
>>	-10.2479
▁col	-10.2481
▁configuration	-10.2492
->	-10.2492
▁examples	-10.2495
▁integration	-10.2503
-1)	-10.2504
д	-10.2507
▁Green	-10.251
2}	-10.2511
▁Water	-10.2513
92	-10.2514
62	-10.2514
mer	-10.2517
▁companies	-10.252
▁party	-10.2521
59	-10.2523
bo	-10.2525
▁covered	-10.2526
▁Bella	-10.253
▁According	-10.2535
▁dimensions	-10.2535
▁minimal	-10.2536
▁Ba	-10.2539
LE	-10.2544
0.0	-10.2544
base	-10.2547
▁dictionaries	-10.2547
▁Dane	-10.2551
hy	-10.2551
م	-10.2556
=1}^	-10.2562
▁fifth	-10.2564
▁sent	-10.2573
▁dialogue	-10.2573
Number	-10.2583
▁crucial	-10.2591
73	-10.2598
class	-10.26
▁define	-10.2604
▁predict	-10.2605
5}	-10.2608
▁girl	-10.2613
▁Smith	-10.2613
▁describe	-10.2614
=1,	-10.2616
▁metal	-10.2617
▁2011	-10.2627
▁express	-10.2632
но	-10.2632
▁song	-10.2636
▁Pixel	-10.2639
)|	-10.264
address	-10.2645
▁Jamie	-10.2645
▁na	-10.2648
▁ensures	-10.2648
ec	-10.2651
▁transformation	-10.2656
▁ball	-10.2657
▁visited	-10.2671
(10)	-10.2673
[7]	-10.2675
ك	-10.2686
mb	-10.2693
▁Department	-10.2694
▁trust	-10.27
▁Black	-10.2705
▁55	-10.2706
▁Although	-10.2707
▁TO	-10.2708
▁board	-10.2709
▁Lemon	-10.2716
'(	-10.2717
▁Design	-10.2718
range	-10.2722
ber	-10.2723
▁movie	-10.2725
▁stable	-10.2727
▁consistent	-10.2732
par	-10.2734
▁Title	-10.2738
mar	-10.2739
й	-10.2751
▁Women	-10.2752
ake	-10.2752
▁formation	-10.2753
▁race	-10.2756
first	-10.2756
600	-10.2765
▁triangle	-10.2767
ک	-10.2768
و	-10.277
▁~	-10.2772
_0^	-10.2775
Text	-10.2776
▁para	-10.2776
▁saw	-10.2779
▁plane	-10.278
▁accuracy	-10.2781
▁affect	-10.2781
oon	-10.2783
▁Second	-10.2784
▁kg	-10.2785
–5	-10.2786
ki	-10.2793
art	-10.2793
▁schools	-10.2795
▁depends	-10.2797
(2,	-10.2807
ace	-10.2809
▁Bo	-10.2821
)*	-10.2824
69	-10.2825
▁Dragonfruit	-10.2826
▁horses	-10.283
▁laws	-10.2833
▁okay	-10.2834
▁$3	-10.284
bin	-10.2845
▁sold	-10.2848
3}	-10.2849
▁manage	-10.2855
▁intervals	-10.2856
▁Ar	-10.2857
▁holds	-10.2859
ert	-10.286
▁promote	-10.2861
▁Function	-10.2863
▁probably	-10.2867
▁sa	-10.287
▁0.9	-10.2871
▁Sony	-10.2872
▁particles	-10.2876
▁Cl	-10.2879
▁category	-10.2881
▁organization	-10.2883
▁op	-10.2885
numbers	-10.2887
▁involving	-10.2888
▁Solution	-10.289
cap	-10.2891
▁indicating	-10.2894
▁reverse	-10.2894
free	-10.2896
▁Union	-10.2901
▁MC	-10.2903
▁papers	-10.2906
world	-10.2909
7)	-10.2912
▁emotional	-10.2916
91	-10.2917
68	-10.2918
▁0\)	-10.2919
{3	-10.292
▁floor	-10.292
▁pop	-10.292
null	-10.2921
ale	-10.2923
▁val	-10.2924
▁gcd	-10.2929
→1	-10.2929
▁mis	-10.2933
▁rotation	-10.2934
sp	-10.2935
▁im	-10.2936
71	-10.2938
▁International	-10.2939
▁coming	-10.2944
▁bio	-10.2944
▁India	-10.2945
script	-10.295
String	-10.2958
▁thinking	-10.2958
action	-10.2963
▁scientists	-10.2964
▁chemical	-10.2964
▁**[	-10.2968
json	-10.2968
"}]}}	-10.2976
▁platform	-10.2977
}}{\	-10.2979
since	-10.2981
eg	-10.2984
▁growing	-10.2985
▁dict	-10.2986
IT	-10.2987
▁bad	-10.2992
ped	-10.2993
An	-10.2995
▁gets	-10.2997
▁suggests	-10.2998
≤	-10.3003
ric	-10.3007
ان	-10.3008
▁13)	-10.3014
▁principles	-10.3015
▁dynamic	-10.3016
77	-10.3019
▁Project	-10.3021
▁adding	-10.3021
▁effectiveness	-10.3027
width	-10.3029
▁filled	-10.303
▁Open	-10.3035
▁curve	-10.3035
▁su	-10.3036
▁gain	-10.3039
_5	-10.3043
85	-10.3045
▁experiences	-10.3045
2]	-10.3049
98	-10.3051
▁established	-10.3052
▁cold	-10.3052
ov	-10.3054
▁framework	-10.3055
()`	-10.3056
au	-10.3061
part	-10.3064
cy	-10.3066
▁fight	-10.3066
rightarrow	-10.307
)=	-10.3073
58	-10.3073
▁protein	-10.3079
lib	-10.3081
▁explanation	-10.3083
▁novel	-10.3086
▁kids	-10.3087
▁topic	-10.3089
description	-10.3092
▁March	-10.3097
sort	-10.3098
▁12)	-10.3102
▁Where	-10.3105
▁removed	-10.3111
▁checks	-10.3114
▁Of	-10.3114
▁significantly	-10.3118
▁billion	-10.3122
ب	-10.3126
▁Define	-10.3131
-19	-10.3132
[6]	-10.3133
▁father	-10.3136
hu	-10.3138
ES	-10.3138
ya	-10.3139
▁hospital	-10.3141
▁exercise	-10.3152
ة	-10.3153
▁sleep	-10.3159
▁к	-10.3166
artist	-10.3169
▁July	-10.317
▁Energy	-10.3171
000	-10.3173
▁educational	-10.3179
▁ال	-10.3179
fe	-10.3184
▁generated	-10.3188
▁180	-10.319
▁derived	-10.3193
▁на	-10.32
▁reducing	-10.3204
▁physics	-10.3205
▁},\	-10.3206
▁Japanese	-10.3209
▁maybe	-10.3216
▁basis	-10.3216
▁town	-10.3218
▁el	-10.322
▁parameter	-10.3222
▁playing	-10.3222
▁secure	-10.3223
▁Sp	-10.323
▁fan	-10.323
where	-10.3231
▁đ	-10.3237
▁slightly	-10.324
▁2022	-10.3241
è	-10.3244
▁Butterscotch	-10.3247
▁ValueError	-10.3248
▁Ro	-10.3249
▁California	-10.3264
َ	-10.3264
в	-10.3266
▁soil	-10.3266
▁errors	-10.3277
ка	-10.328
▁qu	-10.3283
▁helps	-10.3286
ura	-10.3288
▁yourself	-10.329
▁Return	-10.329
ven	-10.3295
ч	-10.3296
▁electric	-10.3298
scale	-10.3308
▁log	-10.3309
▁variety	-10.3309
▁audience	-10.3309
▁operator	-10.331
▁argument	-10.3317
▁planet	-10.3318
▁earlier	-10.3319
▁Start	-10.3319
▁Hi	-10.3325
▁load	-10.3333
Alice	-10.3336
▁OnePlus	-10.334
gen	-10.3342
▁Instead	-10.3342
▁Our	-10.3344
▁border	-10.3346
box	-10.335
▁Roman	-10.3351
▁sites	-10.3353
uc	-10.3354
▁Product	-10.3357
^*	-10.3357
▁immediately	-10.3358
▁Huawei	-10.3363
▁['	-10.3385
▁older	-10.3394
▁Pi	-10.3395
▁academic	-10.3397
verse	-10.3398
▁mu	-10.3399
▁monthly	-10.3399
▁die	-10.34
sion	-10.3404
▁fi	-10.3409
8)	-10.341
▁Web	-10.3411
items	-10.3413
▁42	-10.3415
84	-10.3417
open	-10.3419
▁static	-10.3424
lines	-10.343
▁phrase	-10.3434
ek	-10.3439
stdin	-10.3439
▁pieces	-10.344
▁(4	-10.344
ack	-10.3444
How	-10.3444
▁River	-10.3445
▁truth	-10.3448
▁brought	-10.3454
ST	-10.3457
▁net	-10.3462
pos	-10.3465
ob	-10.3468
▁park	-10.3476
ct	-10.348
▁Remember	-10.3481
▁Sentence	-10.3484
▁wa	-10.3484
ldots	-10.3486
▁(10,	-10.3487
tree	-10.3491
pro	-10.3498
bird	-10.3498
▁م	-10.3502
uck	-10.3503
▁sugar	-10.3511
▁hot	-10.3515
▁sentences	-10.3516
group	-10.3519
▁particle	-10.352
1]	-10.353
▁serious	-10.354
▁Type	-10.3541
product	-10.3542
iz	-10.3544
ft	-10.3549
▁cigar	-10.3552
match	-10.3553
▁"",	-10.3556
▁begin	-10.3558
▁Gra	-10.3559
ق	-10.3561
NO	-10.3564
▁0.7	-10.3567
▁responsible	-10.3568
close	-10.357
▁Th	-10.357
▁Inc	-10.3572
▁artist	-10.3574
▁substring	-10.3576
▁alcohol	-10.358
▁2008	-10.3587
▁West	-10.3591
annotations	-10.3594
▁resistance	-10.3594
▁transfer	-10.3596
▁storage	-10.3602
▁14)	-10.3606
▁liters	-10.3609
▁seem	-10.3612
IC	-10.3613
▁variance	-10.3622
▁});	-10.3624
{2\	-10.3625
▁Ca	-10.3629
ble	-10.3633
{5}	-10.3635
▁happy	-10.3635
▁pixel	-10.3638
"]}	-10.3642
ú	-10.3644
▁compare	-10.365
▁Implement	-10.3652
50,	-10.3652
▁easily	-10.3655
height	-10.3656
▁Post	-10.3662
▁http	-10.3662
ko	-10.3675
▁morning	-10.3675
▁classes	-10.3678
▁generation	-10.3681
▁electrons	-10.3688
▁classical	-10.3693
▁Xperia	-10.3694
▁door	-10.3694
▁Mac	-10.3701
▁walk	-10.3703
▁finally	-10.3705
▁auto	-10.3706
800	-10.3708
▁detail	-10.371
▁harm	-10.3711
▁official	-10.3716
▁Because	-10.3717
He	-10.3719
▁labor	-10.372
▁replace	-10.3724
han	-10.3726
▁client	-10.3726
▁waste	-10.3734
tain	-10.3735
▁diet	-10.3738
▁password	-10.3743
▁satisfies	-10.375
dx	-10.375
78	-10.3753
▁reality	-10.3753
Value	-10.3754
-5	-10.3758
king	-10.3759
-01	-10.3759
▁grilled	-10.3764
▁efforts	-10.3765
▁tasked	-10.3767
▁spaghetti	-10.3768
}{6}	-10.3768
▁ha	-10.3768
▁solid	-10.377
▁devices	-10.3784
▁April	-10.3785
▁calories	-10.3785
▁entry	-10.379
▁Vi	-10.3791
▁2.5	-10.3793
▁construction	-10.3794
▁experiment	-10.3797
init	-10.3797
▁translation	-10.3798
ight	-10.38
message	-10.3802
▁families	-10.3802
▁genetic	-10.3806
▁approaches	-10.3806
▁relationships	-10.3807
▁Park	-10.3811
ear	-10.3813
▁17.	-10.3814
Do	-10.3824
va	-10.3824
▁secret	-10.3826
▁court	-10.3827
▁extract	-10.3827
▁protection	-10.3844
▁comprehensive	-10.3845
▁creative	-10.3845
▁premise	-10.3851
▁DNA	-10.3855
)^2}	-10.3858
▁Ho	-10.386
▁option	-10.3864
▁CH	-10.3872
▁card	-10.3875
▁effectively	-10.3875
▁verify	-10.3877
▁Would	-10.3879
vo	-10.3879
▁bonds	-10.388
qu	-10.3881
ت	-10.3885
ments	-10.3887
▁atoms	-10.3891
▁Institute	-10.3894
▁France	-10.3894
gar	-10.39
["	-10.3916
▁15)	-10.3921
▁neighbors	-10.3922
▁Substituting	-10.3924
▁nearly	-10.3925
mit	-10.3928
▁guidelines	-10.3928
▁returned	-10.3931
▁Africa	-10.3934
most	-10.3943
ف	-10.3946
its	-10.3949
og	-10.3953
▁drug	-10.3953
js	-10.3954
▁prices	-10.3955
▁General	-10.3956
▁Press	-10.3958
▁humans	-10.3961
+4	-10.3964
▁usage	-10.3964
▁handling	-10.3971
▁Ta	-10.3972
▁forming	-10.3973
▁feeling	-10.3974
▁consecutive	-10.3975
http	-10.3976
▁distributed	-10.3994
";	-10.3994
▁std	-10.3994
▁""},	-10.3997
300	-10.4
1}	-10.4003
Br	-10.4006
case	-10.4007
AL	-10.4011
Al	-10.4017
▁Social	-10.4023
▁accurate	-10.4031
▁trip	-10.4031
▁commercial	-10.4033
▁collected	-10.4043
▁wild	-10.4043
▁discount	-10.4044
5%	-10.4045
▁January	-10.4045
wi	-10.4057
▁religious	-10.4058
dimensional	-10.406
Co	-10.4065
SO	-10.4068
$,	-10.4071
mathbb	-10.4071
▁obtained	-10.4071
о	-10.4074
▁told	-10.4075
ita	-10.4078
▁standards	-10.4081
▁transform	-10.4081
▁ب	-10.4082
▁female	-10.4083
▁compound	-10.4086
▁maintaining	-10.4088
▁born	-10.409
▁isinstance	-10.4091
png	-10.4092
の	-10.4098
▁completely	-10.4105
▁tests	-10.4106
ع	-10.4106
න	-10.4107
▁و	-10.4112
Determine	-10.4113
=10	-10.4114
88	-10.4115
▁Canada	-10.4115
▁64	-10.4118
ර	-10.4127
▁tokens	-10.4128
ong	-10.4129
வ	-10.4132
▁earth	-10.4132
▁SQL	-10.4134
ker	-10.4136
▁policies	-10.4139
▁teacher	-10.4143
.")	-10.4149
▁Sun	-10.4149
ud	-10.415
ش	-10.4153
▁eat	-10.4154
▁failure	-10.4156
▁useful	-10.416
▁Star	-10.4162
[2])	-10.4164
▁sums	-10.4166
▁notes	-10.4167
ala	-10.4169
▁250	-10.417
▁perhaps	-10.4174
float	-10.4178
ants	-10.4178
▁staff	-10.4183
▁threshold	-10.4186
local	-10.4186
tle	-10.4188
OS	-10.419
▁anyone	-10.4194
nes	-10.42
▁Once	-10.4201
▁potentially	-10.4202
▁2009	-10.4205
▁definition	-10.4209
▁consumption	-10.421
▁employees	-10.4216
▁Ch	-10.4221
▁Japan	-10.4223
ole	-10.4231
ੇ	-10.4242
oo	-10.4253
▁poor	-10.4254
-1}	-10.4258
▁symbol	-10.4267
▁Fe	-10.4275
▁momentum	-10.4278
▁solving	-10.4284
hand	-10.4285
ef	-10.4286
ọ	-10.4286
▁Ko	-10.4287
▁galaxy	-10.4289
har	-10.4292
▁Sum	-10.4293
0.00	-10.4293
ase	-10.4294
▁divided	-10.4295
pop	-10.4304
▁df	-10.4304
▁0.01	-10.4306
74	-10.4307
94	-10.4309
cost	-10.4317
train	-10.4318
▁President	-10.4321
▁discussion	-10.4324
▁songs	-10.4325
▁Ka	-10.4329
▁onto	-10.4335
▁keeper	-10.4336
▁geometric	-10.4337
▁creation	-10.4343
▁37	-10.4344
▁Expected	-10.4345
▁played	-10.435
▁mode	-10.4354
rt	-10.4358
▁performed	-10.4358
error	-10.4359
+3	-10.4359
[8]	-10.4362
▁James	-10.4362
▁ideal	-10.4366
▁Ad	-10.4366
76	-10.437
▁Tri	-10.4372
▁soft	-10.4378
▁counts	-10.438
high	-10.4381
▁fraction	-10.4381
▁"<	-10.4385
None	-10.4391
▁feedback	-10.4393
▁spirit	-10.4399
▁clinical	-10.4402
win	-10.4412
▁gave	-10.4413
▁contribute	-10.4415
▁அ	-10.4415
▁claim	-10.4416
▁concise	-10.4419
house	-10.442
▁{}	-10.4425
0000	-10.4431
hour	-10.4431
▁teaching	-10.4433
▁lilies	-10.4436
▁abstract	-10.444
▁stand	-10.4442
bmatrix	-10.4442
▁hear	-10.4444
▁info	-10.4445
86	-10.4445
▁leads	-10.4446
▁rare	-10.445
db	-10.4459
▁continuous	-10.4474
▁rich	-10.4475
cur	-10.4476
▁treated	-10.4477
▁bool	-10.4488
mic	-10.4491
▁hit	-10.4495
▁np	-10.4496
▁girls	-10.4497
▁comparison	-10.4512
▁identified	-10.4512
▁met	-10.4514
^2)	-10.4515
}{2	-10.4519
langle	-10.452
▁Ha	-10.4523
▁closed	-10.4524
▁iris	-10.4525
▁decide	-10.4529
▁carnations	-10.4537
▁Inter	-10.4538
My	-10.4539
▁angular	-10.4542
{4	-10.4543
ත	-10.4547
▁awọn	-10.4553
che	-10.4554
▁jug	-10.4555
▁decided	-10.4556
▁boba	-10.4558
▁privacy	-10.4561
▁distances	-10.4564
▁digit	-10.4574
▁healthcare	-10.4576
▁orchid	-10.4578
lemon	-10.4579
▁workers	-10.4582
Bob	-10.4586
▁therefore	-10.4586
Example	-10.4588
▁warm	-10.4589
▁links	-10.4591
power	-10.4592
87	-10.4593
▁origin	-10.4594
▁decay	-10.4597
view	-10.4597
▁copyright	-10.4605
...”	-10.4607
ط	-10.4609
▁IP	-10.461
▁boundary	-10.4612
▁peak	-10.4614
79	-10.4616
▁parallel	-10.4621
▁correctly	-10.4621
▁upper	-10.4625
▁reasoning	-10.4626
▁Germany	-10.4627
print	-10.4628
ò	-10.4628
▁worth	-10.4633
▁Law	-10.4635
▁credit	-10.4636
▁effort	-10.4637
▁nearest	-10.4639
ned	-10.4645
▁Cat	-10.4646
ans	-10.4656
▁radio	-10.4661
ர	-10.4666
ම	-10.4668
▁summer	-10.4668
2.5	-10.467
▁axis	-10.4671
▁vision	-10.4672
▁Equation	-10.4674
▁Standard	-10.4675
▁partition	-10.4678
▁2007	-10.4678
▁End	-10.4678
,000,000	-10.468
▁conflict	-10.4681
▁20)	-10.4683
country	-10.4683
▁initially	-10.4684
▁August	-10.4688
▁Give	-10.4691
▁absolute	-10.4692
▁allowing	-10.4693
▁recently	-10.4696
▁(5	-10.4698
ably	-10.47
=0,	-10.4701
▁specifically	-10.4703
IS	-10.4703
Info	-10.4705
89	-10.4705
▁Assuming	-10.4707
▁counter	-10.471
▁likes	-10.471
ய	-10.4713
▁sections	-10.4715
▁selection	-10.4716
▁stars	-10.4719
sim	-10.4721
▁East	-10.4721
▁runs	-10.4725
];	-10.4726
hr	-10.4726
▁drive	-10.4727
ш	-10.4727
User	-10.4729
▁copy	-10.4729
▁plus	-10.473
check	-10.4731
CC	-10.4732
author	-10.4733
yo	-10.4733
▁("	-10.4733
▁filter	-10.4735
▁setup	-10.4737
1.5	-10.474
▁Every	-10.4741
={	-10.4745
▁road	-10.4746
▁labels	-10.4748
valid	-10.4751
lim	-10.4754
play	-10.4756
eta	-10.4761
▁Air	-10.4764
▁cool	-10.4765
▁rock	-10.4765
▁cards	-10.4767
Image	-10.4769
rain	-10.477
page	-10.4779
ä	-10.4779
▁ko	-10.4779
▁Sh	-10.4779
▁History	-10.4783
df	-10.4784
fer	-10.4785
▁String	-10.4786
▁trans	-10.4791
▁release	-10.4797
▁daffodils	-10.4798
▁*(	-10.4799
▁benefit	-10.4799
▁eater	-10.4806
▁dynamics	-10.481
angle	-10.4811
▁sessions	-10.4816
uk	-10.4819
late	-10.4823
▁Super	-10.4823
с	-10.4823
▁hidden	-10.483
cr	-10.4831
cal	-10.4843
▁000	-10.4843
▁coefficient	-10.4846
0.3	-10.4852
▁install	-10.4855
▁PM	-10.4855
▁connect	-10.4858
▁assign	-10.4858
▁reports	-10.4859
▁fat	-10.4861
▁opportunities	-10.4863
▁Ne	-10.4863
▁segment	-10.4864
▁1}	-10.4869
▁wood	-10.4872
▁career	-10.4876
▁calculation	-10.4887
▁Space	-10.4888
▁eight	-10.4889
▁showing	-10.4895
meter	-10.4895
→2	-10.4907
ense	-10.4907
▁intensity	-10.4908
▁gender	-10.4909
other	-10.491
▁16)	-10.4912
ius	-10.4917
▁freedom	-10.4918
yellow	-10.4925
▁equipment	-10.4925
matic	-10.4926
▁requests	-10.493
▁contrast	-10.4934
ano	-10.494
SE	-10.4945
ver	-10.4945
▁alternative	-10.4947
ev	-10.4947
▁Case	-10.495
▁African	-10.4951
▁ho	-10.4951
▁cl	-10.4952
▁causing	-10.4955
▁draw	-10.4956
▁era	-10.4957
▁swap	-10.496
values	-10.4967
Yes	-10.4967
▁accompanied	-10.4976
▁dry	-10.499
–6	-10.499
mid	-10.4998
▁adjust	-10.4999
▁600	-10.5011
load	-10.5017
▁technical	-10.5017
▁Which	-10.502
▁[2,	-10.5021
tu	-10.5027
▁station	-10.503
▁Learning	-10.5032
▁depending	-10.5035
▁mechanism	-10.504
▁bouquet	-10.5043
▁corner	-10.5043
▁Code	-10.5043
▁dist	-10.5045
▁expansion	-10.5047
▁cur	-10.5047
dis	-10.5049
▁chance	-10.505
MA	-10.5063
▁stones	-10.5067
▁ca	-10.5069
words	-10.5075
gram	-10.5076
து	-10.5079
▁assistance	-10.5087
▁Comp	-10.5088
▁HTML	-10.5088
▁watch	-10.5088
▁Washington	-10.5089
▁ocean	-10.5091
ball	-10.5093
▁ப	-10.5095
▁sports	-10.5096
oy	-10.5097
Un	-10.51
▁optimize	-10.5105
▁exposure	-10.5106
fi	-10.5106
vent	-10.5107
▁released	-10.5108
▁**1.	-10.5112
▁involve	-10.5113
▁advice	-10.5114
▁although	-10.5118
▁achieved	-10.512
▁Main	-10.5121
▁mission	-10.5123
ව	-10.513
cent	-10.5138
▁Book	-10.5141
ра	-10.5148
▁boy	-10.5149
न	-10.5152
▁assigned	-10.5156
▁deal	-10.5157
cm	-10.5158
▁Change	-10.5165
align	-10.5166
▁therapy	-10.5167
▁Human	-10.5168
game	-10.5168
brown	-10.5169
▁attacks	-10.5173
▁blocks	-10.5178
ни	-10.5181
ੀ	-10.5184
ı	-10.5191
ද	-10.5197
▁Lo	-10.5198
)$	-10.5199
21,	-10.5199
▁requirement	-10.52
AS	-10.5203
minimize	-10.5203
^1	-10.5203
▁Convert	-10.5204
▁drop	-10.5213
AC	-10.5213
▁Pa	-10.5217
▁severe	-10.522
\))	-10.5226
▁clearly	-10.5227
▁spends	-10.5229
room	-10.5233
▁passed	-10.5235
Part	-10.5237
▁successfully	-10.5237
▁concerns	-10.5242
▁cap	-10.5245
▁mo	-10.5249
AI	-10.5252
▁noise	-10.5254
aka	-10.5259
▁reaches	-10.5263
▁\):**	-10.5271
▁&=	-10.5272
ency	-10.5273
▁discuss	-10.5275
paper	-10.5278
▁gene	-10.5283
▁Summary	-10.529
▁sharing	-10.5295
ero	-10.5298
▁≈	-10.5299
horse	-10.53
▁(`	-10.5303
include	-10.5308
▁September	-10.5308
▁assessment	-10.5311
▁dance	-10.5314
▁conservation	-10.5314
ger	-10.5315
▁band	-10.5316
▁serve	-10.5316
र	-10.5317
▁gravity	-10.5322
▁sexual	-10.5324
ல	-10.5325
▁gold	-10.5327
▁appearance	-10.5328
(3	-10.5329
▁outcomes	-10.5332
Pa	-10.5336
distance	-10.5343
▁reasons	-10.5344
eat	-10.5344
▁Har	-10.5345
▁imp	-10.5346
▁heavy	-10.5351
▁risks	-10.5356
▁none	-10.5358
▁rec	-10.5361
-6	-10.5366
Item	-10.5367
▁liquid	-10.5369
zz	-10.5369
▁TV	-10.537
▁felt	-10.5372
▁UK	-10.5373
▁shall	-10.5374
▁Include	-10.5375
▁keyword	-10.538
▁Math	-10.5404
▁organizations	-10.5406
ਲ	-10.5408
▁punctuation	-10.5408
▁Year	-10.5409
▁mi	-10.5409
ح	-10.5412
▁Spanish	-10.5413
▁former	-10.5415
▁prefix	-10.5415
▁Like	-10.5417
bra	-10.5417
place	-10.5418
▁2020	-10.5418
+1}	-10.5421
▁route	-10.5427
▁Cor	-10.5439
▁evolution	-10.5443
▁Christian	-10.5445
▁fundamental	-10.5445
▁wanted	-10.5453
▁conclude	-10.5455
kan	-10.5456
▁chapter	-10.5458
▁speech	-10.5464
ient	-10.5473
prince	-10.5475
▁emissions	-10.5475
▁smile	-10.5477
ica	-10.5478
▁flight	-10.5482
▁Hu	-10.5482
▁photo	-10.5483
▁male	-10.5486
▁idx	-10.5487
▁linked	-10.5489
)**:	-10.5493
▁findings	-10.5497
rat	-10.5499
rid	-10.55
such	-10.5505
▁nested	-10.5506
nt	-10.5507
▁65	-10.5515
▁chart	-10.5517
▁December	-10.5517
wise	-10.5517
▁Absolutely	-10.5518
▁enjoy	-10.552
RE	-10.5523
▁''	-10.5527
▁topics	-10.5529
▁channel	-10.5534
gi	-10.5535
▁unless	-10.554
ky	-10.554
▁ka	-10.5541
▁camera	-10.5543
▁sky	-10.5545
rd	-10.5545
event	-10.5548
struct	-10.5549
▁White	-10.555
▁carry	-10.5554
▁(3)	-10.5555
▁estimated	-10.5559
▁не	-10.5564
▁Area	-10.5564
▁messages	-10.5564
▁Take	-10.5567
▁improvement	-10.5568
▁38	-10.5571
ે	-10.5572
ata	-10.5572
▁recommend	-10.5573
▁fair	-10.5576
-8	-10.5581
▁fresh	-10.5585
▁diverse	-10.5586
She	-10.5601
PA	-10.5601
▁listed	-10.5602
▁google	-10.5603
SS	-10.5605
DE	-10.5609
{5	-10.5611
SA	-10.5611
▁Sch	-10.5614
ili	-10.5614
▁campaign	-10.5616
ware	-10.5619
column	-10.5623
▁medicine	-10.5624
▁lowercase	-10.5625
▁teachers	-10.5627
▁Clue	-10.5629
▁accept	-10.5631
▁mall	-10.5633
related	-10.564
▁Education	-10.564
RO	-10.5642
▁**2.	-10.5645
*,	-10.5646
▁Another	-10.5649
▁AM	-10.565
▁indicates	-10.5656
и	-10.5659
▁inner	-10.5661
▁click	-10.5662
▁decisions	-10.5663
▁interface	-10.5663
tive	-10.5664
eb	-10.5664
−1	-10.5665
001	-10.5666
▁famous	-10.5667
ration	-10.5669
▁changing	-10.5671
▁reactions	-10.5672
▁minute	-10.5674
ર	-10.5675
▁Read	-10.5678
ли	-10.5679
▁subsets	-10.568
▁pen	-10.5683
ou	-10.5686
spec	-10.5686
▁magnetic	-10.5695
▁இ	-10.5697
▁changed	-10.5697
serv	-10.57
▁continued	-10.5703
▁calculations	-10.5705
ர்	-10.5707
▁beautiful	-10.5715
▁queue	-10.5719
balance	-10.572
rm	-10.5721
nabla	-10.5722
▁interesting	-10.5723
tes	-10.5723
▁pool	-10.5724
▁seven	-10.573
war	-10.573
++)	-10.5736
▁mentioned	-10.5737
▁Home	-10.5738
▁flat	-10.5739
▁fl	-10.5742
▁faster	-10.5746
><	-10.5752
ì	-10.5763
▁Indian	-10.5763
▁rain	-10.5765
ਜ	-10.5768
frame	-10.5768
ز	-10.5771
▁focusing	-10.5777
af	-10.5777
ich	-10.5778
▁repeat	-10.5782
▁shop	-10.5783
ਿ	-10.5783
▁London	-10.5789
▁typing	-10.5794
▁college	-10.5794
▁package	-10.5794
▁comments	-10.5796
▁&&	-10.5797
ram	-10.5801
utter	-10.5808
|\	-10.5808
average	-10.581
▁Empire	-10.5818
ye	-10.5827
▁supported	-10.5829
▁electronic	-10.5832
points	-10.5832
▁worked	-10.5833
CA	-10.5835
▁October	-10.5839
ਤ	-10.5839
jo	-10.5842
}")	-10.5843
▁des	-10.5848
న	-10.5855
▁expressed	-10.5865
ep	-10.5872
▁sharp	-10.5875
–2	-10.5877
▁farm	-10.5883
▁logistic	-10.5883
(3,	-10.5883
ට	-10.5887
And	-10.589
▁Long	-10.5891
▁decrease	-10.5907
▁manner	-10.5907
▁11,	-10.5909
▁enter	-10.591
Why	-10.5911
▁download	-10.5912
▁assignment	-10.5915
▁sequences	-10.5916
▁mirror	-10.592
Count	-10.5922
▁moon	-10.5926
▁village	-10.5926
coffee	-10.5929
▁turned	-10.593
▁17)	-10.5933
{1}{\	-10.5941
ery	-10.5942
▁breath	-10.5946
▁Plan	-10.5949
▁Mark	-10.595
purple	-10.5954
▁(11,	-10.5956
▁holding	-10.5956
▁vi	-10.5956
▁principle	-10.5957
AP	-10.5961
ris	-10.5963
▁gentle	-10.5964
▁discovered	-10.5968
ics	-10.5968
▁neighbor	-10.5971
▁Ni	-10.5972
ari	-10.5978
nic	-10.598
▁England	-10.5984
pot	-10.5984
▁infection	-10.5992
▁Ensure	-10.5992
(2\	-10.5994
▁architecture	-10.6
[3])	-10.6004
ල	-10.6006
▁Am	-10.6006
source	-10.6008
brit	-10.6009
Conclusion	-10.6012
ivity	-10.6014
▁nation	-10.6019
▁satisfied	-10.6021
▁"2023	-10.6025
rem	-10.6027
▁derive	-10.6027
▁Subtract	-10.6029
▁commonly	-10.6029
▁sensitive	-10.6034
р	-10.6035
▁river	-10.6036
▁Management	-10.6038
unit	-10.604
▁broad	-10.6047
▁aspects	-10.6054
▁jobs	-10.6056
▁radiation	-10.6058
▁passage	-10.6059
MS	-10.6062
▁reached	-10.607
▁picture	-10.607
active	-10.6072
ira	-10.6073
▁USD	-10.6074
▁touch	-10.6074
▁ta	-10.6077
▁adults	-10.6081
^2}{	-10.6083
▁license	-10.6085
law	-10.6086
▁intelligence	-10.6086
▁cloud	-10.6088
▁indeed	-10.6091
да	-10.6092
you	-10.6095
▁symbols	-10.6097
▁respond	-10.6101
▁federal	-10.6103
▁desired	-10.6105
query	-10.6105
⊕	-10.6108
▁documents	-10.6109
cha	-10.6111
▁expand	-10.6121
ets	-10.6121
inter	-10.6122
▁opportunity	-10.6123
version	-10.6124
card	-10.6125
0.8	-10.6132
▁peace	-10.6133
med	-10.6137
▁customers	-10.6138
Set	-10.6145
▁construct	-10.6146
');	-10.6147
▁professor	-10.6148
▁squares	-10.6149
వ	-10.6157
▁detection	-10.6159
vers	-10.616
▁Wi	-10.6165
flow	-10.6166
▁keeping	-10.6167
ino	-10.6169
▁depend	-10.617
▁allocation	-10.617
▁push	-10.6176
ص	-10.6177
6}	-10.6179
▁computational	-10.6181
▁bill	-10.6182
▁proportional	-10.6183
▁regarding	-10.6185
▁reviews	-10.619
▁grams	-10.6191
0.4	-10.6191
▁joint	-10.6193
bu	-10.6198
ा	-10.6202
▁improved	-10.6204
being	-10.6205
▁bank	-10.6207
▁tuples	-10.6207
▁Po	-10.6208
▁classic	-10.6209
▁proceed	-10.6211
▁impossible	-10.6211
▁1.0	-10.6211
▁covers	-10.6221
rit	-10.6221
▁gl	-10.6222
▁categories	-10.6223
▁acts	-10.6225
▁moral	-10.6227
▁console	-10.6227
▁dead	-10.6228
via	-10.6232
▁exhibit	-10.6237
”,	-10.6239
Invalid	-10.624
▁speak	-10.6241
▁brand	-10.6247
aries	-10.6247
▁nums	-10.625
▁Apple	-10.6256
▁nor	-10.6257
▁confidence	-10.6261
▁catch	-10.6263
▁args	-10.6263
▁க	-10.6265
▁teams	-10.6268
▁tend	-10.6269
vol	-10.627
▁moved	-10.6271
▁Last	-10.6271
▁matching	-10.6272
▁updated	-10.6275
milk	-10.6275
take	-10.628
▁json	-10.628
mark	-10.6281
▁Its	-10.6287
▁Development	-10.6292
od	-10.6294
▁[[	-10.6297
▁Up	-10.6299
▁batches	-10.63
▁Information	-10.6305
▁Ja	-10.6313
▁adapt	-10.6314
▁foreign	-10.6315
▁battle	-10.6315
0.2	-10.6316
→3	-10.6319
Me	-10.632
gal	-10.6326
▁existence	-10.6326
Your	-10.6326
▁feed	-10.6327
lum	-10.6327
matrix	-10.633
▁powers	-10.6332
}\).	-10.6332
▁fe	-10.6335
Date	-10.6339
▁arms	-10.634
Oh	-10.6344
▁daughter	-10.6345
digit	-10.6346
▁Who	-10.6353
▁processed	-10.6353
lation	-10.6356
ail	-10.636
▁visible	-10.6363
▁Value	-10.6364
sta	-10.6365
View	-10.6367
put	-10.6368
▁happens	-10.6369
lam	-10.637
▁happen	-10.6372
▁atom	-10.6372
iris	-10.6373
▁ones	-10.6375
▁marketing	-10.6385
▁traffic	-10.6385
cho	-10.6389
▁Count	-10.639
las	-10.6391
▁delay	-10.6392
▁indicate	-10.6392
▁measured	-10.6393
▁recommended	-10.6395
▁2013	-10.6396
“	-10.6397
▁Person	-10.6397
dia	-10.6403
av	-10.6403
paperId	-10.6405
▁thousands	-10.6406
je	-10.6406
sequence	-10.6407
wo	-10.6407
ction	-10.6408
▁atmosphere	-10.6409
▁Top	-10.6409
▁foods	-10.6409
(4,	-10.641
▁integrate	-10.6414
9)	-10.6417
including	-10.6418
▁gradient	-10.642
▁Free	-10.6422
pan	-10.6422
img	-10.6425
area	-10.6425
tric	-10.6426
Fi	-10.643
▁survey	-10.6434
▁Bi	-10.6436
▁||	-10.6439
real	-10.6446
▁intermediate	-10.6448
101	-10.6448
▁Calculation	-10.6449
▁concepts	-10.645
▁computing	-10.6451
EN	-10.6458
▁inputs	-10.6458
▁unknown	-10.6462
▁heard	-10.6464
▁reflect	-10.6465
▁wish	-10.6467
▁refer	-10.6468
▁pull	-10.6469
▁10%	-10.6471
▁reduces	-10.6473
▁fluid	-10.6474
▁6:	-10.6478
▁mix	-10.6489
▁affected	-10.649
▁consequences	-10.649
▁assuming	-10.649
▁trace	-10.6494
▁20%	-10.6496
aa	-10.6499
▁2006	-10.6501
▁OF	-10.6503
▁adult	-10.6504
න්	-10.6504
▁acceleration	-10.6507
▁spring	-10.6507
▁networks	-10.651
under	-10.6511
rad	-10.6511
▁relation	-10.6512
▁prior	-10.6513
oma	-10.6513
ck	-10.6514
▁subsequent	-10.6515
▁isn	-10.6518
▁exponential	-10.6519
▁urban	-10.6525
▁Line	-10.6529
Le	-10.6533
button	-10.6533
▁languages	-10.6534
▁Update	-10.6537
ces	-10.6538
▁inches	-10.654
▁===	-10.6541
ika	-10.6542
▁join	-10.6543
ல்	-10.6543
ography	-10.6549
▁18.	-10.655
▁snow	-10.655
▁Hamiltonian	-10.6555
▁November	-10.6562
▁metric	-10.6564
ਵ	-10.6565
х	-10.6571
▁Below	-10.6573
50,000	-10.6575
ల	-10.6576
▁agent	-10.6579
▁Br	-10.6581
def	-10.6582
▁tried	-10.6582
ros	-10.6586
lock	-10.6588
/3	-10.6588
▁Trans	-10.6589
▁Good	-10.6591
▁72	-10.6593
[\	-10.6595
▁Program	-10.6597
▁limits	-10.6605
▁fruit	-10.6609
)^	-10.661
pall	-10.6614
▁[3,	-10.6617
→0	-10.6618
lig	-10.6621
▁steady	-10.6624
க்க	-10.6626
▁Food	-10.663
▁Task	-10.6633
▁Sha	-10.6634
press	-10.6636
▁Image	-10.6637
▁spatial	-10.6641
▁gauge	-10.6641
▁birds	-10.6646
ple	-10.6646
▁correlation	-10.6648
▁contract	-10.6649
▁intersection	-10.6651
Pro	-10.6657
▁glass	-10.666
▁nationalities	-10.666
▁Service	-10.6664
▁85	-10.6667
tri	-10.6668
change	-10.6673
▁orbit	-10.6673
ates	-10.6675
ess	-10.6676
▁li	-10.6677
▁Western	-10.6679
க	-10.6681
▁App	-10.6683
scholar	-10.6684
▁landscape	-10.6685
▁IN	-10.6688
bella	-10.6688
▁Australia	-10.6692
▁north	-10.6693
▁purchase	-10.6694
mes	-10.6695
TH	-10.6696
▁diameter	-10.6696
▁calm	-10.6696
▁circular	-10.6697
ending	-10.6702
cu	-10.6705
▁branch	-10.6707
long	-10.6708
▁Under	-10.6714
gra	-10.6716
▁keywords	-10.6716
▁Johnson	-10.6718
life	-10.6728
));	-10.6733
▁focused	-10.6736
▁49	-10.6738
▁leader	-10.6741
▁proposed	-10.6742
▁routine	-10.6742
▁entries	-10.6747
▁modified	-10.6747
▁Non	-10.6752
▁implies	-10.6753
▁magic	-10.6759
uring	-10.6759
▁possibly	-10.676
▁conversation	-10.6761
▁figures	-10.6763
▁ending	-10.6765
س	-10.6766
▁5000	-10.6772
Ex	-10.6774
ਕ	-10.6774
▁deeper	-10.6777
▁February	-10.6778
▁looked	-10.6778
([	-10.6779
▁technologies	-10.6781
mate	-10.6782
▁organic	-10.6783
▁exp	-10.6785
▁Sea	-10.6786
▁brother	-10.6786
info	-10.6787
▁offering	-10.6794
▁factorial	-10.6796
▁profile	-10.6797
▁straight	-10.6799
mat	-10.68
ी	-10.6803
▁conversion	-10.6805
ised	-10.6808
▁Network	-10.6809
▁typical	-10.6809
▁amounts	-10.6811
▁fix	-10.6811
ire	-10.6812
▁creates	-10.6816
▁samples	-10.6816
▁finds	-10.6817
▁settings	-10.6818
▁locations	-10.6821
▁Men	-10.6823
era	-10.6827
▁monitor	-10.6827
▁10,000	-10.6828
username	-10.6829
▁wrote	-10.683
▁Paul	-10.683
▁director	-10.6831
▁Life	-10.6831
▁operators	-10.6832
▁Journal	-10.6835
▁economy	-10.6843
ી	-10.6844
▁0.02	-10.6847
▁bed	-10.6847
ident	-10.6848
▁2005	-10.6851
darkness	-10.6852
▁23)	-10.6852
dane	-10.6853
–1	-10.6855
AB	-10.6856
▁Maybe	-10.6857
▁presented	-10.6857
▁quantity	-10.6861
▁diversity	-10.6862
▁uniform	-10.6862
true	-10.6863
▁arguments	-10.6863
()))	-10.6865
desert	-10.6865
any	-10.6866
▁token	-10.6867
▁platforms	-10.6869
some	-10.6871
▁refers	-10.6872
ola	-10.6872
▁Thank	-10.6875
▁Report	-10.6877
▁bound	-10.6877
Input	-10.688
▁Back	-10.6882
▁engine	-10.6886
▁native	-10.6887
▁attempt	-10.6889
▁responses	-10.6889
▁videos	-10.6891
]}	-10.6892
▁Java	-10.6893
▁technique	-10.6896
▁frequently	-10.6899
ult	-10.6899
▁innovation	-10.6901
▁39	-10.6901
▁views	-10.6903
▁dy	-10.6919
▁harmful	-10.6925
german	-10.6926
▁monitoring	-10.6938
▁Sure	-10.694
▁pounds	-10.6942
illa	-10.6943
ET	-10.6952
▁widely	-10.6953
fred	-10.6954
specific	-10.6956
▁journal	-10.6957
▁clock	-10.6962
▁eigenvalues	-10.6962
▁1.2	-10.6962
▁outline	-10.6964
▁begins	-10.6964
oke	-10.6968
▁Com	-10.697
▁***	-10.697
pizza	-10.697
8}	-10.697
boba	-10.6971
^5	-10.6972
▁Player	-10.6973
▁sounds	-10.6979
week	-10.698
▁Premise	-10.6982
CS	-10.6983
AN	-10.6986
▁Church	-10.6987
_{0}^{	-10.6987
zero	-10.6987
▁department	-10.6989
▁died	-10.6993
temp	-10.6996
▁mechanics	-10.6997
{10	-10.7
target	-10.7003
State	-10.7003
▁scored	-10.7004
▁paid	-10.7009
▁attend	-10.7016
cell	-10.702
ా	-10.702
var	-10.7021
lot	-10.7023
▁ob	-10.7025
only	-10.7025
equiv	-10.7027
chinese	-10.7027
▁strange	-10.7028
▁molecules	-10.703
▁lu	-10.703
lip	-10.7031
▁guidance	-10.7032
▁joy	-10.7035
▁wear	-10.7036
▁notice	-10.7041
NN	-10.7041
▁despite	-10.7041
find	-10.7044
aba	-10.7045
▁posts	-10.7045
des	-10.7049
▁$4	-10.705
▁19)	-10.7052
$$	-10.7056
▁engineering	-10.7056
▁invalid	-10.7057
▁Bu	-10.7059
butterscotch	-10.7059
face	-10.7061
now	-10.7061
▁combinations	-10.7062
ado	-10.7063
carnations	-10.7063
Rightarrow	-10.7064
All	-10.7064
▁studying	-10.7065
PS	-10.7075
▁grade	-10.7077
▁Light	-10.7085
▁differ	-10.7087
▁em	-10.7101
▁tech	-10.7102
▁accounts	-10.7102
orchid	-10.7105
▁mapping	-10.7108
dragonfruit	-10.7109
▁Tr	-10.7115
Mo	-10.7116
dr	-10.7118
news	-10.712
▁semi	-10.7122
gg	-10.7123
mission	-10.7125
(6)	-10.7125
▁arm	-10.7126
▁canvas	-10.7126
▁Internet	-10.7126
two	-10.7128
▁tone	-10.7128
0.6	-10.7131
-15	-10.7131
▁updates	-10.7131
▁port	-10.7131
ال	-10.7132
▁competition	-10.7132
ax	-10.7133
▁purposes	-10.7136
hal	-10.7138
ini	-10.7141
,1)=	-10.7141
▁Work	-10.7141
▁strictly	-10.7142
unt	-10.7147
▁precise	-10.7149
▁vertical	-10.715
▁significance	-10.715
▁trial	-10.7153
vert	-10.7157
▁switch	-10.7162
▁fewer	-10.7162
vin	-10.7163
▁tables	-10.7163
▁insights	-10.7166
soup	-10.7166
lilies	-10.7172
▁Control	-10.7173
▁drawing	-10.7175
▁Out	-10.7175
aga	-10.7175
▁sh	-10.7177
NH	-10.7177
▁prepare	-10.7177
▁ship	-10.718
▁slowly	-10.718
▁circuit	-10.7182
▁tackle	-10.7183
__(	-10.7183
▁translate	-10.7186
▁quarter	-10.7187
▁addresses	-10.7189
kit	-10.7191
▁boundaries	-10.7192
▁winter	-10.7192
▁foot	-10.7195
▁JavaScript	-10.7195
So	-10.72
▁primarily	-10.7201
▁tail	-10.7201
▁Central	-10.7203
▁suitable	-10.7203
ర	-10.7203
▁spacetime	-10.7205
ians	-10.7209
▁couple	-10.7209
▁rating	-10.7211
ION	-10.7215
++	-10.7216
▁William	-10.7216
▁Company	-10.7217
▁molecular	-10.7218
▁Society	-10.7219
▁identical	-10.7219
▁Student	-10.7226
rie	-10.7226
daffodils	-10.7227
▁drugs	-10.723
▁Du	-10.7231
▁candidate	-10.7232
ition	-10.7233
ன	-10.7234
▁sister	-10.7237
[]	-10.7238
ા	-10.7239
▁leadership	-10.7243
▁estimate	-10.7243
▁lies	-10.7244
▁roles	-10.7245
ON	-10.7249
▁YouTube	-10.7249
SP	-10.725
▁kept	-10.7252
^0	-10.7257
▁Cal	-10.7259
IP	-10.726
nums	-10.7264
stir	-10.7265
▁eventually	-10.7265
▁layers	-10.7267
▁escape	-10.7269
▁cent	-10.7272
▁theoretical	-10.7274
▁19.	-10.728
▁County	-10.728
▁44	-10.728
▁sustainable	-10.7281
▁iron	-10.7283
▁explicitly	-10.7285
That	-10.7286
త	-10.7286
▁Color	-10.7286
▁Today	-10.7289
bound	-10.7291
是	-10.7298
▁criteria	-10.7298
avi	-10.73
▁showed	-10.7301
▁guess	-10.7303
▁turns	-10.7305
▁resolution	-10.731
aving	-10.7311
▁contributions	-10.7311
just	-10.7317
DD	-10.7319
▁efficiently	-10.7319
home	-10.732
▁waves	-10.7324
▁Keep	-10.7325
▁obtain	-10.733
dunhill	-10.7331
token	-10.7332
▁Mu	-10.7335
oh	-10.7337
▁conduct	-10.7341
▁margin	-10.7346
vis	-10.7348
▁massive	-10.7349
▁25)	-10.735
▁explicit	-10.7353
▁learned	-10.7356
spaghetti	-10.7356
▁vast	-10.7356
▁Qu	-10.7359
▁proton	-10.7362
▁majority	-10.7363
▁stored	-10.7363
▁22)	-10.737
ju	-10.737
▁signs	-10.7373
▁belly	-10.7378
▁audio	-10.7381
▁comment	-10.7386
▁objective	-10.7387
▁promise	-10.7393
cl	-10.7393
▁receives	-10.7394
▁structured	-10.7396
mexican	-10.7396
wing	-10.7402
▁Section	-10.7403
▁shortest	-10.7403
ote	-10.7406
tar	-10.741
▁continues	-10.7412
block	-10.7414
zi	-10.7416
▁stands	-10.7417
▁agree	-10.7419
▁diabetes	-10.742
▁discover	-10.742
ome	-10.7422
▁Chi	-10.7422
chain	-10.7422
=2,	-10.7425
▁module	-10.7427
▁sell	-10.7428
▁Divide	-10.743
wood	-10.7431
AM	-10.7434
▁opposite	-10.7438
▁interpret	-10.744
billy	-10.7441
▁Mon	-10.7444
▁plays	-10.7451
▁herself	-10.7452
emb	-10.7452
David	-10.7457
▁adds	-10.746
▁del	-10.7464
▁comp	-10.7469
▁corresponds	-10.747
Be	-10.7473
▁bits	-10.7479
▁kilometers	-10.7481
▁crowd	-10.7481
grilled	-10.7486
kg	-10.7487
+5	-10.7491
month	-10.7492
▁diseases	-10.7495
▁samsung	-10.7495
▁pile	-10.7496
2+	-10.7498
▁101	-10.7498
On	-10.7499
▁substitute	-10.7499
▁Language	-10.7501
timothy	-10.7505
lit	-10.751
▁Amazon	-10.7512
▁symmetric	-10.7514
▁Conclusion	-10.7515
▁Sam	-10.7517
▁strain	-10.7527
▁22.	-10.753
ean	-10.7535
▁Jo	-10.7538
ox	-10.754
▁weak	-10.7542
aging	-10.7542
ి	-10.7544
▁south	-10.7549
▁breakdown	-10.7554
▁theories	-10.7556
▁43	-10.7557
▁tension	-10.7558
,0)=	-10.7558
▁awareness	-10.7563
ла	-10.7564
▁saying	-10.7566
▁skill	-10.7566
▁huawei	-10.7567
amount	-10.7567
▁replaced	-10.7568
▁formal	-10.757
▁wonder	-10.7571
▁xperia	-10.7571
▁meta	-10.7572
binom	-10.7572
2-	-10.7573
▁conclusion	-10.7575
ж	-10.7575
▁oneplus	-10.7575
▁recognize	-10.7577
ет	-10.7578
▁sony	-10.7579
▁walking	-10.7582
ancy	-10.7585
▁infrastructure	-10.7586
ati	-10.7587
ો	-10.7591
dp	-10.7591
▁mono	-10.7594
▁properly	-10.7598
▁Public	-10.76
ella	-10.7601
▁expressions	-10.7602
---|---|---|---|	-10.7605
▁Calculating	-10.761
▁Lu	-10.7612
cle	-10.7612
▁await	-10.7614
Sub	-10.7615
▁walls	-10.7618
▁salt	-10.7621
▁bacteria	-10.7626
▁introduced	-10.7629
ria	-10.763
▁illegal	-10.7634
▁Batch	-10.7634
▁0.25	-10.7636
▁mouth	-10.7638
හ	-10.7641
▁mask	-10.7645
▁clues	-10.7647
output	-10.7649
ony	-10.7653
▁secondary	-10.7655
त	-10.7657
pp	-10.7659
▁evaluation	-10.7662
▁¬	-10.7662
▁happened	-10.7665
▁permutations	-10.7666
на	-10.7666
cycle	-10.7668
▁ny	-10.7669
stone	-10.7671
ened	-10.7672
▁nuclear	-10.7672
×	-10.7673
[4])	-10.7679
▁ਸ	-10.7683
▁denote	-10.7685
▁derivatives	-10.7686
[1]=1	-10.7686
▁stream	-10.7691
▁bo	-10.7695
▁Station	-10.7695
dagger	-10.7695
▁structural	-10.7696
▁2021	-10.7697
rap	-10.7701
▁portion	-10.7706
▁wire	-10.7707
▁equals	-10.7708
▁Greek	-10.7709
▁camp	-10.7709
▁surrounding	-10.771
IL	-10.771
▁ph	-10.7712
▁Does	-10.7715
▁bright	-10.7715
▁visits	-10.7716
▁Mi	-10.772
IR	-10.7724
!**	-10.7724
▁Paris	-10.7725
▁extremely	-10.7725
Get	-10.7726
sur	-10.7726
ে	-10.7727
AD	-10.7728
▁lose	-10.7728
▁entirely	-10.7729
▁retrieve	-10.7729
▁800	-10.7731
▁UN	-10.7731
વ	-10.7732
▁**"	-10.7735
▁Da	-10.7736
▁Order	-10.7736
▁machines	-10.7738
▁అ	-10.774
search	-10.774
tail	-10.7744
▁47	-10.7744
MM	-10.7747
Natsuki	-10.7747
▁Gen	-10.7747
ory	-10.7747
▁fa	-10.7748
eth	-10.7749
▁charges	-10.775
"**	-10.7755
ю	-10.7758
UN	-10.7761
▁movements	-10.7761
▁brief	-10.7762
az	-10.7762
▁tri	-10.7767
▁claims	-10.7776
▁modulo	-10.7776
▁Party	-10.7776
Note	-10.7777
▁sector	-10.7777
▁stick	-10.778
▁abilities	-10.7782
▁observe	-10.7783
▁font	-10.7785
0°	-10.7788
▁Remove	-10.7789
▁talking	-10.779
hbar	-10.7791
▁tiny	-10.7792
▁medium	-10.7792
▁ت	-10.7793
square	-10.7796
▁carrying	-10.7798
▁raised	-10.7799
."?	-10.7799
▁opening	-10.7801
umb	-10.7802
▁employee	-10.7803
▁par	-10.7804
▁shell	-10.7805
▁supporting	-10.7806
▁leaf	-10.7807
▁"2024	-10.7807
▁CA	-10.7812
ind	-10.7816
▁transport	-10.7816
▁molecule	-10.7818
ü	-10.7822
lee	-10.7823
▁detect	-10.7825
itis	-10.7832
ava	-10.7832
▁horse	-10.7833
▁musician	-10.7833
▁tall	-10.7833
▁56	-10.7836
▁Pen	-10.7839
lst	-10.7839
▁vehicle	-10.784
▁triple	-10.7844
▁flowers	-10.7845
▁worry	-10.7848
▁closer	-10.785
▁Technology	-10.785
▁principal	-10.7853
▁trends	-10.7857
ao	-10.7857
▁18)	-10.7864
▁pond	-10.7864
▁Ed	-10.7864
pdf	-10.7865
▁$5	-10.7865
▁Search	-10.7869
CD	-10.787
Player	-10.7872
La	-10.7873
[9]	-10.788
▁Well	-10.7882
don	-10.7882
-03	-10.7887
▁Thanks	-10.7889
▁Su	-10.7889
▁Choose	-10.789
▁integrating	-10.7892
..."	-10.7892
▁за	-10.7892
▁concern	-10.7893
rew	-10.7895
Button	-10.7898
▁flu	-10.7898
▁balanced	-10.7905
▁bodies	-10.7907
→4	-10.7907
▁manager	-10.7909
graph	-10.7913
)))	-10.7914
▁scenarios	-10.792
▁coordinate	-10.7922
▁temp	-10.7923
▁Support	-10.793
▁Age	-10.7932
▁separately	-10.7933
mail	-10.7936
▁imagine	-10.7936
osis	-10.794
▁plt	-10.7944
ва	-10.7947
▁horizontal	-10.7947
▁removing	-10.7947
▁thoughts	-10.7948
▁Cha	-10.7949
▁Asia	-10.7951
▁Generate	-10.7952
pl	-10.7954
▁libraries	-10.7956
▁neuro	-10.7957
txt	-10.7958
▁George	-10.7961
▁regression	-10.7961
▁temperatures	-10.7962
▁Americans	-10.7964
▁movies	-10.7965
roll	-10.7971
';	-10.7971
▁violence	-10.7971
▁Bank	-10.7972
▁Israel	-10.7976
ular	-10.7988
eo	-10.799
▁ọ	-10.7991
hex	-10.7992
▁prop	-10.7993
RA	-10.7996
े	-10.7997
▁12,	-10.7999
ute	-10.7999
▁delivery	-10.8
▁Game	-10.8
▁driving	-10.8001
▁Date	-10.8003
▁у	-10.8006
▁pure	-10.8012
."}}	-10.8012
▁gravitational	-10.8016
▁seeking	-10.802
▁boolean	-10.8021
456	-10.8023
▁lie	-10.8024
▁ṣe	-10.8027
FF	-10.8027
=0.	-10.803
▁sand	-10.8031
ج	-10.8031
▁wins	-10.8035
▁bridge	-10.8037
▁marks	-10.8039
▁reflection	-10.8039
-07	-10.8039
▁**3.	-10.8039
▁Despite	-10.8041
▁capture	-10.8044
ture	-10.8048
▁sweet	-10.8052
▁41	-10.8052
ages	-10.8054
▁Ke	-10.8056
▁ge	-10.8058
▁classroom	-10.8058
ક	-10.8059
00,000	-10.8062
ா	-10.8068
LO	-10.807
]**	-10.8071
energy	-10.8072
▁essay	-10.8076
▁duplicate	-10.8077
▁cookies	-10.8078
▁54	-10.8078
▁truly	-10.8081
▁naa	-10.8081
▁smooth	-10.8082
":[{"	-10.8086
▁Among	-10.8087
ima	-10.8087
▁Max	-10.8087
▁comfort	-10.8088
▁rectangle	-10.8089
▁checking	-10.8101
▁mixed	-10.8109
▁reform	-10.811
▁Lord	-10.8116
Ma	-10.8119
ਾ	-10.812
Thank	-10.812
*.	-10.8122
1.0	-10.8123
rot	-10.8124
als	-10.8126
▁Hypothesis	-10.8126
▁[\	-10.8133
LA	-10.8135
▁implications	-10.8137
▁Port	-10.8139
ੁ	-10.8147
▁Government	-10.8147
ਸ	-10.8149
ే	-10.815
▁pos	-10.8152
▁occurred	-10.8159
▁Page	-10.8159
ட	-10.8162
–4	-10.8165
▁island	-10.8169
ன்	-10.8175
▁statistics	-10.818
ِ	-10.8182
▁Children	-10.8183
cer	-10.8187
▁23.	-10.8187
▁21)	-10.8188
domain	-10.8189
1`	-10.8191
▁Global	-10.8192
▁dangerous	-10.8194
▁110	-10.8196
▁extreme	-10.8198
▁connections	-10.8198
та	-10.8199
▁algorithms	-10.821
▁simplicity	-10.8213
▁geometry	-10.8218
▁consisting	-10.8219
▁News	-10.822
ula	-10.822
10,	-10.822
sorted	-10.8221
direct	-10.8223
▁killed	-10.8223
more	-10.8224
OP	-10.823
eng	-10.8232
▁engaging	-10.8233
▁supports	-10.8235
▁sc	-10.8235
0%	-10.8236
▁helping	-10.824
▁rapid	-10.8243
ae	-10.8244
▁previously	-10.8244
vel	-10.8245
ప	-10.8246
▁cast	-10.8251
making	-10.8251
hol	-10.8257
▁1500	-10.826
Hello	-10.826
ku	-10.8262
▁carefully	-10.8263
ena	-10.8265
▁1990	-10.8268
ක	-10.8269
▁tips	-10.827
▁pp	-10.8273
>"	-10.8277
▁Simplify	-10.8278
▁Sort	-10.828
ona	-10.8281
▁overlap	-10.8283
▁(12,	-10.8283
▁films	-10.8284
▁beam	-10.8285
media	-10.8286
parent	-10.8288
▁gi	-10.8292
▁Robert	-10.8293
ibility	-10.8293
lor	-10.8294
▁arrays	-10.8301
▁prepared	-10.8306
yan	-10.8311
▁advantage	-10.8312
dom	-10.8313
^{-1}	-10.8313
▁functional	-10.8314
USD	-10.8315
▁intended	-10.8321
ches	-10.8323
acc	-10.8327
▁funds	-10.8329
ison	-10.8329
▁Node	-10.8331
▁ng	-10.8333
PL	-10.8334
}]}	-10.8339
▁spot	-10.834
Element	-10.8341
▁Jug	-10.8345
▁Poisson	-10.8346
ani	-10.8346
▁align	-10.8346
As	-10.8348
Color	-10.8349
▁repeated	-10.8351
▁paragraphs	-10.8352
▁desire	-10.8354
య	-10.8355
▁breaks	-10.8356
Add	-10.8356
File	-10.8356
▁easier	-10.8356
▁FROM	-10.8357
nh	-10.836
▁waiting	-10.8364
21.	-10.837
▁procedure	-10.837
▁nearby	-10.8373
los	-10.8377
gon	-10.8379
▁Michael	-10.8388
▁attached	-10.8389
▁\))	-10.8396
700	-10.8397
▁geo	-10.8397
▁grand	-10.8398
▁chest	-10.8398
util	-10.8405
2=	-10.8406
▁por	-10.8407
ami	-10.8407
▁recovery	-10.8411
els	-10.8412
▁Description	-10.8413
unique	-10.8416
▁hyper	-10.8416
′	-10.8417
}(\	-10.8418
▁engage	-10.8419
OC	-10.8419
▁experienced	-10.8421
▁Before	-10.8423
▁dedicated	-10.8423
▁boost	-10.8424
lẹ	-10.8427
▁Rock	-10.843
video	-10.8432
▁Will	-10.8433
–7	-10.8439
Man	-10.8444
▁funding	-10.8445
▁Common	-10.8445
▁encourage	-10.8445
gov	-10.8449
ville	-10.8452
ả	-10.8453
▁virtual	-10.8456
▁decades	-10.8456
7}	-10.8468
▁Em	-10.8468
1",	-10.8469
mor	-10.8472
▁implementing	-10.8472
▁pet	-10.8473
▁signals	-10.8473
ем	-10.8476
▁civil	-10.8479
▁Russian	-10.8485
▁College	-10.8487
▁huge	-10.8487
▁multiply	-10.8488
nate	-10.849
▁Real	-10.8495
SC	-10.8497
▁Best	-10.8498
ality	-10.85
show	-10.8501
ạ	-10.8502
EX	-10.8506
2000	-10.8506
▁Los	-10.8506
▁Office	-10.8512
{7}	-10.8512
▁relatively	-10.8512
▁Brown	-10.8514
▁launch	-10.8516
dies	-10.8516
▁52	-10.8516
fully	-10.8517
▁Association	-10.8518
▁dream	-10.8518
▁robust	-10.8527
lay	-10.8528
▁populations	-10.8529
▁Field	-10.853
–3	-10.8531
-20	-10.8532
−2	-10.8536
▁authority	-10.8536
ти	-10.8537
▁Court	-10.8539
Fe	-10.8542
ette	-10.8543
▁Path	-10.8546
▁remote	-10.855
▁buildings	-10.8552
▁leaders	-10.8553
▁15,	-10.8556
▁≡	-10.8559
▁[4,	-10.856
▁religion	-10.856
lie	-10.8563
▁engineer	-10.8567
ਦ	-10.8568
▁commands	-10.8575
▁answers	-10.8575
▁sit	-10.8577
▁watching	-10.8577
▁10000	-10.8578
▁merge	-10.8581
▁RE	-10.8584
▁gap	-10.8585
▁industrial	-10.8588
▁Mor	-10.859
▁10^	-10.859
▁lay	-10.8591
rum	-10.8592
▁inclusive	-10.8593
▁Jewish	-10.8594
▁arc	-10.8597
Ar	-10.8597
Not	-10.8599
▁attributes	-10.8604
▁Mal	-10.8605
1/	-10.8615
First	-10.8617
▁mechanisms	-10.8617
▁primes	-10.8618
Phi	-10.8619
▁sin	-10.862
▁};	-10.862
▁react	-10.862
lies	-10.8621
▁à	-10.8622
▁necessarily	-10.8624
").	-10.8624
▁Big	-10.8625
rup	-10.8626
▁approximate	-10.8627
▁container	-10.8631
▁confirm	-10.8634
▁defense	-10.8634
TA	-10.8635
▁trigger	-10.8643
▁ku	-10.8644
▁church	-10.8645
▁operating	-10.8645
▁ke	-10.8648
▁prints	-10.865
▁recorded	-10.865
▁sphere	-10.8654
EL	-10.8656
▁greatest	-10.8659
▁painting	-10.8661
(5,	-10.8662
pr	-10.8664
▁transaction	-10.8664
▁Christ	-10.8664
▁soul	-10.8667
▁Latin	-10.8669
mal	-10.8673
▁instructions	-10.8675
ਮ	-10.8676
Height	-10.8676
▁vary	-10.8681
▁tun	-10.8685
▁requiring	-10.8688
dic	-10.869
EC	-10.8693
用	-10.8693
▁flash	-10.8693
▁median	-10.8696
▁capable	-10.8697
▁(4)	-10.8699
▁mention	-10.8699
▁extension	-10.8699
▁thick	-10.87
integer	-10.87
▁finish	-10.8701
iff	-10.8702
▁rapidly	-10.8703
▁deliver	-10.8708
▁composition	-10.8709
▁21.	-10.8713
3]	-10.8715
Of	-10.8716
▁inspired	-10.8718
▁blend	-10.8719
rus	-10.872
oth	-10.8722
▁13,	-10.8726
▁Wa	-10.8729
{1}{1	-10.8729
rig	-10.873
ically	-10.873
▁carried	-10.8731
▁minor	-10.8735
uma	-10.8735
▁suggestions	-10.8735
▁familiar	-10.8736
[2]=1	-10.8736
▁Dict	-10.8736
▁Bay	-10.8741
▁king	-10.8744
▁crime	-10.8745
▁flag	-10.8745
ji	-10.8748
▁(10	-10.8748
udi	-10.8753
▁Han	-10.8757
▁collect	-10.8757
rich	-10.8758
arm	-10.8762
▁arch	-10.8763
after	-10.8764
11,	-10.8767
▁Sarah	-10.877
▁exploring	-10.8773
▁experiments	-10.8775
▁tensor	-10.8776
▁football	-10.8779
factor	-10.8782
ination	-10.8782
▁ம	-10.8784
▁Congress	-10.8785
▁2001	-10.8786
▁served	-10.8791
▁DO	-10.8791
▁forced	-10.8792
span	-10.8792
▁thermal	-10.8794
adi	-10.8795
review	-10.8796
{4}	-10.8797
▁Tom	-10.8798
▁becoming	-10.8799
err	-10.8799
edge	-10.8799
sen	-10.8799
த	-10.8801
▁Fa	-10.8803
▁Medical	-10.881
▁raw	-10.8818
▁failed	-10.8821
ु	-10.8822
▁precision	-10.8826
java	-10.8827
hin	-10.8829
▁Jane	-10.8829
used	-10.8831
▁2003	-10.8833
▁2004	-10.8833
▁Mil	-10.8836
▁mixture	-10.8839
Na	-10.8841
site	-10.8842
▁aim	-10.8843
▁($	-10.8844
▁stronger	-10.8846
oid	-10.8846
}^2	-10.8847
UT	-10.8847
Frame	-10.885
crypt	-10.885
yn	-10.8852
120	-10.8855
▁quiet	-10.8858
▁Form	-10.8859
Index	-10.8861
}}}	-10.8864
BA	-10.8864
▁describes	-10.8864
▁emergency	-10.8865
▁extended	-10.8868
2%	-10.8869
▁converted	-10.887
that	-10.8872
~	-10.8872
bel	-10.8877
svg	-10.8877
▁writer	-10.8879
▁environments	-10.888
St	-10.8881
ew	-10.8883
▁authors	-10.8886
ken	-10.8886
▁knew	-10.8889
-05	-10.8891
▁agreement	-10.8895
▁Ge	-10.8895
▁exceeds	-10.8896
}^{	-10.89
star	-10.89
At	-10.89
▁Security	-10.8901
▁maps	-10.8904
2023	-10.8907
▁virus	-10.8908
ulation	-10.891
ope	-10.8913
▁bag	-10.8913
▁craft	-10.8913
rest	-10.8914
▁clubroom	-10.8915
}{5}	-10.8916
}}{2	-10.8917
create	-10.8919
▁broken	-10.892
▁NASA	-10.8925
{1}	-10.8926
▁mark	-10.893
John	-10.8932
3.5	-10.8934
MP	-10.8935
▁president	-10.8936
▁dragon	-10.8942
▁printed	-10.8944
trans	-10.8949
▁subsequence	-10.8949
▁encounter	-10.8951
▁Maria	-10.8952
loss	-10.8952
care	-10.8952
▁Tu	-10.8953
ро	-10.8954
▁Formulate	-10.8954
▁meant	-10.8955
Let	-10.8955
▁muscle	-10.8957
▁stone	-10.896
▁controlled	-10.8964
▁responsibility	-10.8964
▁aid	-10.8965
▁mostly	-10.8971
aya	-10.8971
▁pa	-10.8974
ENT	-10.8977
▁HIV	-10.898
cover	-10.898
▁arithmetic	-10.8981
▁Island	-10.8984
▁connecting	-10.8985
▁boxes	-10.8986
▁kan	-10.8989
▁breast	-10.8991
▁aspect	-10.8992
▁polar	-10.8992
abc	-10.8992
▁interact	-10.8997
lob	-10.8998
▁feelings	-10.9001
▁foundation	-10.9008
TS	-10.9008
7.5	-10.9013
awa	-10.9014
}_3	-10.9017
▁ki	-10.9022
▁serving	-10.9022
▁classification	-10.9022
▁Structure	-10.9024
▁Head	-10.9024
▁eggs	-10.9028
ات	-10.9028
images	-10.9029
▁7:	-10.9031
▁deposit	-10.9032
▁sentiment	-10.9033
▁View	-10.9035
▁Initial	-10.9035
▁references	-10.9038
▁Market	-10.904
▁Council	-10.9041
▁conducted	-10.9042
▁legs	-10.9043
▁savings	-10.9043
▁proportion	-10.9046
▁valuable	-10.9047
▁Country	-10.9047
ect	-10.9047
SD	-10.905
∈	-10.9061
▁cow	-10.9062
▁Points	-10.9064
race	-10.9064
(-\	-10.9066
gt	-10.9068
fr	-10.9069
▁flood	-10.9069
ා	-10.9069
bed	-10.907
▁Old	-10.9072
cases	-10.9073
semantic	-10.9073
▁challenging	-10.9074
▁contribution	-10.9075
FC	-10.9077
ية	-10.9084
▁Texas	-10.9085
▁Tur	-10.9089
ế	-10.9092
▁bus	-10.9092
2024	-10.9094
▁strategic	-10.9096
▁Bio	-10.9097
▁lowest	-10.9098
▁dr	-10.9099
App	-10.9103
Point	-10.9103
ੋ	-10.9108
rey	-10.9108
▁Ph	-10.9109
pic	-10.911
tech	-10.911
▁ion	-10.9112
linear	-10.9112
ME	-10.9113
fit	-10.9113
▁Monday	-10.9118
quar	-10.9118
▁Pe	-10.912
▁subtree	-10.9121
▁Mars	-10.9122
ific	-10.9122
▁Call	-10.9124
ும்	-10.9127
arch	-10.9128
▁exit	-10.9129
ATION	-10.913
▁Ab	-10.9131
▁Gar	-10.9134
ening	-10.9136
▁regardless	-10.9136
▁2]	-10.9136
▁highlights	-10.9137
▁feasible	-10.9138
▁cup	-10.9141
▁simultaneously	-10.9141
▁feels	-10.9147
▁poly	-10.9149
SI	-10.9152
▁-3	-10.9153
axis	-10.9153
▁stem	-10.9154
де	-10.9158
▁subtract	-10.9158
া	-10.9158
▁Run	-10.916
▁Foundation	-10.916
ੰ	-10.9161
▁leg	-10.9161
▁randomly	-10.9161
▁cognitive	-10.9164
PI	-10.917
night	-10.9171
▁suit	-10.9173
_2)	-10.9173
MO	-10.9174
alt	-10.9179
▁substitution	-10.9181
grade	-10.9181
▁Force	-10.9183
▁maintenance	-10.9184
▁46	-10.9184
▁publication	-10.9184
Size	-10.9184
rated	-10.9185
▁establish	-10.9191
▁sex	-10.9191
ket	-10.9197
ं	-10.9199
+\	-10.9202
rant	-10.9206
#`	-10.9207
▁Street	-10.9208
▁cubic	-10.9209
▁centers	-10.9209
Array	-10.9211
dir	-10.9212
▁compounds	-10.9213
▁favor	-10.9216
[2],	-10.9219
},{"	-10.9219
▁modify	-10.922
▁justice	-10.9222
nce	-10.9224
uit	-10.9224
▁Dec	-10.9226
Qu	-10.9229
bat	-10.9229
▁cars	-10.923
▁isolated	-10.9235
▁Wait	-10.9237
▁rank	-10.9237
▁shock	-10.9237
ко	-10.9238
▁Tra	-10.9239
3:	-10.924
▁insert	-10.9241
tur	-10.9242
▁export	-10.9244
▁influenced	-10.9245
cher	-10.9248
▁Kingdom	-10.9248
phone	-10.9252
▁shadow	-10.9253
▁caught	-10.9258
amine	-10.9258
▁File	-10.926
▁fabric	-10.9262
▁syntax	-10.9276
▁|\	-10.9278
▁promoting	-10.9282
00000	-10.9282
▁tissue	-10.9285
▁Point	-10.9285
major	-10.9292
iving	-10.9293
▁Thomas	-10.9294
PC	-10.9296
Product	-10.9298
▁magnitude	-10.93
▁(6	-10.9301
▁Paper	-10.9309
▁estimates	-10.9309
▁Museum	-10.931
▁Ben	-10.9316
▁resolve	-10.9318
б	-10.9318
ré	-10.9319
▁bought	-10.9319
rill	-10.9319
lect	-10.932
▁scan	-10.9321
ு	-10.9328
он	-10.9329
ని	-10.9329
▁disorder	-10.9331
▁tournament	-10.9332
▁recognized	-10.9333
▁lab	-10.9333
▁presentation	-10.9334
^{2	-10.934
asi	-10.9341
▁closely	-10.9343
▁zeros	-10.9344
service	-10.9344
▁Naruto	-10.9345
▁Develop	-10.9347
cate	-10.9348
▁hole	-10.935
---------------	-10.9353
▁Have	-10.9354
▁amplitude	-10.9356
▁infinite	-10.9359
make	-10.9363
▁analytical	-10.9363
▁Ga	-10.9364
▁aware	-10.9367
▁AS	-10.9371
Po	-10.9371
▁Peter	-10.9373
▁vectors	-10.9376
Team	-10.9379
▁Yet	-10.938
ம	-10.938
ok	-10.9381
▁Rate	-10.9381
▁situations	-10.9383
▁collapse	-10.9385
[5])	-10.9385
▁24)	-10.9388
▁marked	-10.9388
125	-10.939
ender	-10.939
▁chronic	-10.9391
she	-10.9393
▁capabilities	-10.9396
eur	-10.94
▁Fire	-10.9401
▁ST	-10.9404
▁entity	-10.9406
▁applying	-10.9407
▁240	-10.9412
▁measurement	-10.9412
▁Current	-10.9413
parts	-10.9413
▁outcome	-10.9415
▁meets	-10.9416
▁sufficient	-10.9417
\%	-10.9417
▁neighborhood	-10.9419
element	-10.9423
ject	-10.9424
▁Land	-10.9424
▁alternate	-10.9425
9}	-10.9428
▁prefer	-10.9428
▁mobile	-10.9429
tz	-10.943
bl	-10.9431
▁institutions	-10.9431
▁expert	-10.9432
▁diagonal	-10.9433
ela	-10.9435
emp	-10.9445
▁floating	-10.9445
▁photos	-10.9449
▁habitat	-10.9449
{6}	-10.945
€	-10.945
II	-10.9451
▁prove	-10.9452
▁Grand	-10.9454
▁Lake	-10.9454
▁sink	-10.9455
▁artificial	-10.9458
▁produces	-10.9464
iva	-10.9468
rim	-10.9468
ike	-10.9469
▁collaboration	-10.9471
▁orange	-10.9473
gue	-10.9476
▁(13,	-10.9477
▁fictional	-10.9477
▁moments	-10.9478
▁50%	-10.9478
▁trouble	-10.9482
▁Ly	-10.9483
го	-10.9483
▁asking	-10.9485
ки	-10.9488
otic	-10.9489
▁"1	-10.949
▁meetings	-10.9493
een	-10.9494
ese	-10.9498
tune	-10.9498
ُ	-10.95
ا	-10.9504
150	-10.9505
▁bone	-10.9507
PO	-10.9509
▁dan	-10.9511
ora	-10.9513
▁beneath	-10.9517
▁lift	-10.9517
0.1	-10.9517
▁validation	-10.9521
▁faces	-10.9522
▁hash	-10.9525
▁Jesus	-10.9529
▁Furthermore	-10.9529
^{-0.1	-10.9529
▁reader	-10.9533
▁threat	-10.9533
▁ignore	-10.9533
ị	-10.9535
odd	-10.9535
▁Si	-10.9537
▁coloring	-10.954
zy	-10.9542
▁believed	-10.9542
IM	-10.9543
▁**4.	-10.9547
ந்த	-10.9548
▁lived	-10.9549
▁Media	-10.955
option	-10.9551
▁kick	-10.9554
▁Multiply	-10.9558
▁template	-10.9559
▁android	-10.956
мен	-10.9562
▁magical	-10.9562
▁appreciate	-10.9563
▁equally	-10.9565
neq	-10.9565
▁transactions	-10.9567
your	-10.9568
uni	-10.9571
▁tracks	-10.9575
▁concert	-10.9575
▁tank	-10.9579
▁methyl	-10.9581
▁adjacency	-10.9581
▁confusion	-10.9582
zo	-10.9583
ral	-10.9583
250	-10.9588
▁vitamin	-10.9593
▁gently	-10.9593
▁weekly	-10.9593
▁grant	-10.9594
▁worse	-10.9594
▁careful	-10.9595
/4	-10.9596
▁experimental	-10.9597
▁episodes	-10.9597
▁coverage	-10.9599
▁teeth	-10.9599
▁о	-10.96
▁transformed	-10.9603
▁directions	-10.9604
_1)	-10.9608
}",	-10.9609
There	-10.961
▁periodic	-10.9611
sia	-10.9612
▁entropy	-10.9612
▁5%	-10.9612
▁paragraph	-10.9616
▁smart	-10.9617
(4	-10.9617
▁Such	-10.9617
gun	-10.9618
▁statistical	-10.9618
och	-10.9625
▁decade	-10.9625
▁crossing	-10.9626
ار	-10.9627
▁arises	-10.9628
▁jump	-10.9629
▁Study	-10.9632
▁vital	-10.9633
▁1;	-10.9633
1.2	-10.9635
ench	-10.9637
▁Hol	-10.9638
గ	-10.9639
▁periods	-10.964
▁performing	-10.9642
▁enable	-10.9644
Width	-10.9646
aki	-10.9649
▁naturally	-10.9649
▁improving	-10.9652
▁nitrogen	-10.9652
▁Without	-10.9652
▁couldn	-10.9656
xi	-10.9662
▁Professor	-10.9663
▁Finding	-10.9665
▁specify	-10.9672
random	-10.9673
▁Cloud	-10.9673
▁album	-10.9674
▁dimension	-10.9675
▁honor	-10.9675
▁grass	-10.9678
▁Instagram	-10.9678
▁frequencies	-10.9678
ras	-10.9681
▁ahead	-10.9681
▁ẹ	-10.9685
▁regulations	-10.9686
ан	-10.969
▁electricity	-10.9692
lia	-10.9693
ल	-10.9693
▁police	-10.9693
▁26)	-10.9694
▁Ava	-10.9694
task	-10.9698
▁thin	-10.9704
▁Fish	-10.9705
▁gr	-10.971
▁advance	-10.971
oul	-10.971
▁gift	-10.9712
▁About	-10.9712
▁1200	-10.9713
apple	-10.9715
▁Sometimes	-10.9715
rist	-10.9716
▁interpretation	-10.9722
ving	-10.9723
track	-10.9724
try	-10.9726
▁blog	-10.9726
▁Price	-10.9731
▁Queen	-10.9732
ப்ப	-10.9733
▁subarray	-10.9733
ө	-10.9734
ત	-10.9736
▁struggle	-10.9737
ney	-10.9739
▁Quantum	-10.9739
{30}	-10.974
iter	-10.974
▁Cho	-10.9742
▁mm	-10.9742
away	-10.9743
▁الم	-10.9743
▁artists	-10.9743
project	-10.9744
▁introduce	-10.9746
final	-10.9746
த்த	-10.9751
▁followers	-10.9752
found	-10.9753
ret	-10.9757
▁statements	-10.9762
▁mountain	-10.9763
▁USA	-10.9763
lide	-10.9764
▁anxiety	-10.9764
▁2002	-10.9764
▁buffer	-10.977
▁computation	-10.9771
▁Mass	-10.9774
books	-10.9778
▁listen	-10.9778
▁commitment	-10.9778
▁episode	-10.978
CI	-10.978
End	-10.9781
▁firm	-10.9783
▁"{\	-10.9784
▁payment	-10.9785
▁вы	-10.9785
RC	-10.9793
sign	-10.9793
व	-10.9793
▁neural	-10.9794
update	-10.9794
▁contained	-10.9795
▁biological	-10.9795
*:	-10.9796
▁Microsoft	-10.9796
:*	-10.9797
▁satellite	-10.98
Dis	-10.9802
▁golden	-10.9803
▁genre	-10.9807
▁san	-10.9809
900	-10.9809
`:	-10.9811
▁prev	-10.9813
లు	-10.9814
ర్	-10.9819
▁Retrieved	-10.9826
▁Windows	-10.9828
▁beauty	-10.983
▁ச	-10.9839
▁trail	-10.9842
▁24.	-10.9842
AND	-10.9844
iti	-10.9847
OT	-10.9849
▁danger	-10.9855
▁Je	-10.9858
▁immune	-10.986
RS	-10.9862
▁1980	-10.9863
▁guaranteed	-10.9868
▁expenses	-10.9868
Or	-10.9871
”)	-10.9872
▁Multi	-10.9874
▁Wall	-10.9875
▁Pet	-10.9875
ld	-10.9882
▁entailed	-10.9884
▁Through	-10.9889
grad	-10.9891
▁Middle	-10.9893
role	-10.9895
▁permission	-10.9896
pair	-10.9897
cia	-10.9901
▁respective	-10.9901
▁crack	-10.9901
▁shot	-10.991
▁shifts	-10.9912
▁storm	-10.9913
▁conference	-10.9914
ీ	-10.9917
▁relations	-10.9917
TER	-10.9921
▁parse	-10.9921
5000	-10.9922
▁po	-10.9923
▁Low	-10.9926
▁recognition	-10.9926
▁Cur	-10.9926
ிய	-10.9927
▁Text	-10.9927
▁Machine	-10.9935
By	-10.9936
▁dogs	-10.9939
▁neutral	-10.994
ен	-10.9941
▁highlight	-10.9944
▁returning	-10.9945
▁execution	-10.9948
ici	-10.9949
▁supplement	-10.995
▁Three	-10.9953
▁zone	-10.9955
▁numerous	-10.9956
▁forecast	-10.9958
▁comm	-10.9959
▁examine	-10.996
pon	-10.9961
del	-10.9965
▁offset	-10.9968
一	-10.9968
▁palindromic	-10.9969
{1}{3}	-10.9976
▁themes	-10.9977
ida	-10.9978
▁duplicates	-10.9979
▁fulfill	-10.9979
▁chi	-10.9987
▁sitting	-10.9988
▁observer	-10.9989
east	-10.9989
sch	-10.9991
Inter	-10.9992
BC	-10.9992
和	-10.9993
cyclo	-10.9994
counts	-10.9996
▁vol	-10.9997
With	-10.9998
▁Vol	-10.9998
▁eliminate	-11
Se	-11.0003
▁த	-11.0005
▁animation	-11.0005
▁bitwise	-11.0006
seq	-11.0006
▁extensive	-11.0007
ض	-11.0008
▁transportation	-11.0009
/1	-11.0009
▁realize	-11.001
▁warning	-11.0014
▁deeply	-11.0017
Node	-11.0018
▁Hy	-11.0019
▁Average	-11.0022
▁delete	-11.0022
▁Mexico	-11.0023
▁spectrum	-11.0023
CT	-11.0025
iya	-11.0034
▁أ	-11.0034
=“	-11.0035
minute	-11.0036
loc	-11.0038
▁lights	-11.0039
acy	-11.0039
▁exploration	-11.0042
elle	-11.0043
section	-11.0044
known	-11.005
▁heap	-11.0056
▁debate	-11.0057
▁partner	-11.0059
_1}	-11.0062
在	-11.0065
ь	-11.0066
Gamma	-11.0072
Is	-11.0073
▁surgery	-11.0079
▁attempts	-11.008
▁95	-11.0081
eq	-11.0081
▁falls	-11.0082
▁coast	-11.0085
▁trick	-11.0085
▁Min	-11.0087
8%	-11.0088
▁repair	-11.0089
і	-11.0089
▁motor	-11.009
▁silver	-11.0091
ె	-11.0094
▁university	-11.0097
▁bullet	-11.0098
ali	-11.0099
▁wearing	-11.0099
▁ا	-11.01
_2}	-11.0101
ரு	-11.0101
▁25.	-11.0101
▁survival	-11.0103
▁collections	-11.0105
▁Cross	-11.0108
qr	-11.0108
▁crystal	-11.0109
256	-11.0109
▁apart	-11.0111
gent	-11.0114
▁Mc	-11.0114
▁festival	-11.0115
▁lock	-11.0116
▁earnings	-11.0117
EP	-11.0121
▁chat	-11.0121
▁Anti	-11.0123
ि	-11.0126
▁markdown	-11.0128
▁validate	-11.013
▁entered	-11.0133
▁recommendations	-11.0134
vy	-11.0135
category	-11.0135
▁Ver	-11.0136
`)	-11.0137
▁proteins	-11.014
-1]	-11.014
ii	-11.0141
டு	-11.0144
▁ongoing	-11.0147
=3,	-11.0148
▁අ	-11.015
▁stroke	-11.0151
eval	-11.0157
▁managed	-11.0159
▁trend	-11.0162
▁preserve	-11.0163
ோ	-11.0164
▁moles	-11.0166
lem	-11.0166
flu	-11.0169
bro	-11.0171
OM	-11.0172
0.7	-11.0173
gy	-11.0175
▁bottle	-11.0176
DR	-11.018
ов	-11.018
4,5	-11.018
▁Simplifying	-11.018
▁district	-11.0182
▁appeal	-11.0183
▁для	-11.0183
PR	-11.0184
Lambda	-11.0185
filter	-11.0185
▁strike	-11.0187
▁helped	-11.0193
person	-11.0193
without	-11.0197
▁doubt	-11.0198
▁impacts	-11.0198
▁Ru	-11.0198
▁seemed	-11.0199
Window	-11.02
...)	-11.0205
mathrm	-11.0208
▁Probability	-11.021
ු	-11.021
lang	-11.0211
ste	-11.0213
bor	-11.0215
-7	-11.0216
▁reversed	-11.0217
▁Distance	-11.022
▁procedures	-11.0223
mann	-11.0223
α	-11.0225
те	-11.0227
▁tailored	-11.0228
▁winning	-11.0229
Di	-11.0231
▁Teacher	-11.0233
▁Play	-11.0235
[3]=1	-11.0237
▁respectful	-11.0237
▁ந	-11.0238
sha	-11.0238
▁Civil	-11.0239
▁psychological	-11.0239
12,	-11.0244
pet	-11.0245
▁simplifies	-11.0246
▁businesses	-11.0246
izer	-11.0247
▁normally	-11.0247
▁Source	-11.0248
En	-11.0248
ਗ	-11.0251
▁calculating	-11.0252
▁fund	-11.0254
▁contributes	-11.0258
▁suggested	-11.0258
Client	-11.026
▁Access	-11.0261
▁clarity	-11.0264
▁Look	-11.0264
Yeah	-11.0265
▁Jewelry	-11.0271
▁span	-11.0274
▁predicted	-11.0275
▁combat	-11.0281
vector	-11.0282
dist	-11.0282
▁injury	-11.0283
000000	-11.0284
RI	-11.0284
క	-11.0286
▁Ring	-11.0286
▁moderate	-11.0287
▁weekend	-11.029
▁Practice	-11.029
timestamp	-11.0293
▁mol	-11.0293
▁introduction	-11.0294
ties	-11.0294
abs	-11.0294
Path	-11.0296
▁taste	-11.0301
▁burn	-11.0303
berg	-11.0306
▁Library	-11.0308
▁probabilities	-11.0308
Use	-11.031
▁producing	-11.0312
▁mg	-11.0316
fill	-11.0317
▁assess	-11.0319
▁perimeter	-11.032
logy	-11.032
speed	-11.0321
▁neither	-11.0324
▁remainder	-11.0325
▁passing	-11.0325
▁aims	-11.0326
▁abuse	-11.0327
2`	-11.0327
▁adventure	-11.0328
oop	-11.0328
_0}	-11.0332
▁3000	-11.0332
▁Soviet	-11.0336
RT	-11.0336
▁plastic	-11.0339
ites	-11.0339
eck	-11.0339
▁titles	-11.034
vertex	-11.034
▁strongly	-11.0343
▁weighted	-11.0346
▁organized	-11.0347
force	-11.0352
▁approximation	-11.0352
NE	-11.0355
tics	-11.0355
ਾਂ	-11.0356
▁MA	-11.0358
▁tu	-11.0359
▁narrow	-11.0363
▁tradition	-11.0365
Var	-11.0366
▁Ber	-11.0366
▁bias	-11.0368
▁mechanical	-11.0369
▁dates	-11.0369
cis	-11.037
▁automatically	-11.0372
UL	-11.0373
▁whom	-11.0374
్	-11.0376
etic	-11.0377
Omega	-11.0378
inal	-11.038
▁fashion	-11.0381
▁facts	-11.0382
▁relief	-11.0384
▁pretty	-11.0384
▁ordered	-11.0385
▁brings	-11.0385
▁paint	-11.0388
▁breathing	-11.0388
▁panel	-11.0389
TO	-11.039
▁Te	-11.0391
mph	-11.0391
க்	-11.0392
▁seed	-11.0393
▁perfectly	-11.0394
3-	-11.0396
▁instruction	-11.0398
▁rooms	-11.0398
lad	-11.04
▁(1,2)	-11.04
hood	-11.0402
▁agency	-11.0403
▁dust	-11.0406
▁Gi	-11.0406
Class	-11.0409
▁preparation	-11.0409
▁supplies	-11.0409
▁entities	-11.0409
Mar	-11.041
GA	-11.041
▁SVG	-11.0416
▁logical	-11.0416
▁facing	-11.0419
0]	-11.0419
store	-11.042
ALL	-11.0421
▁Students	-11.0421
ö	-11.0423
ها	-11.0425
▁discussions	-11.0426
▁exposed	-11.0426
▁seeds	-11.0426
+6	-11.0429
DA	-11.0432
▁depression	-11.0436
kọ	-11.0439
▁scar	-11.044
"/>	-11.044
▁pin	-11.044
▁measurements	-11.044
▁finite	-11.044
ി	-11.0441
▁78	-11.0443
▁0.03	-11.0444
▁theorem	-11.0448
▁vehicles	-11.045
Model	-11.0452
BS	-11.0453
iga	-11.0459
▁genes	-11.046
fall	-11.0463
rag	-11.0463
(7)	-11.0465
}_{\	-11.0467
ogen	-11.0472
▁Examples	-11.0473
ਹ	-11.0473
rows	-11.0476
▁sight	-11.0476
▁lake	-11.0479
push	-11.0481
▁participate	-11.0488
▁rational	-11.0488
▁(14,	-11.0489
▁communicate	-11.0492
▁orbital	-11.0493
▁shares	-11.0498
▁grows	-11.0499
_{10}	-11.0499
▁gone	-11.05
▁managing	-11.05
cut	-11.0502
án	-11.0502
▁appeared	-11.0505
▁2^	-11.0506
▁parties	-11.0506
ન	-11.0508
▁Forest	-11.0511
▁brackets	-11.0513
▁cash	-11.0514
▁satisfying	-11.0514
▁electrical	-11.0516
▁CSS	-11.0516
second	-11.0517
▁offered	-11.0524
▁(“	-11.0524
Bo	-11.0525
▁Mag	-11.0525
▁saved	-11.0526
▁artwork	-11.0526
▁immediate	-11.0527
ury	-11.0528
▁في	-11.0529
CL	-11.053
rel	-11.0534
▁contiguous	-11.0536
▁tries	-11.0536
duct	-11.0536
region	-11.0546
▁Base	-11.055
initial	-11.0552
}]	-11.0554
▁ride	-11.0555
bus	-11.0555
eh	-11.0557
▁Bur	-11.0557
▁wife	-11.0557
▁simplify	-11.0559
▁breaking	-11.0563
▁Charles	-11.0563
▁stuff	-11.0564
▁meat	-11.0566
▁compliance	-11.057
▁Lee	-11.0572
teen	-11.0575
ford	-11.0576
▁reflects	-11.0576
positive	-11.0577
▁guard	-11.0577
▁url	-11.0578
▁Chapter	-11.0579
▁meal	-11.0581
Event	-11.0582
▁transmission	-11.0582
alo	-11.0583
▁una	-11.0585
▁Environmental	-11.0585
▁intense	-11.0586
inner	-11.0586
▁28.	-11.0589
-08	-11.059
unk	-11.0591
▁Link	-11.0591
▁selling	-11.0592
▁salary	-11.0593
▁remained	-11.0594
▁Modern	-11.0594
ле	-11.0595
▁removal	-11.0595
fra	-11.0599
wan	-11.06
▁ਹੈ	-11.0601
▁Gift	-11.0602
tile	-11.0603
▁tight	-11.0603
▁ret	-11.0603
▁pregnant	-11.0608
Hey	-11.0608
▁username	-11.0609
has	-11.0609
▁tour	-11.061
▁Help	-11.061
▁affects	-11.0611
▁drawn	-11.0613
▁union	-11.0617
quality	-11.0617
---------------|	-11.0619
▁plate	-11.0619
▁pan	-11.0619
▁solved	-11.0623
▁Henry	-11.0626
▁ن	-11.0627
rib	-11.063
ਣ	-11.063
▁teach	-11.0633
▁substance	-11.0634
▁emotions	-11.0637
▁Theory	-11.064
[6])	-11.0643
▁vote	-11.0643
{8	-11.0644
Form	-11.0644
▁editor	-11.0647
▁investigation	-11.0647
▁hall	-11.0647
how	-11.0648
Book	-11.065
tant	-11.065
▁excited	-11.065
▁99	-11.0651
▁kill	-11.0656
▁experts	-11.0658
▁frequent	-11.066
▁hotel	-11.0665
▁ingredients	-11.0666
▁gather	-11.0669
▁supposed	-11.0672
ద	-11.0676
remove	-11.0677
aff	-11.0678
▁ప	-11.0678
witch	-11.0679
▁matrices	-11.0679
gh	-11.0681
▁segments	-11.0685
▁tag	-11.0687
▁sha	-11.0687
▁amazing	-11.0692
▁incorrect	-11.0694
▁29)	-11.0694
▁Place	-11.0695
▁maximizes	-11.0696
hello	-11.07
▁markets	-11.0702
Check	-11.0703
uch	-11.0703
▁chemistry	-11.0704
▁Ag	-11.0705
what	-11.0706
▁usual	-11.0706
▁covering	-11.0711
▁giant	-11.0711
110	-11.0713
OL	-11.0713
driven	-11.0713
▁accident	-11.0718
anti	-11.0721
ст	-11.0722
▁Jews	-11.0723
▁sn	-11.0723
▁enabling	-11.0725
▁`3`	-11.0726
ин	-11.0727
15,	-11.0727
ession	-11.0728
mean	-11.0728
▁lst	-11.0731
»	-11.0732
▁(\(\	-11.0733
▁throw	-11.0733
▁hurt	-11.0733
▁outputs	-11.0735
▁channels	-11.0737
▁judge	-11.074
[-1]	-11.074
▁quote	-11.0741
▁DE	-11.0742
Ka	-11.0742
van	-11.0742
ink	-11.0744
▁Natural	-11.0746
▁pour	-11.0746
▁merged	-11.0748
▁crop	-11.0749
▁motivation	-11.075
▁nice	-11.0751
▁Francisco	-11.0752
character	-11.0755
avg	-11.0756
▁-->	-11.0756
▁acting	-11.076
▁centuries	-11.0765
▁pregnancy	-11.0765
▁browser	-11.0765
til	-11.0771
▁association	-11.0771
lets	-11.0774
display	-11.0775
rick	-11.0775
▁explained	-11.0778
▁charged	-11.078
atic	-11.078
▁$10	-11.0781
▁rural	-11.0781
genre	-11.0783
write	-11.0784
غ	-11.0784
▁1):	-11.0785
▁Care	-11.0786
▁spending	-11.0787
ago	-11.0788
▁faith	-11.0789
خ	-11.079
ement	-11.0795
▁sensitivity	-11.0798
▁multiplication	-11.0798
50.	-11.0804
▁[5,	-11.0808
▁internet	-11.0808
▁unchanged	-11.0811
▁stated	-11.0815
EE	-11.0818
▁sheet	-11.0821
▁append	-11.0821
▁mar	-11.0821
photo	-11.0827
▁Friday	-11.0828
▁Planet	-11.0829
ried	-11.0832
▁63	-11.0832
}{6}\	-11.0834
}^	-11.0835
ators	-11.0836
shift	-11.0837
ifying	-11.084
server	-11.0841
▁logarithm	-11.0842
▁accepted	-11.0843
▁choosing	-11.0844
round	-11.0844
म	-11.0845
▁noted	-11.0849
▁Medicine	-11.085
▁limitations	-11.0851
▁Graph	-11.0852
ক	-11.0853
▁Guide	-11.0853
ering	-11.0856
2024-05	-11.0857
aq	-11.0859
789	-11.086
▁metrics	-11.086
▁citizens	-11.0861
▁வ	-11.0863
|1	-11.0865
gel	-11.0867
ே	-11.0873
▁0.15	-11.0874
▁Correct	-11.0877
▁discovery	-11.0878
▁exception	-11.0878
–8	-11.0879
▁tower	-11.088
▁plain	-11.0882
▁interview	-11.0882
ê	-11.0883
center	-11.0883
▁reliable	-11.0884
password	-11.0885
▁versions	-11.0885
_6	-11.089
▁prioritize	-11.089
→5	-11.0892
ү	-11.0892
▁implemented	-11.0893
మ	-11.0894
▁ਦੇ	-11.0897
4.5	-11.0899
▁Jack	-11.0902
°	-11.0904
+1]	-11.0904
▁ne	-11.0905
▁progression	-11.0905
▁codes	-11.0905
▁signature	-11.0909
▁traversal	-11.091
gr	-11.091
▁consciousness	-11.0911
▁adopt	-11.0916
bot	-11.0916
▁Russia	-11.0918
▁inflation	-11.0918
▁variations	-11.0919
▁threats	-11.0926
apping	-11.0927
format	-11.0928
▁decline	-11.093
▁Full	-11.093
Gu	-11.093
Ro	-11.0931
▁Dog	-11.0933
▁(15,	-11.0934
▁roll	-11.0935
Car	-11.0936
}]}}	-11.0937
▁Error	-11.0937
▁courses	-11.0938
▁Ocean	-11.0939
▁Moon	-11.094
്	-11.0941
ush	-11.0942
▁fail	-11.0945
▁noticed	-11.0946
బ	-11.095
ched	-11.095
▁seat	-11.0952
▁Heart	-11.0955
uh	-11.0957
=12	-11.0961
▁Action	-11.0963
▁retrieved	-11.0963
▁integrity	-11.0964
▁spiritual	-11.0965
cot	-11.0969
▁datasets	-11.097
process	-11.0971
▁Sur	-11.0972
fu	-11.0974
▁meaningful	-11.0976
ui	-11.0976
▁filtered	-11.0979
Position	-11.098
EM	-11.0981
xy	-11.0981
▁Special	-11.0982
▁26.	-11.0985
8.5	-11.0989
Create	-11.0989
▁hybrid	-11.099
▁driver	-11.0991
pass	-11.0993
ulate	-11.0995
isation	-11.1003
▁interests	-11.1003
[0]=1	-11.1003
▁crisis	-11.1004
▁Italian	-11.1004
▁emerge	-11.1006
▁passengers	-11.1009
્	-11.101
▁Always	-11.1012
▁Mean	-11.1012
\\	-11.1013
aligned	-11.1015
▁leap	-11.1015
▁consistency	-11.1018
не	-11.1018
▁Pos	-11.1021
▁productivity	-11.1021
▁distant	-11.1021
lateral	-11.1022
▁ISBN	-11.1022
▁vowels	-11.1024
▁transformations	-11.1027
▁nano	-11.1027
▁west	-11.1028
Title	-11.1028
▁intake	-11.1029
▁opponent	-11.1031
不	-11.1031
bc	-11.1031
▁mutual	-11.1032
MI	-11.1033
▁theme	-11.1035
ග	-11.1035
▁Commission	-11.1038
3%	-11.104
தி	-11.104
They	-11.1041
▁Child	-11.1043
▁designs	-11.1044
But	-11.1044
▁separation	-11.1045
▁radical	-11.1045
ifies	-11.1046
carbon	-11.1049
▁originally	-11.1056
▁priority	-11.1056
▁trained	-11.1058
▁diagnosis	-11.1058
▁directory	-11.1059
▁intervention	-11.106
▁clarify	-11.1065
▁arbitrary	-11.1065
▁Method	-11.1066
▁explains	-11.1068
chu	-11.1069
6%	-11.107
▁2-	-11.1073
▁terminal	-11.1073
iness	-11.1074
▁medication	-11.1076
ப்	-11.1079
▁Build	-11.108
▁Maximum	-11.108
▁seeing	-11.1081
▁Length	-11.1082
▁من	-11.1082
▁activation	-11.1083
▁characteristic	-11.1084
stream	-11.1084
duration	-11.1085
▁Luna	-11.1085
sample	-11.1087
▁Angeles	-11.1088
स	-11.109
▁Op	-11.109
▁slope	-11.1092
▁Night	-11.1094
▁ප	-11.1095
sql	-11.1097
directed	-11.1098
8.8	-11.1099
▁Ser	-11.1099
Code	-11.1101
▁workshops	-11.1102
▁election	-11.1102
▁possibility	-11.1106
▁battery	-11.1113
tel	-11.1113
DI	-11.1115
द	-11.1119
▁Club	-11.112
▁2.0	-11.1121
)`,	-11.1122
▁Hill	-11.1123
▁Basic	-11.1124
Area	-11.1127
▁Gold	-11.1129
▁29.	-11.113
▁east	-11.1131
▁van	-11.1132
▁allocated	-11.1133
▁resilience	-11.1133
▁satisfaction	-11.1133
▁hundred	-11.1136
than	-11.1138
▁difficulty	-11.1145
▁enemy	-11.1147
▁concerned	-11.1147
▁regional	-11.1148
cade	-11.1151
▁tickets	-11.1153
▁participant	-11.1155
▁proof	-11.1155
ෙ	-11.1157
▁100%	-11.1157
cast	-11.1158
▁myself	-11.1158
▁Mountain	-11.116
▁96	-11.1161
[10]	-11.1161
=[	-11.1162
▁1999	-11.1162
watch	-11.1162
▁sizes	-11.1163
▁historian	-11.1167
▁voltage	-11.1167
dra	-11.1168
hen	-11.1172
friendly	-11.1174
▁residents	-11.1176
▁perception	-11.1178
5,000	-11.1178
▁Short	-11.1178
▁cho	-11.1179
-11	-11.118
▁domestic	-11.1181
▁demonstrate	-11.1182
▁protected	-11.1183
click	-11.1187
PE	-11.1187
Ra	-11.1187
{6	-11.1187
pul	-11.1191
▁rose	-11.1193
い	-11.1194
▁Catholic	-11.1195
▁extent	-11.1195
▁fiber	-11.1197
▁chair	-11.1198
▁Setting	-11.12
▁unable	-11.12
ث	-11.1201
pin	-11.1201
▁stomach	-11.1201
▁Index	-11.1203
▁computed	-11.1203
▁Large	-11.1209
ien	-11.121
Box	-11.1211
▁Republic	-11.1211
▁incident	-11.1212
▁alert	-11.1213
▁Tesla	-11.1215
▁southern	-11.1216
▁disc	-11.1216
▁dress	-11.122
NG	-11.1221
▁Med	-11.1223
▁vegetables	-11.1224
▁Early	-11.1228
green	-11.1229
▁boat	-11.1229
oun	-11.1229
▁cluster	-11.123
lid	-11.1231
▁Position	-11.1233
▁readers	-11.1235
uri	-11.1236
▁composed	-11.1236
▁Shi	-11.1237
▁Avoid	-11.1238
asa	-11.1238
▁combine	-11.1238
▁Process	-11.124
▁belief	-11.1241
▁Win	-11.1244
▁addressing	-11.1252
â	-11.1253
▁Services	-11.1255
▁Rule	-11.1255
▁spell	-11.1257
▁ஆ	-11.1257
▁Director	-11.1257
▁disaster	-11.1257
▁ga	-11.1264
▁hence	-11.1266
child	-11.1267
▁underlying	-11.1271
lop	-11.1271
▁subjects	-11.1272
▁Dragon	-11.1273
▁attribute	-11.1273
▁League	-11.1274
ipping	-11.1274
▁deg	-11.1275
有	-11.1277
ో	-11.1279
▁dia	-11.128
=1:	-11.128
complete	-11.1282
▁mag	-11.1283
▁portfolio	-11.1284
▁northern	-11.1285
▁kinetic	-11.1291
▁cumulative	-11.1292
▁observations	-11.1296
hours	-11.1296
▁lone	-11.1297
▁grab	-11.1298
die	-11.13
-1,	-11.13
0.05	-11.1301
▁endpoints	-11.1302
SH	-11.1302
▁Right	-11.1303
▁Chain	-11.1303
▁consumer	-11.1306
obj	-11.1309
▁Sal	-11.131
Net	-11.1311
▁28)	-11.1315
▁ਪ	-11.1316
2",	-11.1318
િ	-11.1319
band	-11.1319
omic	-11.1323
ં	-11.1324
zu	-11.1324
▁acids	-11.1325
▁3.5	-11.1326
▁curious	-11.1327
Th	-11.1327
▁thread	-11.1328
ô	-11.1332
▁Split	-11.1333
(5	-11.1335
▁8:	-11.1337
Table	-11.1339
-09-	-11.1339
▁insurance	-11.134
▁chaos	-11.134
Ch	-11.1341
▁accessible	-11.1343
fo	-11.1345
Sayori	-11.1345
▁philosophy	-11.1347
omb	-11.1347
une	-11.1347
▁unexpected	-11.1355
▁scenes	-11.1359
Arnold	-11.1359
inf	-11.136
CE	-11.1362
IA	-11.1363
aria	-11.1363
▁bike	-11.1366
▁discipline	-11.1367
▁nurse	-11.1367
▁talent	-11.1368
arc	-11.1371
^6	-11.1371
▁gun	-11.1379
▁est	-11.1381
▁horizon	-11.1381
▁unusual	-11.1381
▁Studies	-11.1382
▁Impact	-11.1385
7%	-11.1385
{1}{4}	-11.1386
▁realm	-11.1386
▁nations	-11.1387
▁officials	-11.1389
▁Music	-11.1389
rine	-11.139
▁soldiers	-11.139
Device	-11.1394
morph	-11.1394
▁Mary	-11.1394
ract	-11.1396
▁flavor	-11.1396
▁Adding	-11.1397
▁referred	-11.1397
▁-=	-11.1398
Request	-11.14
TE	-11.1401
sky	-11.1403
▁creativity	-11.1403
ook	-11.1404
▁increasingly	-11.1404
▁د	-11.1405
ising	-11.1407
/\	-11.1409
▁preparing	-11.141
Object	-11.141
▁describing	-11.141
▁bear	-11.1413
▁occurrence	-11.1414
-02	-11.1414
hard	-11.1415
▁generator	-11.1417
▁Pacific	-11.1417
dent	-11.1418
ori	-11.1418
▁universal	-11.1421
▁fighting	-11.1421
=11	-11.1423
▁rewrite	-11.1423
pat	-11.1424
▁predictions	-11.143
▁facilities	-11.1431
▁от	-11.1431
▁ਕ	-11.1432
▁Spring	-11.1435
▁Va	-11.1437
}_{	-11.1438
ester	-11.1438
▁arts	-11.1442
▁musical	-11.1446
▁360	-11.1446
▁IS	-11.1449
bf	-11.145
▁0.75	-11.145
▁younger	-11.1453
ения	-11.1455
▁largely	-11.1459
▁wealth	-11.146
▁GPT	-11.1463
▁Canadian	-11.1466
▁intricate	-11.1466
ural	-11.1466
▁rounded	-11.1466
drop	-11.1468
▁carbonyl	-11.1469
▁ra	-11.1469
▁critic	-11.1473
に	-11.148
▁absence	-11.1481
▁observation	-11.1483
▁confirms	-11.1483
▁fossil	-11.1487
ico	-11.149
ැ	-11.149
▁nervous	-11.149
▁tons	-11.1491
HO	-11.1491
▁fans	-11.1494
▁Business	-11.1494
▁Identify	-11.1496
▁Edge	-11.15
nom	-11.1503
▁Moreover	-11.1503
▁reaching	-11.1506
erry	-11.1506
▁os	-11.1507
▁foster	-11.1509
ు	-11.1509
▁Initially	-11.1514
session	-11.1518
▁Che	-11.1518
▁comfortable	-11.1519
▁Love	-11.152
▁stations	-11.152
lac	-11.152
Can	-11.152
▁guarantee	-11.152
hop	-11.1522
Don	-11.1523
{7	-11.1529
▁Volume	-11.153
▁Construct	-11.153
fire	-11.153
▁25%	-11.1531
bert	-11.1532
csv	-11.1532
▁ක	-11.1538
20,	-11.1538
}{2}\	-11.1539
web	-11.1539
ون	-11.1544
far	-11.1544
▁ش	-11.1545
▁Region	-11.1545
GE	-11.1546
▁outer	-11.1546
*)	-11.1546
ways	-11.1547
▁30%	-11.1548
▁ní	-11.1549
▁survive	-11.1549
▁Explain	-11.1551
▁youth	-11.1552
▁Bel	-11.1553
▁Lilac	-11.1553
▁happening	-11.1554
▁27.	-11.1554
▁facilitate	-11.1558
Top	-11.1562
▁panels	-11.1563
▁binding	-11.1566
▁designer	-11.1566
▁meter	-11.1567
▁Army	-11.1568
▁integrated	-11.1569
▁£	-11.1575
GO	-11.1576
▁surprise	-11.1577
▁tab	-11.1578
▁Hz	-11.1578
▁expensive	-11.1579
▁agencies	-11.158
-9	-11.1584
/5	-11.1584
▁Ti	-11.1585
▁asks	-11.1586
▁navigate	-11.1587
(8)	-11.1588
▁independence	-11.1592
▁disk	-11.1593
▁sat	-11.1595
market	-11.1596
math	-11.1599
1%	-11.1603
▁Dia	-11.1603
ку	-11.1609
▁scientist	-11.1613
▁Video	-11.1615
▁ages	-11.1616
▁Remaining	-11.1617
▁installed	-11.1617
▁maximized	-11.1618
▁pur	-11.1618
▁'0'	-11.1619
▁photon	-11.1621
▁welcome	-11.1622
▁optional	-11.1625
▁Root	-11.163
onym	-11.164
▁millions	-11.164
▁hits	-11.164
▁shirt	-11.1642
▁Future	-11.1643
▁conventional	-11.1643
tens	-11.1644
▁steel	-11.1644
▁silent	-11.1646
▁స	-11.1646
▁fiction	-11.1647
▁pH	-11.165
▁criminal	-11.1651
▁Federal	-11.1651
▁Auto	-11.1652
pers	-11.1654
uv	-11.1655
▁ban	-11.1658
▁generating	-11.1659
▁poem	-11.1663
}_4	-11.1663
▁loan	-11.1665
▁orientation	-11.1666
lier	-11.1666
▁apples	-11.1667
▁childhood	-11.1668
▁alien	-11.1669
▁cups	-11.167
▁spanning	-11.167
▁rising	-11.1671
▁Level	-11.1672
▁broader	-11.1673
▁CD	-11.1678
▁invest	-11.1678
▁53	-11.1679
▁detected	-11.168
▁minimizing	-11.168
ور	-11.1682
▁hat	-11.1682
Pre	-11.1683
▁Mad	-11.1683
kh	-11.1685
ند	-11.1689
▁angles	-11.1693
▁58	-11.1695
▁2025	-11.1698
▁Jan	-11.1699
を	-11.1702
efficient	-11.1702
ூ	-11.1704
▁treatments	-11.1708
▁pump	-11.1709
lab	-11.1712
▁whatever	-11.1713
lf	-11.1713
[7])	-11.1715
▁Cons	-11.1715
▁Revolution	-11.1718
▁fell	-11.1718
▁render	-11.1719
▁fee	-11.1719
iling	-11.1721
TSLA	-11.1724
▁serves	-11.1726
▁Economic	-11.1726
▁Nor	-11.1726
▁Ku	-11.1726
▁Visual	-11.1727
▁а	-11.1727
strong	-11.1728
anda	-11.1728
nel	-11.1729
ā	-11.173
▁instances	-11.1731
quit	-11.1732
ivo	-11.1733
▁formatted	-11.1733
ре	-11.1734
▁correction	-11.1734
=\	-11.1736
sol	-11.1737
oli	-11.1737
▁lecture	-11.1738
▁worldwide	-11.174
▁Score	-11.1742
ප	-11.1745
▁resonance	-11.1745
▁summarize	-11.1745
eli	-11.1746
▁padding	-11.1746
LY	-11.1748
14,	-11.1749
_0}{	-11.1749
ential	-11.1749
▁determining	-11.175
▁51	-11.1752
చ	-11.1753
km	-11.1754
▁Author	-11.1755
▁gear	-11.1756
▁draft	-11.1757
Result	-11.1761
distinct	-11.1761
▁belongs	-11.1763
▁overview	-11.1765
parse	-11.1765
mile	-11.1766
▁ultimately	-11.1766
Description	-11.1768
375	-11.1769
motion	-11.1769
NC	-11.1769
▁Family	-11.1772
grid	-11.1774
▁slide	-11.1774
10)	-11.1777
!}	-11.1779
move	-11.1779
▁Italy	-11.178
dependent	-11.1782
▁Constraints	-11.1782
▁arise	-11.1786
▁arrived	-11.1787
▁Testing	-11.1788
▁excess	-11.1788
▁executive	-11.1789
IST	-11.1793
▁Cap	-11.1793
▁coach	-11.1793
+0	-11.1796
▁17,	-11.1799
▁layout	-11.18
Game	-11.1802
▁calculator	-11.1803
▁bomb	-11.1806
▁cultures	-11.1808
▁NAND	-11.1808
=2:	-11.181
▁strip	-11.181
▁Digital	-11.1816
olo	-11.1818
▁seats	-11.1819
▁Martin	-11.1823
Layout	-11.1823
▁incorporate	-11.1826
▁cu	-11.1828
▁mainly	-11.183
▁140	-11.1833
LS	-11.1834
▁$$\	-11.1834
▁trials	-11.1835
▁4.5	-11.1836
ব	-11.1836
depth	-11.1837
દ	-11.184
▁Disease	-11.184
fl	-11.1841
▁ل	-11.1842
ston	-11.1844
cil	-11.1848
▁journalist	-11.1848
▁housing	-11.1849
▁hydro	-11.185
▁grew	-11.1851
▁speaking	-11.1851
nie	-11.1852
▁3\	-11.1854
▁excellent	-11.1854
indexed	-11.1855
▁00	-11.1856
▁Sunday	-11.1858
made	-11.1859
▁professionals	-11.1861
▁oxidation	-11.1863
▁Rome	-11.1863
▁உ	-11.1864
itu	-11.1864
ters	-11.1865
▁simulation	-11.1865
▁57	-11.1865
▁constructed	-11.1867
▁harmonic	-11.187
UC	-11.1871
▁Prime	-11.1872
eral	-11.1873
▁Job	-11.1873
`).	-11.1874
MC	-11.1876
▁possess	-11.1877
▁army	-11.1877
▁sorting	-11.1877
ṣ	-11.1877
vid	-11.188
degree	-11.1881
▁"$	-11.1883
▁knowing	-11.1884
▁Song	-11.1885
▁Content	-11.1885
currency	-11.1888
front	-11.1889
[4]=1	-11.1895
▁Pick	-11.1895
bol	-11.1896
4]	-11.1896
▁turning	-11.1899
▁assert	-11.1901
▁fruits	-11.1903
▁Taking	-11.1904
dP	-11.1904
profile	-11.1905
ski	-11.1906
▁trading	-11.1906
▁passes	-11.1906
▁discussing	-11.1906
CN	-11.1907
{12	-11.1909
▁corn	-11.1909
wer	-11.1909
▁Res	-11.191
▁Round	-11.1913
ение	-11.1915
6.5	-11.1919
▁hearing	-11.1919
▁Did	-11.1921
normal	-11.1922
0.9	-11.1925
IO	-11.1927
▁te	-11.1927
CR	-11.1929
],[	-11.1932
ो	-11.1935
▁mood	-11.1935
▁laughter	-11.1936
common	-11.1936
▁ver	-11.1939
▁playlist	-11.1941
false	-11.1941
▁160	-11.1942
▁Spain	-11.1944
din	-11.1944
0.01	-11.1946
2.0	-11.1947
▁circles	-11.1951
▁cancel	-11.1954
▁MOD	-11.1954
▁conflicts	-11.1954
ри	-11.1956
answer	-11.1956
▁Approach	-11.1956
▁Fill	-11.1957
▁heavily	-11.1958
▁chief	-11.1958
ato	-11.1958
rep	-11.1959
best	-11.1963
eno	-11.1963
rust	-11.1963
▁vacuum	-11.1965
shed	-11.1966
▁agents	-11.1968
▁5]	-11.1968
4%	-11.1968
▁ح	-11.1968
▁exploit	-11.1969
ී	-11.197
▁'1'	-11.1977
▁Small	-11.198
▁disorders	-11.198
Open	-11.1984
▁scales	-11.1985
▁Systems	-11.1987
▁forget	-11.1987
Buffer	-11.1989
999	-11.1989
readline	-11.1989
clip	-11.1991
▁thousand	-11.1992
▁opinion	-11.1993
▁technological	-11.1995
▁queries	-11.1996
▁hardware	-11.1996
▁Val	-11.2
▁museum	-11.2002
▁Muslim	-11.2002
{15}	-11.2003
▁`#	-11.2005
▁hypothetical	-11.2011
▁wasn	-11.2011
▁instant	-11.2011
Up	-11.2012
▁atomic	-11.2013
▁Vo	-11.2015
▁organize	-11.2017
▁Richard	-11.2017
▁branches	-11.2019
▁Emma	-11.2021
/10	-11.2022
LD	-11.2023
▁discussed	-11.2025
▁Otherwise	-11.2025
▁Record	-11.2026
▁(*	-11.2029
there	-11.203
▁fly	-11.2034
atory	-11.2039
▁studied	-11.2039
▁Matrix	-11.2041
▁Need	-11.2042
▁restaurant	-11.2044
▁destroy	-11.2044
▁monster	-11.2046
▁infections	-11.2047
summary	-11.2048
▁modeling	-11.2049
▁authorities	-11.205
▁Building	-11.205
tun	-11.2054
smiling	-11.2056
High	-11.2058
▁miss	-11.2058
ume	-11.2061
▁Ya	-11.2062
▁spark	-11.2062
▁Chicago	-11.2066
▁67	-11.2067
ක්	-11.2068
为	-11.2069
▁mistake	-11.2069
▁disappear	-11.207
▁beside	-11.2073
atch	-11.2073
▁thanks	-11.2074
▁Sakura	-11.2076
▁recall	-11.2077
ş	-11.2077
▁mysterious	-11.2077
▁spiral	-11.2077
▁б	-11.2077
▁TikTok	-11.2078
auto	-11.2079
▁д	-11.2081
SQL	-11.2086
▁competitive	-11.2088
▁memo	-11.2089
PM	-11.2092
▁pollution	-11.2092
▁execute	-11.2096
▁clients	-11.2097
▁Organization	-11.2098
क	-11.2102
mination	-11.2105
UR	-11.2106
`**:	-11.2107
▁sick	-11.2108
▁targets	-11.211
▁rush	-11.2111
ام	-11.2113
▁organ	-11.2113
▁destination	-11.2114
▁Express	-11.2114
▁Character	-11.2115
▁colour	-11.2119
▁(7	-11.2119
▁certainly	-11.2121
▁rhythm	-11.2122
▁rod	-11.2124
▁visitors	-11.2125
{50}	-11.2126
▁14,	-11.2127
Min	-11.2127
Well	-11.2129
▁aircraft	-11.213
abb	-11.2133
▁Nature	-11.2136
good	-11.2137
▁consent	-11.2137
▁organizing	-11.2138
Just	-11.214
то	-11.2143
▁tested	-11.2144
getElementById	-11.2145
▁operational	-11.2146
HI	-11.2146
ups	-11.2147
▁Third	-11.2147
ered	-11.2152
▁bread	-11.2153
▁permit	-11.2155
▁shapes	-11.2157
rator	-11.2157
▁Lagrangian	-11.2159
▁friendly	-11.2162
▁liver	-11.2164
▁và	-11.2165
▁tracking	-11.2167
▁ticket	-11.2168
▁laugh	-11.2168
▁yii	-11.217
eff	-11.2171
▁23,	-11.2171
111	-11.2174
tho	-11.2174
Im	-11.2175
▁mat	-11.2177
▁·	-11.2177
limit	-11.2177
leg	-11.2181
▁при	-11.2182
ander	-11.2182
▁nine	-11.2183
▁wine	-11.2185
system	-11.2186
wide	-11.2186
▁sy	-11.2187
▁der	-11.2189
▁interactive	-11.219
▁syndrome	-11.219
cro	-11.219
holder	-11.2193
▁lengths	-11.2195
▁matters	-11.2196
▁IT	-11.2197
▁27)	-11.2204
▁Bra	-11.2204
cious	-11.2204
▁poverty	-11.2205
ore	-11.2212
▁wage	-11.2212
中	-11.2212
▁Valley	-11.2214
plot	-11.2216
▁debt	-11.2217
=1)	-11.2218
Day	-11.2219
▁66	-11.2221
▁Deep	-11.2222
▁absorb	-11.2224
gl	-11.2224
▁reveal	-11.2226
▁relate	-11.2227
625	-11.2229
▁900	-11.2231
American	-11.2231
▁alive	-11.2233
▁controls	-11.2234
▁chocolate	-11.2236
note	-11.2237
▁opened	-11.2239
1+	-11.224
▁rotate	-11.224
shi	-11.2242
Link	-11.2243
▁Figure	-11.2244
▁preserving	-11.2244
ি	-11.2245
ố	-11.2246
Li	-11.2246
▁adoption	-11.2246
▁computers	-11.2247
▁strengthen	-11.2247
ත්	-11.2247
emo	-11.2251
▁coal	-11.2253
▁superposition	-11.2254
▁स	-11.2258
▁television	-11.2259
lands	-11.2259
▁goods	-11.2263
▁fib	-11.2263
elo	-11.2265
)\).	-11.2267
▁vaccine	-11.2269
▁illness	-11.227
▁decreases	-11.227
▁joined	-11.2271
▁Sen	-11.2272
Col	-11.2272
device	-11.2273
▁Tech	-11.2274
▁Cu	-11.2275
▁ju	-11.2275
▁Wood	-11.2276
▁Ob	-11.2276
▁ran	-11.228
▁chapters	-11.228
▁Artist	-11.2281
ગ	-11.2281
▁tells	-11.2282
▁1998	-11.2284
ε	-11.2289
▁intellectual	-11.2289
Two	-11.229
uel	-11.2292
▁Local	-11.2292
▁Direct	-11.2295
▁dinner	-11.2295
▁entanglement	-11.2297
▁enumerate	-11.2297
▁sur	-11.2298
▁Ki	-11.2301
ito	-11.2302
▁creatures	-11.2302
ego	-11.2306
sym	-11.2306
Symbol	-11.2307
▁hexagon	-11.2308
டி	-11.2311
▁prediction	-11.2314
▁Coffee	-11.2314
▁smoke	-11.2317
Service	-11.232
▁dramatic	-11.232
▁societal	-11.232
▁epi	-11.2322
▁Exception	-11.2323
phy	-11.2324
asse	-11.2326
▁occurrences	-11.2327
ற	-11.2334
▁Britain	-11.2335
Python	-11.2336
▁Risk	-11.2336
▁Photo	-11.2339
▁hi	-11.234
▁Community	-11.2342
Find	-11.2342
▁Bill	-11.2345
icon	-11.2346
▁Map	-11.2347
▁hundreds	-11.2347
▁administration	-11.2351
▁attendees	-11.2351
▁sunlight	-11.2352
1.1	-11.2354
tiv	-11.2356
▁rely	-11.2357
కు	-11.2357
▁beat	-11.2358
both	-11.2359
hl	-11.2359
methyl	-11.236
મ	-11.2361
▁aligns	-11.2363
1=	-11.2364
▁faint	-11.2364
▁144	-11.2367
hur	-11.2375
▁tube	-11.2377
▁1970	-11.2378
▁lands	-11.2378
र्	-11.2379
Year	-11.238
ṣẹ	-11.238
▁lọ	-11.2382
▁Bat	-11.2384
EA	-11.2385
FA	-11.2387
condition	-11.2391
5.0	-11.2391
▁numeric	-11.2392
▁revealed	-11.2393
▁worker	-11.2394
Sh	-11.2395
▁ear	-11.2398
Com	-11.24
{9	-11.2401
overline	-11.2402
println	-11.2406
▁{0,	-11.2407
structure	-11.241
▁variation	-11.241
std	-11.2412
▁participation	-11.2412
▁encryption	-11.2412
▁Ball	-11.2415
▁В	-11.2419
▁understood	-11.242
▁disrupt	-11.2424
AY	-11.2425
▁Academy	-11.2428
mber	-11.2432
3+	-11.2433
aster	-11.2433
▁Sample	-11.2437
▁migration	-11.2438
▁kinds	-11.2442
▁ethnic	-11.2443
6]	-11.2444
▁les	-11.2445
due	-11.2449
▁accurately	-11.2451
edit	-11.2451
▁graduate	-11.2452
▁minimizes	-11.2452
▁household	-11.2453
▁μ	-11.2454
▁Ste	-11.2466
metric	-11.2467
END	-11.2468
▁cutting	-11.247
▁reporting	-11.2471
▁Adam	-11.2472
Content	-11.2473
▁fails	-11.2476
solve	-11.2476
▁Compare	-11.2476
▁Young	-11.2479
▁Similarly	-11.248
▁sw	-11.248
▁generates	-11.248
▁reward	-11.2481
▁Royal	-11.2482
▁truck	-11.2483
▁behaviors	-11.2484
▁Pay	-11.2485
▁collision	-11.249
▁Focus	-11.249
▁é	-11.2491
(6,	-11.2492
(10	-11.2492
▁stores	-11.2493
▁merely	-11.2498
▁stages	-11.2498
ett	-11.2499
const	-11.25
▁PC	-11.25
cor	-11.2501
VI	-11.2501
bid	-11.2504
ේ	-11.2506
ggle	-11.2506
▁lifestyle	-11.2512
qua	-11.2512
det	-11.2513
▁syn	-11.2516
▁Should	-11.2516
▁1997	-11.2519
World	-11.2519
▁\)).	-11.2521
▁Snow	-11.2524
lis	-11.2526
Log	-11.2531
select	-11.2535
aha	-11.2536
▁advocate	-11.2537
they	-11.2538
object	-11.2539
\}	-11.2541
▁Australian	-11.2542
▁renewable	-11.2545
conv	-11.2546
4:	-11.2547
▁exercises	-11.2547
▁colon	-11.2547
full	-11.2548
▁س	-11.255
▁informed	-11.255
params	-11.2551
▁Plant	-11.2551
▁pose	-11.2551
cons	-11.2552
▁manipulation	-11.2553
▁marriage	-11.2553
ూ	-11.2553
▁los	-11.2554
▁Assign	-11.2558
palindrome	-11.2558
▁-5	-11.2559
▁Evaluate	-11.2561
ua	-11.2561
▁Pop	-11.2565
ù	-11.2566
▁whereas	-11.2566
▁confirmed	-11.2566
▁verb	-11.2572
ún	-11.2572
oral	-11.2574
▁MD	-11.2576
bash	-11.2577
ection	-11.2577
▁15%	-11.2577
cept	-11.2577
-16	-11.2579
▁`<	-11.2581
▁inform	-11.2581
response	-11.2583
▁88	-11.2583
human	-11.2584
ты	-11.2584
▁Verify	-11.2585
▁hint	-11.2587
▁functionality	-11.2591
▁ස	-11.2593
▁Virginia	-11.2594
▁improvements	-11.2594
▁divisible	-11.2601
▁Address	-11.2602
▁(0,1)	-11.2603
Tr	-11.2604
▁adopted	-11.2607
▁Oh	-11.2608
▁ව	-11.2608
▁texts	-11.2608
▁agricultural	-11.2608
ough	-11.261
▁Combine	-11.2611
▁fur	-11.2612
inger	-11.2612
mato	-11.2613
▁guys	-11.2614
craft	-11.2615
▁Class	-11.2615
▁evaluating	-11.2616
▁rectangular	-11.2616
▁(8	-11.2617
▁Tuple	-11.2618
▁scheduled	-11.262
ля	-11.262
▁instrument	-11.262
itude	-11.262
▁Object	-11.2622
▁450	-11.2622
▁closest	-11.2624
▁$8	-11.2624
▁titled	-11.2626
neg	-11.2627
▁subtle	-11.2628
Test	-11.2628
▁buying	-11.2628
は	-11.2632
third	-11.2632
Sigma	-11.2632
▁reasonable	-11.2633
▁Tuesday	-11.2634
▁Joseph	-11.2634
-18	-11.2637
▁expanded	-11.2637
hash	-11.2637
▁Florida	-11.264
ụ	-11.2641
▁tí	-11.2646
▁lean	-11.2647
▁receiving	-11.2648
▁expertise	-11.2649
dev	-11.2649
▁hum	-11.2651
▁89	-11.2653
atter	-11.2653
iel	-11.2654
▁/>	-11.2655
▁wisdom	-11.2656
▁Those	-11.2657
199	-11.2663
risk	-11.2663
BTC	-11.2664
doc	-11.2666
▁availability	-11.2668
▁mine	-11.2669
draw	-11.2671
tom	-11.2672
▁mouse	-11.2674
ਖ	-11.2674
▁displacement	-11.2675
rip	-11.2675
Line	-11.2676
▁finished	-11.2677
cial	-11.2679
El	-11.2679
ਟ	-11.268
▁expectations	-11.268
*}	-11.2681
▁Luc	-11.2684
0}}	-11.2686
▁recording	-11.2686
▁pulse	-11.2688
▁menu	-11.2688
▁1995	-11.269
▁paintings	-11.2691
▁rolling	-11.2692
▁Track	-11.2693
▁repeating	-11.2693
eter	-11.2694
▁copies	-11.2696
]=	-11.2696
▁officer	-11.2696
ott	-11.2697
▁(16,	-11.2699
▁attract	-11.2702
IV	-11.2708
▁broke	-11.2713
▁civilization	-11.2713
DB	-11.2718
▁$15	-11.2719
izes	-11.272
▁3-	-11.272
volume	-11.2722
▁Christmas	-11.2722
ides	-11.2723
▁Climate	-11.2724
▁generations	-11.2724
days	-11.2724
▁echo	-11.2727
▁propose	-11.2729
▁3]	-11.2731
▁2019	-11.2732
▁Sand	-11.2734
で	-11.2735
▁ions	-11.2739
▁producer	-11.274
▁knee	-11.2741
labor	-11.2742
▁**5.	-11.2742
LP	-11.2743
GB	-11.2743
▁Context	-11.2744
iso	-11.2745
▁evening	-11.2745
▁workshop	-11.2746
Comp	-11.2746
▁reflecting	-11.2747
▁extend	-11.2753
▁exam	-11.2753
▁assets	-11.2753
▁friendship	-11.2754
▁ter	-11.2754
▁losses	-11.2757
▁innovative	-11.276
▁drama	-11.276
▁Policy	-11.2765
▁π	-11.2766
▁clouds	-11.2767
وا	-11.2768
▁Saturday	-11.2768
>`	-11.2771
▁evil	-11.2775
stack	-11.2775
▁Share	-11.2776
▁Resources	-11.2777
(9)	-11.2777
^2\)	-11.2778
▁systematic	-11.2779
▁68	-11.2781
▁Yu	-11.2782
GH	-11.2782
же	-11.2782
▁acc	-11.2786
Parent	-11.2786
cus	-11.2787
Cr	-11.2787
)=1	-11.2787
voice	-11.2788
%)	-11.2789
▁medications	-11.279
▁pivot	-11.279
▁babies	-11.2792
▁allocate	-11.2792
▁remind	-11.2803
minimum	-11.2804
▁identifying	-11.2805
3,000	-11.2805
▁cor	-11.2806
▁dish	-11.2807
▁Hall	-11.2807
prop	-11.2808
▁Ze	-11.2809
▁IDs	-11.2809
▁ج	-11.281
▁Mini	-11.2811
▁exponent	-11.2815
▁comprehension	-11.2816
ом	-11.2816
▁handles	-11.2817
▁Square	-11.2817
▁provider	-11.2818
▁strict	-11.2818
elling	-11.2819
▁pack	-11.2821
Pool	-11.2824
▁proposal	-11.2824
▁uppercase	-11.2825
Str	-11.2825
▁dense	-11.2826
▁Exp	-11.2826
▁1\)	-11.2827
▁16,	-11.2828
TM	-11.2828
DS	-11.2829
client	-11.283
YYYY	-11.2832
▁Vertex	-11.2832
nova	-11.2833
▁mild	-11.2834
▁grown	-11.2835
Context	-11.2838
▁blow	-11.2839
▁stabilize	-11.2841
cup	-11.2842
rc	-11.2843
▁regulatory	-11.2843
▁cleaned	-11.2845
▁Optimization	-11.2847
▁mathematics	-11.2848
▁Revenue	-11.2853
▁Article	-11.2854
▁cream	-11.2854
▁breed	-11.2855
▁dealing	-11.2859
▁varying	-11.2859
kar	-11.286
▁windows	-11.2861
eller	-11.2861
mas	-11.2863
gest	-11.2864
▁kitchen	-11.2864
▁distribute	-11.2865
Read	-11.2866
▁Par	-11.2868
enc	-11.2871
▁recursive	-11.2872
▁bin	-11.2876
▁59	-11.2877
▁adj	-11.2878
प	-11.2881
)}{\	-11.2881
ал	-11.2882
1111	-11.2883
▁Imagine	-11.2884
▁III	-11.2886
▁drinking	-11.2886
course	-11.2887
upper	-11.2887
Ho	-11.2887
▁inversion	-11.2888
▁employment	-11.2888
▁Hospital	-11.2889
▁entrepreneur	-11.2892
"?	-11.2894
▁Has	-11.2895
hor	-11.2895
static	-11.2896
▁Division	-11.2897
▁personality	-11.2898
શ	-11.2905
[2]=2	-11.2905
▁homes	-11.2906
▁flip	-11.2908
▁cy	-11.2909
MENT	-11.2911
language	-11.2912
verb	-11.2912
→6	-11.2913
கள்	-11.2917
▁crew	-11.2918
▁4\	-11.2919
▁faced	-11.2921
clue	-11.2921
wave	-11.2922
rian	-11.2924
▁Dick	-11.2924
▁Pat	-11.2925
Rect	-11.2925
▁Click	-11.2929
▁artifacts	-11.293
0|	-11.2931
town	-11.2932
Dr	-11.2933
mel	-11.2936
▁có	-11.294
▁1,000	-11.2941
nya	-11.2941
▁lesson	-11.2941
▁Egypt	-11.2942
say	-11.2942
command	-11.2946
▁WHERE	-11.2946
▁literary	-11.2946
SL	-11.2947
▁Tree	-11.2947
▁Due	-11.2948
host	-11.2949
▁Series	-11.295
pack	-11.2951
ණ	-11.2951
▁Sky	-11.2952
▁glad	-11.2952
▁incoming	-11.2953
▁Optional	-11.2953
Ha	-11.2955
▁smell	-11.2957
▁190	-11.2958
Query	-11.2958
▁distinguish	-11.296
▁tied	-11.2964
▁latter	-11.2964
▁mal	-11.2968
▁concrete	-11.2971
▁Growth	-11.2971
▁2018	-11.2973
▁focuses	-11.2976
who	-11.2977
्	-11.2977
ign	-11.2978
▁partnership	-11.2979
▁α	-11.2981
▁loud	-11.2982
uf	-11.2982
▁\)),	-11.2985
▁circumstances	-11.2987
▁algebra	-11.2987
urge	-11.2988
▁Char	-11.2988
▁beliefs	-11.2989
▁bags	-11.2991
ह	-11.2992
▁shorter	-11.2992
▁Notes	-11.2996
config	-11.2997
▁pink	-11.2998
+7	-11.2999
[11]	-11.3001
9.5	-11.3002
boldsymbol	-11.3003
NA	-11.3006
ать	-11.3006
bal	-11.3007
▁continent	-11.3008
▁Training	-11.3009
gan	-11.3011
▁nerve	-11.3012
Start	-11.3015
SU	-11.3015
}{10}	-11.3016
ை	-11.3016
▁Style	-11.302
▁driven	-11.3022
▁solvent	-11.3027
=1.	-11.303
▁NO	-11.3032
▁40%	-11.3033
▁compact	-11.3033
(-1)	-11.3034
Average	-11.3038
▁centre	-11.3039
transform	-11.304
▁novels	-11.3041
▁comic	-11.3041
hai	-11.3044
github	-11.3045
▁revolution	-11.3046
▁SELECT	-11.3047
13,	-11.3048
());	-11.3051
▁carbocation	-11.3053
▁Introduction	-11.3053
burg	-11.3053
▁Adjust	-11.3055
SM	-11.3055
▁NY	-11.3055
▁infected	-11.3055
▁gradually	-11.3056
▁demands	-11.3059
▁contemporary	-11.3061
phys	-11.3064
ines	-11.3065
▁Dan	-11.3067
▁captured	-11.3067
▁pot	-11.3072
shape	-11.3072
Option	-11.3073
▁knows	-11.3076
oci	-11.3078
▁qui	-11.308
▁burst	-11.3081
▁forests	-11.3083
Yuri	-11.3083
لا	-11.3086
▁Counter	-11.3087
▁Steps	-11.3087
lap	-11.3087
▁Store	-11.3089
HS	-11.3093
ാ	-11.3098
▁fits	-11.3101
–9	-11.3102
▁barriers	-11.3104
bt	-11.311
AG	-11.311
Measure	-11.3111
▁dec	-11.3113
▁Taylor	-11.3114
ло	-11.3116
admin	-11.3117
▁insight	-11.3119
శ	-11.3119
▁senior	-11.3119
zing	-11.312
▁Select	-11.3121
oil	-11.3123
tim	-11.3124
▁operate	-11.3124
▁twist	-11.3125
▁frameworks	-11.3125
▁weapons	-11.3126
▁Original	-11.3127
▁suddenly	-11.3128
▁profound	-11.3128
tribut	-11.3128
rates	-11.3129
pel	-11.3129
▁SEO	-11.313
▁Olivia	-11.313
▁Break	-11.3131
▁upcoming	-11.3132
Token	-11.3133
▁fellow	-11.3136
▁adaptation	-11.3136
javascript	-11.3138
▁Board	-11.3138
▁researcher	-11.3139
▁belong	-11.314
▁kernel	-11.3142
▁instruments	-11.3143
▁flows	-11.3143
▁nose	-11.3144
ame	-11.3145
plication	-11.3147
arian	-11.3149
ckle	-11.3153
visit	-11.3157
hem	-11.3163
▁Road	-11.3164
iza	-11.3165
▁Silver	-11.3165
▁1960	-11.3171
^{(	-11.3173
Price	-11.3175
ন	-11.3176
ouch	-11.3177
▁gathered	-11.3177
ー	-11.3178
श	-11.3178
none	-11.3178
▁là	-11.3178
▁Fourier	-11.3178
▁proud	-11.3179
▁ON	-11.318
}}{2}	-11.318
dem	-11.318
▁declared	-11.318
ọ́	-11.318
▁votes	-11.3181
▁pictures	-11.3185
[1]=2	-11.3189
1,4	-11.3191
ila	-11.3191
▁lessons	-11.3193
▁taught	-11.3193
▁Bible	-11.3194
▁synthesis	-11.3194
▁pilot	-11.3195
HA	-11.3197
adjacent	-11.32
BR	-11.3201
ధ	-11.3203
▁committed	-11.3203
▁texture	-11.3204
▁wonderful	-11.3207
Did	-11.3208
▁myth	-11.3209
▁arrival	-11.3209
aldehyde	-11.3211
▁Animal	-11.3212
▁styles	-11.3212
▁suggesting	-11.3215
ар	-11.3216
▁physically	-11.3218
dec	-11.3221
($	-11.3221
▁glance	-11.3223
ema	-11.3227
333	-11.3227
−3	-11.3227
▁leak	-11.3229
▁applies	-11.3229
itch	-11.3234
▁abs	-11.3234
▁edition	-11.3234
▁weigh	-11.3234
EST	-11.3235
▁shield	-11.324
heap	-11.3242
keys	-11.3244
▁curvature	-11.3245
▁beneficial	-11.3245
मा	-11.3247
▁scope	-11.3247
AGE	-11.3248
)\),	-11.3249
_2(	-11.3251
neu	-11.3251
▁initiatives	-11.3251
success	-11.3252
▁roughly	-11.3252
को	-11.3253
▁utility	-11.3253
▁125	-11.3255
2,000	-11.3255
▁dominant	-11.3255
born	-11.3255
8,000	-11.3257
▁protocol	-11.3257
PG	-11.3258
▁DP	-11.326
че	-11.3264
▁bold	-11.3267
▁grin	-11.3269
.]**	-11.327
▁sodium	-11.327
τ	-11.3272
layer	-11.3273
▁divisor	-11.3273
▁Card	-11.3275
Second	-11.3278
Message	-11.3278
▁wings	-11.3285
▁Perform	-11.3286
Row	-11.3287
▁quantities	-11.3287
radius	-11.3287
ль	-11.3289
▁glucose	-11.329
র	-11.3291
cf	-11.3291
pri	-11.3295
▁sustainability	-11.3296
லை	-11.3298
oriented	-11.3299
්	-11.3301
▁sale	-11.3301
▁frames	-11.3301
assuming	-11.3304
▁uncertainty	-11.3305
▁Match	-11.3305
ended	-11.3308
▁Limit	-11.3308
mis	-11.3309
▁Pass	-11.331
uka	-11.3312
release	-11.3313
▁broadcast	-11.3313
▁god	-11.3314
▁recover	-11.3321
▁brush	-11.3321
▁62	-11.3321
‘	-11.3323
▁boys	-11.3324
▁outdoor	-11.3324
wọn	-11.3325
ệ	-11.3326
eme	-11.3329
▁Twitter	-11.3329
ਸ਼	-11.3331
▁Nations	-11.3333
OD	-11.3334
bon	-11.3334
▁consult	-11.3334
▁pipeline	-11.3343
▁transitions	-11.3344
pes	-11.3348
vil	-11.3348
▁alter	-11.3349
▁datetime	-11.335
activity	-11.3352
itz	-11.3354
Bar	-11.3356
▁tele	-11.3357
▁hero	-11.3357
▁21,	-11.3359
ching	-11.3362
▁81	-11.3363
▁84	-11.3363
▁NH	-11.3367
த்து	-11.3368
5]	-11.3369
▁OK	-11.3371
ime	-11.3373
ார்	-11.3374
▁எ	-11.3374
▁installation	-11.3375
▁listening	-11.3375
stop	-11.3376
emia	-11.3377
▁laser	-11.3378
▁ì	-11.3379
▁regime	-11.338
TP	-11.338
gb	-11.3383
19,	-11.3385
ين	-11.3386
▁Move	-11.3388
▁recipe	-11.3389
report	-11.3389
▁suffer	-11.339
▁flexible	-11.339
▁Eastern	-11.339
▁timeline	-11.339
▁prevention	-11.3391
▁discrimination	-11.3392
▁electro	-11.3393
}{12}	-11.3394
}}\)	-11.3394
во	-11.3401
▁western	-11.3403
same	-11.3405
▁farmers	-11.3406
urs	-11.3406
ட்ட	-11.3406
ੈ	-11.3406
ര	-11.3406
=3:	-11.3409
▁perspectives	-11.341
▁Role	-11.3411
▁Asian	-11.3414
ણ	-11.3415
Difference	-11.3415
Sum	-11.3416
ис	-11.3419
vit	-11.3424
control	-11.3424
্	-11.3425
IF	-11.3425
▁Bro	-11.3426
]);	-11.3427
▁2·	-11.3427
AAPL	-11.3427
screen	-11.3427
inch	-11.3428
▁memories	-11.3432
NI	-11.3433
▁poll	-11.3435
every	-11.3437
When	-11.3438
{3}{2}	-11.3439
duction	-11.344
▁versus	-11.3441
PRO	-11.3441
^{0.05	-11.3443
▁Draw	-11.3444
▁header	-11.3447
eration	-11.3447
▁phrases	-11.3448
▁assumed	-11.3448
▁Pan	-11.345
▁Watch	-11.3455
▁amino	-11.3456
pen	-11.3456
▁guests	-11.3456
&#34;	-11.3458
▁Female	-11.3458
▁7.5	-11.3461
abstract	-11.3462
rac	-11.3463
▁Lily	-11.3464
▁из	-11.3467
▁collective	-11.3468
▁Korea	-11.3468
'])	-11.3468
▁Ju	-11.3469
[5]=1	-11.347
▁hide	-11.3471
6.0	-11.3471
▁async	-11.3474
်	-11.3475
▁finishes	-11.3475
▁greatly	-11.3476
Hz	-11.3476
ESS	-11.3476
▁newspaper	-11.3476
▁22,	-11.3477
▁planned	-11.3477
ول	-11.3477
^{-2	-11.3479
▁Between	-11.3479
▁chicken	-11.348
180	-11.348
▁regularly	-11.3481
gate	-11.3486
▁Hand	-11.3486
▁checked	-11.3489
▁snippet	-11.3491
▁descriptions	-11.3492
▁Learn	-11.3492
▁conducting	-11.3492
▁colleagues	-11.3493
1),	-11.3497
ception	-11.3498
0.02	-11.3499
▁≠	-11.35
ades	-11.3502
▁donation	-11.3502
ctor	-11.3503
letter	-11.3503
▁|--------------	-11.3509
▁scaling	-11.351
▁juice	-11.351
▁peer	-11.3514
heat	-11.3515
ener	-11.3517
his	-11.3518
▁reputation	-11.3518
Out	-11.3519
eni	-11.352
'],	-11.3521
▁purchased	-11.3522
▁yang	-11.3522
▁putting	-11.3526
▁Pokémon	-11.3527
▁ਮ	-11.3529
▁Cancer	-11.353
olic	-11.3531
▁correspond	-11.3532
population	-11.3532
கு	-11.3534
▁gallons	-11.3536
▁(18	-11.3536
met	-11.3537
▁Though	-11.3537
▁coins	-11.3538
▁Kids	-11.3539
utation	-11.3541
▁ended	-11.3542
}\),	-11.3543
Per	-11.3544
Int	-11.3545
▁wildlife	-11.3545
live	-11.3549
▁suffering	-11.355
▁documentation	-11.3551
ить	-11.3554
▁clothing	-11.3556
▁persist	-11.3557
▁warming	-11.3558
plan	-11.356
▁Conference	-11.3562
raft	-11.3563
authors	-11.3565
▁assumption	-11.3565
▁tough	-11.3566
Score	-11.3568
anta	-11.3569
▁ya	-11.3571
▁blank	-11.3572
big	-11.3572
▁Rose	-11.3574
▁glow	-11.3578
▁laboratory	-11.3579
▁projected	-11.358
ි	-11.3581
▁Fund	-11.3586
▁100,000	-11.3588
▁Account	-11.3588
reg	-11.3588
▁backward	-11.3589
▁Response	-11.3589
AA	-11.359
▁ග	-11.3591
Non	-11.3593
optim	-11.3593
available	-11.3595
▁avoiding	-11.3595
▁manipulate	-11.3597
ست	-11.3597
calculate	-11.3599
pine	-11.3599
▁protest	-11.36
Cost	-11.36
▁contest	-11.3603
wel	-11.3603
▁candidates	-11.3604
▁passion	-11.3605
▁bot	-11.3607
2021	-11.3608
▁cmd	-11.3612
ẹ̀	-11.3613
▁Reference	-11.3613
▁masses	-11.3614
ਪ	-11.3614
▁egg	-11.3616
TV	-11.3616
RM	-11.3617
750	-11.3617
Dict	-11.362
▁dreams	-11.362
▁Arg	-11.3623
▁Online	-11.3624
▁SO	-11.3626
▁manual	-11.3626
present	-11.3626
3,2	-11.3626
▁marine	-11.3626
ddle	-11.3628
="#	-11.3628
▁Miss	-11.3629
▁prominent	-11.3631
▁ordinary	-11.3632
=4,	-11.3632
ми	-11.3632
▁routes	-11.3632
oz	-11.3633
▁loose	-11.3634
▁losing	-11.3634
▁4]	-11.3638
▁optimizing	-11.364
▁convey	-11.364
profit	-11.3642
kill	-11.3644
▁inventory	-11.3645
ones	-11.3645
▁defend	-11.3647
▁introduces	-11.3647
▁accommodate	-11.3649
▁physician	-11.3649
が	-11.3649
▁adhere	-11.365
evi	-11.365
▁realized	-11.3652
▁humanity	-11.3653
fix	-11.3654
▁destroyed	-11.3654
▁arrive	-11.3656
nut	-11.3657
▁Thompson	-11.3658
▁adequate	-11.3658
▁Il	-11.3658
▁ser	-11.3659
স	-11.3659
▁preferred	-11.3659
▁manufacturer	-11.3662
▁signed	-11.3664
{2}{3}	-11.3666
PT	-11.3667
▁visiting	-11.3669
▁cake	-11.3669
ulator	-11.3669
▁optimized	-11.3669
request	-11.3669
கி	-11.3672
▁violate	-11.3675
▁perceived	-11.3676
break	-11.3678
ி	-11.3681
ban	-11.3681
▁Column	-11.3682
▁dependent	-11.3685
Order	-11.3686
▁maintained	-11.3687
food	-11.3687
▁Understanding	-11.3688
"),	-11.3699
▁scalar	-11.3702
cd	-11.3703
lash	-11.3704
▁$6	-11.3705
▁targeted	-11.3705
▁Er	-11.3708
ей	-11.3708
”:	-11.371
Main	-11.371
▁opens	-11.371
▁che	-11.371
▁emphasis	-11.3711
▁ritual	-11.3711
]\)	-11.3711
▁Factor	-11.3711
maximize	-11.3712
OW	-11.3713
▁Micro	-11.3716
▁Tim	-11.372
▁timestamp	-11.3721
rug	-11.3721
أ	-11.3721
àn	-11.3722
▁Stock	-11.3722
▁Replace	-11.3724
▁flex	-11.3726
▁క	-11.3727
▁royal	-11.3728
▁traveled	-11.373
GM	-11.3731
CP	-11.3731
uda	-11.3731
replace	-11.3732
▁mole	-11.3734
physical	-11.3734
▁پ	-11.3734
▁Carolina	-11.3735
▁silence	-11.3737
▁Week	-11.3737
lysis	-11.374
shirt	-11.374
ref	-11.3741
▁shade	-11.3742
Panel	-11.3745
▁contributing	-11.3746
▁determinant	-11.3746
Ba	-11.3748
▁developer	-11.3749
▁protocols	-11.375
▁Rights	-11.375
yard	-11.375
▁Gal	-11.375
▁folder	-11.3751
DO	-11.3751
▁chemicals	-11.3752
▁Results	-11.3752
corp	-11.3753
▁К	-11.3754
datetime	-11.3757
▁neck	-11.3758
products	-11.3761
▁assumes	-11.3762
here	-11.3762
▁э	-11.3764
▁legacy	-11.3764
▁kingdom	-11.3764
cite	-11.3765
]+	-11.3765
{20}	-11.3767
▁placing	-11.3767
^{0.1	-11.377
effective	-11.3771
▁bulk	-11.3773
▁Block	-11.3775
ece	-11.3775
support	-11.3775
▁pad	-11.3777
▁orders	-11.3778
_0)	-11.3779
▁60%	-11.378
▁Leg	-11.3782
▁reply	-11.3783
Equation	-11.3785
▁-4	-11.3785
▁exceeding	-11.3786
lé	-11.3787
▁Mis	-11.3788
}_3\	-11.3788
ස	-11.379
▁completion	-11.3792
▁skip	-11.3797
Н	-11.3797
▁Reaction	-11.3798
им	-11.3798
ộ	-11.3799
▁manufacturing	-11.3799
▁kidney	-11.38
ifier	-11.3802
▁characterized	-11.3803
▁politics	-11.3808
▁combining	-11.3808
▁encountered	-11.3813
NY	-11.3814
▁afternoon	-11.3817
▁Facebook	-11.3817
▁Times	-11.382
ective	-11.382
▁zip	-11.3823
▁lattice	-11.3826
black	-11.3827
▁Euclidean	-11.3827
12345	-11.3828
▁Unit	-11.3829
lus	-11.383
▁{2,	-11.383
▁delivered	-11.3831
▁rival	-11.3834
▁evaluated	-11.3834
▁intention	-11.3835
▁Live	-11.3837
▁den	-11.3841
charge	-11.3842
▁در	-11.3842
una	-11.3842
లో	-11.3846
ой	-11.3852
ridge	-11.3852
▁rep	-11.3853
▁Discuss	-11.3853
▁determination	-11.3853
▁placement	-11.3853
▁Describe	-11.3854
▁popularity	-11.3854
▁వ	-11.3856
▁considerations	-11.3856
building	-11.3857
▁Initialize	-11.3859
▁об	-11.3859
▁confident	-11.3861
ੂ	-11.3862
▁curiosity	-11.3862
▁chamber	-11.3862
ண	-11.3863
▁realistic	-11.3867
iden	-11.387
▁Pin	-11.3871
▁manuscript	-11.3871
stock	-11.3872
▁105	-11.3874
▁preventing	-11.3874
{13}	-11.3875
य	-11.388
▁ف	-11.3883
▁currency	-11.3884
▁Para	-11.3885
00:00	-11.3885
▁1994	-11.3885
uro	-11.3886
▁cats	-11.3886
ρ	-11.3889
▁Girl	-11.3889
▁finance	-11.3889
▁legend	-11.3891
▁pipe	-11.3892
loo	-11.3892
▁calculates	-11.3894
Source	-11.3895
ops	-11.3895
▁simplified	-11.3898
▁embrace	-11.3898
ticker	-11.39
▁Den	-11.3903
▁java	-11.3905
▁Starting	-11.3905
▁crops	-11.3905
▁AD	-11.3907
-14	-11.3909
▁sending	-11.3909
One	-11.391
Range	-11.391
▁Server	-11.3913
▁screening	-11.3914
(7,	-11.3916
▁replacement	-11.3919
rand	-11.3926
▁про	-11.3926
▁meals	-11.3926
▁bottles	-11.3927
generate	-11.3927
▁Sim	-11.3929
▁Major	-11.393
▁fault	-11.393
▁gang	-11.3931
▁61	-11.3931
▁drift	-11.3934
ambi	-11.3934
▁trap	-11.3938
elli	-11.3939
ак	-11.3941
ptr	-11.3941
pmod	-11.3941
ọ̀	-11.3942
{10}	-11.3942
symmetric	-11.3943
▁మ	-11.3943
י	-11.3943
▁Arch	-11.3946
ਂ	-11.3946
▁`[	-11.3947
▁deaths	-11.3948
nav	-11.395
especially	-11.395
lith	-11.3951
▁shoulder	-11.3951
▁curriculum	-11.3952
▁injuries	-11.3952
▁overcome	-11.3953
▁clothes	-11.3955
0.000	-11.3956
Red	-11.3958
ologist	-11.3958
▁numerically	-11.3959
ories	-11.3961
{8}	-11.3962
rack	-11.3964
▁ਅ	-11.397
▁interior	-11.397
▁imaging	-11.3971
ille	-11.3972
arg	-11.3973
statistic	-11.3975
▁inspiration	-11.3979
▁basketball	-11.3979
▁QUESTION	-11.398
FT	-11.398
▁consume	-11.398
▁Fu	-11.398
▁«	-11.3981
ulating	-11.3982
▁tip	-11.3985
swap	-11.3985
▁classified	-11.3986
▁vice	-11.3988
▁possibilities	-11.3988
MSFT	-11.399
tis	-11.3991
▁Mel	-11.3992
▁Option	-11.3993
▁somewhat	-11.3994
▁bat	-11.3995
about	-11.3996
▁District	-11.3997
core	-11.3998
▁Constitution	-11.3998
▁fate	-11.4001
PH	-11.4004
▁blind	-11.4005
文	-11.4006
▁ق	-11.4006
▁loved	-11.4007
▁Integrate	-11.4008
▁consumers	-11.4008
▁ease	-11.4009
quin	-11.4009
4,000	-11.4013
▁contributed	-11.4013
2):	-11.4014
▁heritage	-11.4016
▁polygon	-11.4016
ме	-11.4017
об	-11.4018
▁Sir	-11.4019
Map	-11.4024
Action	-11.4024
▁Cell	-11.4025
▁inference	-11.4025
▁corporate	-11.4026
ously	-11.4026
pac	-11.4027
road	-11.4029
▁mut	-11.4031
▁sport	-11.4032
8.0	-11.4032
▁specialist	-11.4032
▁harvest	-11.4033
▁denotes	-11.4033
人	-11.4033
1234	-11.4033
▁Survey	-11.4034
▁denominator	-11.4034
▁announced	-11.4034
▁Jackson	-11.4035
single	-11.4036
▁scheme	-11.4037
▁gaps	-11.4039
▁Term	-11.4039
▁ir	-11.404
company	-11.4044
▁constantly	-11.4047
▁của	-11.4052
▁annually	-11.4052
pattern	-11.4053
▁modes	-11.4053
tone	-11.4054
▁bounds	-11.4055
▁adjusted	-11.4056
lb	-11.4058
sure	-11.4059
▁30)	-11.406
чи	-11.4061
▁Algorithm	-11.4061
ו	-11.4061
▁troops	-11.4061
-30	-11.4063
▁independently	-11.4063
222	-11.4065
▁mom	-11.4065
▁arrange	-11.4066
▁Additional	-11.4066
192	-11.407
▁err	-11.4071
▁bringing	-11.4074
▁trauma	-11.4075
Charlie	-11.4075
▁Tokyo	-11.4076
▁Further	-11.4078
▁servers	-11.4079
▁superior	-11.4079
▁packages	-11.4083
105	-11.4083
Psi	-11.4084
fect	-11.4085
▁UI	-11.4087
▁purely	-11.4089
▁Stan	-11.409
details	-11.4091
amo	-11.4092
▁gathering	-11.4094
▁concentrations	-11.4094
cpp	-11.4095
▁Distribution	-11.4099
▁poetry	-11.4099
▁Ten	-11.4099
▁beach	-11.4101
then	-11.4104
▁partners	-11.4104
FR	-11.4105
dor	-11.4105
}{100}	-11.4106
▁specialized	-11.4106
▁sudden	-11.4106
▁inherent	-11.4106
mine	-11.4107
_1\)	-11.4108
▁Sc	-11.411
elements	-11.411
lves	-11.411
▁lung	-11.4112
clique	-11.4113
ру	-11.4113
ido	-11.4114
▁earn	-11.4115
▁Committee	-11.4116
▁membrane	-11.4116
ister	-11.4117
fold	-11.4118
▁inverse	-11.412
▁Bird	-11.4121
{60}	-11.4121
ante	-11.4126
▁newly	-11.4128
▁Close	-11.4128
scores	-11.413
shaped	-11.4131
▁Simple	-11.4131
▁projection	-11.4132
▁bath	-11.4135
▁25,	-11.4135
iko	-11.4136
bad	-11.4137
Question	-11.4137
▁searching	-11.4137
ци	-11.4138
▁designing	-11.4138
yon	-11.414
account	-11.4141
Initial	-11.4142
dan	-11.4143
▁refuge	-11.4144
▁ع	-11.4144
▁robot	-11.4147
Blue	-11.4147
▁cleaning	-11.4148
vac	-11.4152
▁lap	-11.4153
[8])	-11.4153
_7	-11.4155
rai	-11.4156
▁SU	-11.4157
▁Four	-11.4158
▁shaped	-11.4161
▁255	-11.4161
Pi	-11.4163
document	-11.4166
▁bucket	-11.4166
▁(0,2)	-11.4169
▁humor	-11.4171
uz	-11.4171
И	-11.4171
foot	-11.4172
▁Safety	-11.4172
▁wrap	-11.4172
Los	-11.4174
▁Hello	-11.4176
BO	-11.4177
rous	-11.418
▁widespread	-11.4181
▁flexibility	-11.4181
ਿਆ	-11.4183
member	-11.4186
▁128	-11.4188
oxy	-11.4189
{100}	-11.419
horn	-11.4195
8000	-11.4198
ç	-11.4198
doi	-11.4199
▁Minimum	-11.4199
▁magnet	-11.42
▁∨	-11.42
▁provision	-11.42
agged	-11.4203
▁demonstrated	-11.4203
▁winner	-11.4204
વા	-11.4205
[0,	-11.4206
▁empathy	-11.4208
▁wrapped	-11.4209
▁ignored	-11.4209
spir	-11.4211
mond	-11.4212
010	-11.4216
▁Fall	-11.4216
mode	-11.4218
▁iteration	-11.4219
▁Acc	-11.422
▁flying	-11.422
station	-11.4221
▁coupling	-11.4222
ای	-11.4227
▁employed	-11.4227
▁sophisticated	-11.4227
turn	-11.4227
▁swing	-11.4228
▁retain	-11.4228
docs	-11.4229
▁ranges	-11.4229
▁albums	-11.423
П	-11.4232
window	-11.4233
▁fold	-11.4233
▁Battle	-11.4236
UM	-11.4239
Stack	-11.424
ના	-11.424
maximum	-11.4242
▁Wednesday	-11.4243
▁pole	-11.4244
▁Travel	-11.4244
Exception	-11.4245
▁obvious	-11.4245
▁vulnerable	-11.4246
▁acknowledge	-11.4246
From	-11.4246
▁С	-11.4248
▁76	-11.4248
return	-11.4248
aro	-11.425
▁drone	-11.4252
4.0	-11.4252
▁spoke	-11.4253
▁pointer	-11.4254
UD	-11.4254
xml	-11.4255
▁trajectory	-11.4255
▁Derive	-11.4256
▁Ol	-11.4257
▁resist	-11.4257
▁–1	-11.4258
ай	-11.4258
Jo	-11.4261
▁1996	-11.4261
▁Component	-11.4265
▁convention	-11.4266
▁hip	-11.4266
ные	-11.4266
▁Lucas	-11.4267
▁wake	-11.4269
▁Apply	-11.4272
▁sees	-11.4273
▁chunk	-11.4275
ode	-11.4277
ரி	-11.4277
while	-11.4279
').	-11.4281
NET	-11.4281
▁barrier	-11.4282
▁destruction	-11.4283
▁stood	-11.4283
+8	-11.4284
CM	-11.4286
article	-11.4287
Monika	-11.429
▁Freedom	-11.429
record	-11.4291
nis	-11.4291
▁straightforward	-11.4292
щ	-11.4293
▁representative	-11.4295
ension	-11.4296
▁spec	-11.4296
▁reserve	-11.43
=14	-11.4303
9.8	-11.4303
▁gained	-11.4305
▁arranged	-11.4307
LL	-11.4309
−4	-11.4313
^2\	-11.4314
conc	-11.4315
▁9:	-11.4319
▁fusion	-11.432
▁Native	-11.4321
▁tears	-11.4321
sleep	-11.4322
▁gaze	-11.4323
▁simulate	-11.4325
▁schema	-11.4325
▁sensor	-11.4325
diff	-11.4326
▁triangles	-11.4327
نا	-11.4327
▁traditions	-11.4328
▁Electric	-11.4328
oxide	-11.4328
▁fake	-11.4329
▁permanent	-11.4329
了	-11.4329
▁Gre	-11.433
▁isomer	-11.433
▁earned	-11.4331
▁precisely	-11.4331
▁3`	-11.4332
ault	-11.4333
▁Word	-11.4334
▁به	-11.4336
▁77	-11.4341
req	-11.4341
▁falling	-11.4342
}}{1	-11.4343
VM	-11.4343
▁Conc	-11.4344
▁py	-11.4344
bun	-11.4345
200,000	-11.4345
dam	-11.4348
▁Communication	-11.4355
▁Heat	-11.4357
▁genuine	-11.4358
▁leverage	-11.4358
255	-11.4359
▁utilize	-11.4363
5.5	-11.4365
▁rarely	-11.4366
uan	-11.4366
prod	-11.4367
▁hormone	-11.4368
▁0.04	-11.4368
▁Speed	-11.4368
▁toxic	-11.4368
^-	-11.4369
▁imply	-11.4369
▁optical	-11.4369
▁logging	-11.437
enter	-11.437
▁\)**:	-11.437
"`	-11.437
▁GR	-11.4371
▁playful	-11.4371
brand	-11.4373
▁pd	-11.4374
insensitive	-11.4375
-25	-11.4377
▁roof	-11.4377
▁charm	-11.4377
Screen	-11.4377
▁consistently	-11.4381
па	-11.4381
▁equality	-11.4381
Lo	-11.4381
▁Computer	-11.4385
▁Doe	-11.4386
▁ships	-11.439
OUT	-11.439
citation	-11.4396
▁suffix	-11.4397
Rank	-11.4397
▁walks	-11.4397
Go	-11.4398
▁102	-11.4398
▁Jud	-11.4399
▁vanish	-11.4401
bio	-11.4402
▁consideration	-11.4403
ба	-11.4406
umble	-11.4408
▁enters	-11.4408
▁6]	-11.4408
"{	-11.4408
▁pitch	-11.4409
▁خ	-11.441
▁illustrate	-11.441
hold	-11.4411
fan	-11.4413
ación	-11.4413
RP	-11.4416
▁"#	-11.442
▁province	-11.4424
▁rice	-11.4425
ما	-11.4426
▁watched	-11.4426
quantity	-11.4427
▁Carl	-11.4428
▁Think	-11.4428
Block	-11.4429
▁claimed	-11.443
▁und	-11.443
rent	-11.4431
▁வி	-11.4431
channel	-11.4432
▁beats	-11.4432
▁QR	-11.4434
▁essence	-11.4434
curr	-11.4435
▁Southern	-11.4435
▁historic	-11.4436
ature	-11.4438
▁Far	-11.4438
▁$50	-11.4443
Д	-11.4443
omi	-11.4445
▁stereotypes	-11.4447
▁emit	-11.4448
ipped	-11.4448
▁Weight	-11.4449
▁singular	-11.445
ੱ	-11.4452
▁agriculture	-11.4453
ى	-11.4453
▁agreed	-11.4453
▁Lorentz	-11.4453
wind	-11.4453
▁rent	-11.4456
▁candle	-11.4458
▁dot	-11.446
▁Together	-11.4462
▁measuring	-11.4462
▁Gaussian	-11.4463
▁attendance	-11.4464
▁Operation	-11.4468
▁sought	-11.4476
▁BY	-11.4477
▁1950	-11.4478
▁0.10	-11.4478
▁regulation	-11.4479
▁Reading	-11.4481
▁excitement	-11.4481
▁married	-11.4482
▁complain	-11.4482
▁(5)	-11.4483
≡	-11.4484
▁essentially	-11.4484
▁investigate	-11.4486
▁આ	-11.4488
▁launched	-11.4488
FL	-11.449
ique	-11.449
▁elimination	-11.4491
merge	-11.4492
▁increment	-11.4494
astic	-11.4497
▁18,	-11.4497
▁cave	-11.4497
INT	-11.4499
▁retired	-11.45
aire	-11.4502
Current	-11.4503
▁પ	-11.4506
Connection	-11.4507
firm	-11.4507
strings	-11.4509
2020	-11.4511
tilde	-11.4512
▁weapon	-11.4514
2,5	-11.4516
▁governments	-11.4516
گ	-11.4516
▁cart	-11.4516
▁cylinder	-11.4517
▁torch	-11.4517
▁constructive	-11.4519
▁curr	-11.4519
▁featuring	-11.452
▁Fetch	-11.452
▁audit	-11.452
▁safely	-11.4522
▁Still	-11.4524
Card	-11.4527
aking	-11.4527
ă	-11.4529
▁parabola	-11.4529
▁tie	-11.4531
▁wavelength	-11.4532
▁injection	-11.4534
rec	-11.4538
endo	-11.4539
ங்க	-11.454
▁lighting	-11.454
▁lens	-11.4541
▁Brazil	-11.4541
▁register	-11.4541
▁bones	-11.4544
Mon	-11.4545
▁Def	-11.4547
▁transparency	-11.4548
▁lati	-11.4548
▁(2,3)	-11.4549
▁preferences	-11.4552
Ref	-11.4553
▁sweat	-11.4554
▁ctx	-11.4555
hon	-11.4555
Gen	-11.4555
▁exc	-11.4557
MB	-11.4557
▁comparing	-11.4558
aged	-11.4558
mount	-11.456
ите	-11.4561
365	-11.4566
igh	-11.4566
▁Bell	-11.4566
▁clinic	-11.4567
▁absorption	-11.4568
floor	-11.4568
▁LCM	-11.4568
▁fingers	-11.4568
ग	-11.4571
▁thereby	-11.4572
▁dominate	-11.4573
▁aimed	-11.4576
LC	-11.4576
▁vibrant	-11.4577
▁NEED	-11.4577
▁href	-11.4579
▁bigger	-11.458
▁hang	-11.458
▁headers	-11.4581
▁expanding	-11.4583
ulf	-11.4583
▁$20	-11.4584
▁programme	-11.4585
▁magazine	-11.4587
と	-11.4587
ள	-11.4587
(12)	-11.4588
▁timing	-11.4588
HER	-11.4589
ુ	-11.4596
▁occupation	-11.4596
▁Corp	-11.4597
▁EU	-11.4601
1=1	-11.4605
▁committee	-11.4606
▁commission	-11.4606
opt	-11.4607
ACT	-11.4607
డ	-11.4608
▁95%	-11.4609
▁Overall	-11.4612
▁Carbon	-11.4613
generation	-11.4614
▁ft	-11.4614
▁stops	-11.4614
▁temporary	-11.4616
▁employ	-11.4616
conf	-11.4616
▁sine	-11.4616
ão	-11.4619
▁FOR	-11.4624
Gra	-11.4625
IE	-11.4625
Char	-11.4627
▁©	-11.4627
taking	-11.4629
▁cube	-11.4633
ude	-11.4633
clear	-11.4637
^7	-11.4637
▁biology	-11.4639
▁EUR	-11.4639
▁assignments	-11.464
▁latitude	-11.464
▁98	-11.4641
▁:=	-11.4641
▁Flu	-11.4643
ν	-11.4644
......	-11.4645
▁inclusion	-11.4645
▁это	-11.4645
▁69	-11.4645
▁cache	-11.4646
▁blockchain	-11.4646
nar	-11.4646
API	-11.4647
ত	-11.4647
ẹ́	-11.4652
job	-11.4652
0.25	-11.4652
▁Story	-11.4653
▁snacks	-11.4653
YOUR	-11.4654
▁cosmic	-11.4655
▁kid	-11.4656
▁Rev	-11.4658
abi	-11.4658
▁treating	-11.4661
Field	-11.4661
3)=	-11.4663
▁dioxide	-11.4665
Feature	-11.4667
▁ref	-11.4667
oku	-11.4669
▁solely	-11.467
▁settlement	-11.467
ographic	-11.4672
▁Jacob	-11.4673
▁dividing	-11.4674
▁chloride	-11.4674
▁ම	-11.4675
bility	-11.4676
اد	-11.4677
▁Load	-11.4677
▁anywhere	-11.4677
▁Log	-11.4678
MD	-11.4679
▁Environment	-11.468
▁Hor	-11.4683
▁calendar	-11.4684
▁Van	-11.4685
▁forever	-11.4686
/8	-11.4689
▁Ear	-11.4691
[3]=2	-11.4691
▁drill	-11.4693
▁2015	-11.4693
uku	-11.4693
▁identifier	-11.4693
{11}	-11.4694
▁Doctor	-11.4695
Entry	-11.4695
▁│	-11.4695
▁Way	-11.4697
▁cooking	-11.4697
▁Vk	-11.4698
learn	-11.4699
▁Performance	-11.4702
▁Literature	-11.4703
▁wheel	-11.4704
▁heads	-11.4709
▁stocks	-11.4711
Tuple	-11.4711
▁honest	-11.4713
▁www	-11.4713
▁worst	-11.4713
1.25	-11.4714
▁actor	-11.4718
▁{1,	-11.4719
edu	-11.472
▁substances	-11.4722
ctic	-11.4722
▁twenty	-11.4723
DP	-11.4724
▁Double	-11.4727
▁healing	-11.4729
omer	-11.4729
loom	-11.473
▁supportive	-11.4731
▁Ethan	-11.4731
▁phenomenon	-11.4732
▁Mod	-11.4733
▁Za	-11.4733
▁Garden	-11.4733
_2\)	-11.4734
▁alignment	-11.4737
▁elderly	-11.4737
▁Formula	-11.4739
▁drag	-11.4739
stan	-11.4739
▁Hard	-11.4741
comp	-11.4742
=5,	-11.4742
9.99	-11.4745
002	-11.4747
▁holes	-11.4748
rch	-11.4749
▁affecting	-11.475
propto	-11.4752
TR	-11.4755
php	-11.4756
▁artistic	-11.4758
▁210	-11.476
impl	-11.4761
electric	-11.4761
PER	-11.4762
compile	-11.4762
defined	-11.4763
DM	-11.4764
gin	-11.4765
0-9	-11.4771
_0\)	-11.4772
posed	-11.4778
=13	-11.4781
IG	-11.4782
▁Turn	-11.4782
▁Statement	-11.4785
▁apple	-11.4786
eau	-11.4791
▁reliability	-11.4791
ι	-11.4791
▁hill	-11.4792
▁photons	-11.4795
▁Kar	-11.4796
▁reserved	-11.4796
aku	-11.4797
▁Highlight	-11.48
▁behaviour	-11.4801
▁identification	-11.4801
な	-11.4801
▁refrain	-11.4801
ONE	-11.4802
▁attended	-11.4804
quat	-11.4804
▁confused	-11.4806
का	-11.4808
▁exclude	-11.4809
▁ਬ	-11.4809
ggy	-11.4809
▁tumor	-11.481
▁knock	-11.4811
Max	-11.4812
▁coat	-11.4812
▁planets	-11.4818
▁Site	-11.4821
▁copper	-11.4821
queue	-11.4821
Grid	-11.4821
iro	-11.4823
▁ZIP	-11.4823
▁Sign	-11.4823
▁(17,	-11.4824
Page	-11.4826
▁GDP	-11.4826
▁Visit	-11.4827
▁celebrate	-11.4827
▁Follow	-11.4827
▁surrounded	-11.4828
▁reveals	-11.4828
ogni	-11.4829
▁violation	-11.4831
ను	-11.4835
▁Progress	-11.4836
▁sec	-11.4838
▁suppress	-11.4838
▁rooted	-11.4841
▁bonding	-11.4841
▁Manager	-11.4841
▁muscles	-11.4843
▁32)	-11.4843
GI	-11.4844
▁cook	-11.4846
▁obj	-11.4851
▁Northern	-11.4852
▁97	-11.4855
isa	-11.486
▁Whether	-11.486
^2}{2}	-11.4862
fund	-11.4862
▁icon	-11.4865
TI	-11.4866
ibi	-11.4866
▁pal	-11.4869
Tip	-11.4869
▁Tea	-11.487
▁creator	-11.4873
▁taxes	-11.4873
▁drops	-11.4876
git	-11.4877
▁Mer	-11.4877
▁websites	-11.488
▁phenomena	-11.488
KEY	-11.4881
gas	-11.4881
▁Meta	-11.4881
▁bu	-11.4885
▁accordingly	-11.4886
ट	-11.489
▁substantial	-11.489
posit	-11.489
▁enables	-11.4891
▁deployment	-11.4893
▁DC	-11.4894
▁wouldn	-11.4894
▁damaged	-11.4894
▁deck	-11.4896
ml	-11.4898
IVE	-11.4898
ො	-11.49
▁territory	-11.49
ked	-11.4901
▁notices	-11.4903
▁Daniel	-11.4904
▁classify	-11.4904
▁Vector	-11.4905
"))	-11.4906
sided	-11.4907
▁enhanced	-11.4909
▁dose	-11.4911
▁attending	-11.4911
FE	-11.4912
google	-11.4913
▁Del	-11.4914
9%	-11.4914
engine	-11.4916
mac	-11.4922
▁(1,3)	-11.4922
Group	-11.4923
▁dozen	-11.4925
▁happiness	-11.493
also	-11.493
NS	-11.4931
ride	-11.4934
default	-11.4934
▁PR	-11.4934
▁distinction	-11.4937
▁extends	-11.4938
▁Bal	-11.4941
▁dipole	-11.4941
":["	-11.4942
Explanation	-11.4944
3,4	-11.4945
css	-11.495
9999	-11.4951
▁со	-11.4951
▁expectation	-11.4952
ér	-11.4954
▁likelihood	-11.4955
}^{-1}	-11.4956
insert	-11.4957
ہ	-11.4958
▁Ask	-11.4958
如	-11.496
▁earliest	-11.496
▁gray	-11.4962
sheet	-11.4962
▁guest	-11.4963
''(	-11.4964
kle	-11.4967
▁Physical	-11.4969
பா	-11.497
▁1800	-11.4971
dar	-11.4973
science	-11.4975
gui	-11.4975
4·	-11.4976
Enter	-11.4976
▁domains	-11.4976
mass	-11.4977
า	-11.498
▁exciting	-11.498
▁sensors	-11.4982
RNA	-11.4986
Change	-11.4987
▁renowned	-11.499
▁shelter	-11.499
▁restrict	-11.4991
ML	-11.4991
Detail	-11.4994
▁grace	-11.4995
▁Extract	-11.4996
▁vapor	-11.4997
▁1.1	-11.4997
▁entering	-11.4998
▁Agent	-11.4998
▁registered	-11.5
▁Tell	-11.5002
▁approved	-11.5002
solving	-11.5002
▁synthetic	-11.5002
▁incidents	-11.5005
▁estate	-11.5005
ப	-11.5007
-10-	-11.5009
▁eats	-11.5009
▁societies	-11.501
▁va	-11.5011
{3\	-11.5012
claim	-11.5017
license	-11.5017
▁defeat	-11.5018
▁preserved	-11.5018
BI	-11.5019
▁victory	-11.502
▁Boston	-11.5021
▁honey	-11.5021
▁apps	-11.5021
▁db	-11.5023
▁patch	-11.5024
RR	-11.5025
987	-11.5027
]}}	-11.5028
▁SE	-11.5029
▁viewed	-11.503
▁`1	-11.503
▁Samuel	-11.5031
▁Agency	-11.5031
▁logo	-11.5032
boot	-11.5033
▁bowl	-11.5033
▁cyclic	-11.5034
ICE	-11.5034
▁reinforce	-11.5036
▁shadows	-11.5037
void	-11.5037
▁brave	-11.5039
▁facility	-11.504
6.67	-11.5041
▁sail	-11.5041
▁translated	-11.5042
న్న	-11.5046
▁enforce	-11.5047
wait	-11.5047
▁NULL	-11.505
ン	-11.505
oe	-11.5051
▁Linux	-11.5054
1,2,3	-11.5058
▁disp	-11.506
▁empirical	-11.506
▁છે	-11.506
bling	-11.5061
oko	-11.5062
mir	-11.5063
Har	-11.5064
lio	-11.5064
ando	-11.5064
hole	-11.5067
▁thank	-11.5068
▁hate	-11.5068
▁steam	-11.5068
layout	-11.5068
▁believes	-11.5069
ía	-11.507
0:00	-11.507
template	-11.507
▁objectives	-11.5072
▁judgment	-11.5072
rier	-11.5073
▁(9	-11.5078
▁proven	-11.5078
TC	-11.508
ക	-11.5081
ਚ	-11.5081
MR	-11.5081
called	-11.5086
coming	-11.5087
exactly	-11.5088
▁Paragraphs	-11.509
▁Analyze	-11.509
audio	-11.509
▁alongside	-11.5096
▁decreasing	-11.5097
▁mon	-11.5097
yes	-11.5098
▁aesthetic	-11.5098
▁industries	-11.5101
▁β	-11.5101
▁protective	-11.5104
▁123	-11.5104
{16}	-11.5104
**—	-11.5108
Address	-11.5109
4,6	-11.511
=15	-11.5111
▁substrings	-11.5111
▁ఉ	-11.5115
▁elevation	-11.5116
youtube	-11.5118
possibly	-11.512
▁everywhere	-11.512
320	-11.512
fc	-11.512
cin	-11.512
▁emerging	-11.5121
▁wound	-11.5122
icular	-11.5124
▁bytes	-11.5125
▁rings	-11.5127
shell	-11.5129
▁witness	-11.5134
▁closing	-11.5135
▁fever	-11.5138
▁surfaces	-11.5139
▁filters	-11.5141
prob	-11.5143
▁flux	-11.5145
▁habits	-11.5148
▁Organ	-11.515
▁Theorem	-11.5152
▁vertically	-11.5154
[2]=3	-11.5154
wiki	-11.5155
▁presents	-11.5157
rang	-11.5157
suit	-11.5158
Ca	-11.5159
Great	-11.5161
▁mail	-11.5162
ു	-11.5162
▁analyst	-11.5162
▁evolved	-11.5163
▁Random	-11.5163
him	-11.5167
▁Knight	-11.5168
▁100)	-11.5168
AV	-11.517
144	-11.5171
▁0]	-11.5171
ম	-11.5171
Scene	-11.5172
eye	-11.5173
▁2016	-11.5175
▁integrals	-11.5175
pha	-11.5176
▁restrictions	-11.5176
▁somewhere	-11.5176
▁Korean	-11.5181
reason	-11.5182
▁ghost	-11.5186
▁temple	-11.5186
ер	-11.5186
Some	-11.5192
cient	-11.5193
▁coding	-11.5197
▁Cam	-11.5199
▁gases	-11.5201
student	-11.5203
50000	-11.5203
▁nutrition	-11.5206
▁eager	-11.5207
▁Stream	-11.5207
12)	-11.5207
▁argue	-11.5207
▁saving	-11.521
▁Berlin	-11.521
▁upward	-11.5212
^+	-11.5212
≠	-11.5214
10}	-11.5214
▁carries	-11.5217
▁representations	-11.5218
▁tan	-11.5218
▁ski	-11.5219
TL	-11.522
burn	-11.5221
▁interference	-11.5224
2025	-11.5225
oph	-11.5225
See	-11.5225
args	-11.523
liter	-11.5231
▁pale	-11.5233
pairs	-11.5234
ứ	-11.5234
▁everyday	-11.5236
}^{\	-11.5237
▁Core	-11.5237
OK	-11.5238
▁Fair	-11.5238
pred	-11.5239
▁speaker	-11.5242
▁extracted	-11.5243
▁Sho	-11.5243
భ	-11.5244
story	-11.5246
ذ	-11.525
▁acceptable	-11.5251
▁uncover	-11.5251
▁ecosystem	-11.5252
ল	-11.5253
▁examination	-11.5255
▁iterative	-11.5255
0001	-11.5256
▁cited	-11.5256
▁°	-11.5257
▁Merc	-11.5259
blo	-11.5259
▁HTTP	-11.5259
▁organisms	-11.5259
oot	-11.5261
▁selecting	-11.5261
▁Stone	-11.5262
RED	-11.5262
eil	-11.5265
▁Self	-11.5265
▁tract	-11.5266
analysis	-11.5267
▁occupied	-11.527
References	-11.5272
ule	-11.5272
▁Perhaps	-11.5273
HE	-11.5274
▁Within	-11.5275
_8	-11.5276
zip	-11.5276
▁desert	-11.5278
▁twin	-11.5278
▁`8`	-11.5279
▁performs	-11.528
▁printing	-11.5281
thro	-11.5281
interest	-11.5281
▁Historical	-11.5283
zen	-11.5283
▁ignoring	-11.5284
▁Columbia	-11.5285
▁src	-11.5286
▁Net	-11.5286
scape	-11.5289
mask	-11.529
▁Ọ	-11.529
▁yielding	-11.529
ital	-11.5291
[6]=1	-11.5292
▁sal	-11.5293
7.0	-11.5293
145	-11.5295
▁bump	-11.5297
▁Flower	-11.5299
atur	-11.5299
▁defines	-11.53
▁burning	-11.5303
▁prison	-11.5304
▁sword	-11.5304
▁campaigns	-11.5305
ный	-11.5307
uation	-11.5309
▁calling	-11.5311
/2)	-11.5312
tte	-11.5314
▁shoes	-11.5315
▁doctors	-11.5315
perfect	-11.5315
nia	-11.5316
▁5\	-11.5318
5},	-11.5318
▁Physics	-11.5319
ington	-11.5323
▁finger	-11.5325
▁husband	-11.5327
aut	-11.533
▁filename	-11.5333
{1}{2}\	-11.5336
▁Regular	-11.5336
ư	-11.5337
▁gate	-11.5338
▁hypo	-11.534
lust	-11.5341
{25}	-11.5343
izar	-11.5343
ම්	-11.5344
igo	-11.5346
three	-11.5352
2.4	-11.5354
▁Jun	-11.5354
▁BC	-11.5356
▁politician	-11.5358
Work	-11.5359
articles	-11.536
.)*	-11.5363
▁restore	-11.5363
▁unity	-11.5363
▁74	-11.5365
لي	-11.5365
stra	-11.5367
▁intent	-11.5369
▁macro	-11.537
▁suspect	-11.537
shop	-11.5375
logical	-11.5375
chars	-11.5376
▁linguistic	-11.5377
▁Engineering	-11.5378
▁friction	-11.5379
▁occurring	-11.5381
header	-11.5381
aan	-11.5383
▁norms	-11.5386
▁extraction	-11.5389
▁Atlantic	-11.5389
▁Conservation	-11.5389
▁Intelligence	-11.5389
▁PDF	-11.5391
▁Subject	-11.5391
▁enzyme	-11.5391
arrow	-11.5392
రి	-11.5393
▁Definition	-11.5396
▁climb	-11.5398
вер	-11.5398
▁illustration	-11.54
▁mystery	-11.54
▁до	-11.5402
▁31)	-11.5403
▁sci	-11.5404
⌋	-11.5404
▁sọ	-11.5405
General	-11.5405
ть	-11.5405
▁мо	-11.5406
longest	-11.5408
itter	-11.5409
▁Drive	-11.541
agent	-11.5411
▁alarm	-11.5413
ц	-11.5414
hara	-11.5415
System	-11.5415
2013	-11.5416
4+	-11.542
▁worried	-11.5421
cult	-11.5423
▁700	-11.5427
▁0.20	-11.5429
Cu	-11.5429
வி	-11.543
tuple	-11.543
▁cholesterol	-11.5431
▁256	-11.5432
▁React	-11.5432
▁corrected	-11.5433
▁130	-11.5435
loads	-11.5436
▁`2`	-11.5436
▁ETH	-11.5436
▁Strategy	-11.5437
connecting	-11.5438
}^3	-11.544
Component	-11.5441
▁Specifically	-11.5442
▁Pair	-11.5442
▁reject	-11.5447
ider	-11.5448
▁phases	-11.5449
▁emails	-11.5449
▁(0,0)	-11.5449
polar	-11.545
raw	-11.5451
=16	-11.5451
দ	-11.5452
▁racial	-11.5452
▁Quick	-11.5452
▁Paragraph	-11.5453
[1]=3	-11.5455
▁delta	-11.5455
▁minimized	-11.546
▁thrill	-11.546
▁aggressive	-11.5463
▁intrinsic	-11.5463
▁ratings	-11.5463
్య	-11.5465
▁varies	-11.5466
▁um	-11.5466
coding	-11.5468
`),	-11.5471
▁emphasizing	-11.5473
▁chose	-11.5474
ਦਾ	-11.5477
▁counting	-11.5478
▁rev	-11.5481
▁definitely	-11.5481
song	-11.5482
▁tourist	-11.5483
▁courage	-11.5484
▁murder	-11.5484
▁ప్ర	-11.5484
▁revealing	-11.5484
▁cooperation	-11.5484
▁dropped	-11.5485
▁factory	-11.5485
2022	-11.5485
files	-11.5488
calc	-11.5488
લ	-11.5488
▁*/	-11.5489
▁Golden	-11.5491
▁Geo	-11.5493
ெ	-11.5494
circle	-11.5494
▁Jordan	-11.5494
▁weird	-11.5495
▁acres	-11.55
▁Platform	-11.55
▁mentor	-11.5503
▁अ	-11.5503
encies	-11.5504
▁earthquake	-11.5505
▁Minister	-11.5506
▁traits	-11.5509
param	-11.551
▁50,000	-11.5511
▁commit	-11.5511
inclusive	-11.5513
friend	-11.5513
future	-11.5513
▁contents	-11.5513
Cell	-11.5514
▁ambulance	-11.5515
▁atmospheric	-11.5515
▁collects	-11.5516
▁Left	-11.5517
{0}	-11.552
30,000	-11.5521
▁engaged	-11.5521
▁Georgia	-11.5526
▁refine	-11.5528
▁warmth	-11.5529
▁Label	-11.5533
copy	-11.5533
▁..."},	-11.5534
▁afford	-11.5534
555	-11.5535
බ	-11.5536
original	-11.5536
▁composite	-11.5537
jọ	-11.5537
0.03	-11.5538
▁initiative	-11.5539
▁Population	-11.554
▁stats	-11.554
venue	-11.554
▁Conditions	-11.5544
health	-11.5545
▁cable	-11.5546
च	-11.5547
▁Town	-11.5547
▁energies	-11.5547
▁smoking	-11.5547
ethyl	-11.5547
▁alright	-11.5548
▁drives	-11.5548
▁consist	-11.5549
▁indicated	-11.5553
asc	-11.5554
cla	-11.5554
frequency	-11.5556
standard	-11.5557
▁Hebrew	-11.5558
▁burden	-11.5558
}{3}\	-11.5558
▁apparent	-11.5559
▁Rob	-11.5561
▁``	-11.5561
▁numpy	-11.5563
▁complicated	-11.5565
▁lip	-11.5565
Jane	-11.5565
▁bx	-11.5566
period	-11.5567
▁scrap	-11.5569
▁Titan	-11.5571
109	-11.5572
▁Was	-11.5573
195	-11.5574
lau	-11.5575
▁consumed	-11.5575
▁Wild	-11.5575
▁92	-11.5576
▁rigorous	-11.5576
▁notion	-11.5576
tional	-11.5577
بر	-11.5579
ટ	-11.5579
▁බ	-11.558
Select	-11.558
▁emphasize	-11.558
▁Clean	-11.558
fact	-11.5583
▁upload	-11.5585
resistant	-11.5586
▁duty	-11.5586
alia	-11.5587
own	-11.5587
RAM	-11.5589
pent	-11.5592
(2*	-11.5592
▁$7	-11.5593
quote	-11.5593
▁shore	-11.5594
cross	-11.5595
▁interventions	-11.5598
▁complement	-11.5599
vision	-11.5599
ся	-11.56
Manager	-11.56
msg	-11.56
mix	-11.5602
▁modules	-11.5603
▁folk	-11.5604
ée	-11.5605
▁alphabet	-11.5609
▁Invest	-11.561
prev	-11.561
▁initialize	-11.561
▁writes	-11.5611
▁heating	-11.5611
ْ	-11.5611
▁parametric	-11.5612
▁actors	-11.5612
▁founded	-11.5612
▁textbook	-11.5613
electron	-11.5614
▁configurations	-11.5615
/10.1	-11.5617
·3	-11.5618
▁(-1)	-11.5618
▁[1	-11.5623
enne	-11.5625
FO	-11.5625
Extra	-11.5626
UP	-11.5628
5°	-11.5628
▁orbitals	-11.5628
▁Einstein	-11.5629
▁Mix	-11.5629
eva	-11.5629
▁converts	-11.563
198	-11.5631
▁chains	-11.5633
▁tunnel	-11.5633
=1}^{10}	-11.5633
▁literal	-11.5634
udd	-11.5636
▁photograph	-11.5641
▁centered	-11.5643
compute	-11.5643
though	-11.5644
{100	-11.5644
United	-11.5645
нов	-11.5646
▁€	-11.5649
▁fitness	-11.565
HR	-11.5653
14)	-11.5654
▁constitute	-11.5654
indices	-11.5655
nothing	-11.5655
▁Abstract	-11.5656
ulu	-11.5658
operation	-11.5658
ර්	-11.5659
▁sm	-11.5662
▁2*	-11.5662
ор	-11.5662
pore	-11.5664
る	-11.5664
ડ	-11.5665
▁sculpture	-11.5665
raz	-11.5667
6,000	-11.5668
ought	-11.5668
NF	-11.5669
oro	-11.5669
▁interviews	-11.5669
▁Little	-11.5671
Web	-11.5672
▁Dev	-11.5675
▁transparent	-11.5676
NP	-11.5677
ramp	-11.5678
▁acceptance	-11.5678
▁sits	-11.568
bell	-11.5682
▁350	-11.5683
ción	-11.5683
Solve	-11.5683
▁highlighting	-11.5684
这	-11.5686
▁Administration	-11.5686
▁cyber	-11.5686
iki	-11.5687
fusion	-11.5689
▁pathways	-11.5689
GL	-11.5691
MAX	-11.5691
240	-11.5693
▁displayed	-11.5693
▁loops	-11.5695
▁athlete	-11.5697
▁bull	-11.5697
▁Scene	-11.5698
got	-11.5702
▁influences	-11.5703
▁zones	-11.5703
ounce	-11.5705
▁Target	-11.5707
ο	-11.5707
▁achieving	-11.5708
▁calcium	-11.5708
ease	-11.5709
Power	-11.571
master	-11.5711
)^3	-11.5711
▁Fat	-11.5714
▁Brand	-11.5717
▁Jersey	-11.5718
▁anchor	-11.5719
▁Solar	-11.5721
except	-11.5722
▁Fast	-11.5723
▁eco	-11.5724
ట	-11.5725
▁94	-11.5725
apa	-11.5725
inated	-11.5728
▁approval	-11.5729
▁flatten	-11.573
family	-11.5732
జ	-11.5732
▁infant	-11.5733
▁ruin	-11.5734
▁Coast	-11.5735
▁क	-11.5737
Moles	-11.5738
3.0	-11.5739
▁squared	-11.5739
▁Feel	-11.574
▁pie	-11.5741
▁greenhouse	-11.5742
▁downward	-11.5742
▁coin	-11.5746
chat	-11.5748
▁Neuro	-11.5748
^2}{2	-11.575
container	-11.5754
▁engines	-11.5757
▁gu	-11.5757
▁violent	-11.5758
▁0.001	-11.5758
hit	-11.5759
mont	-11.5761
▁empire	-11.5762
equation	-11.5764
▁Possible	-11.5764
doe	-11.5766
10000	-11.5767
▁issued	-11.5767
3.33	-11.5771
oto	-11.5772
▁Memory	-11.5773
்	-11.5774
▁req	-11.5777
▁splitting	-11.5778
▁Bull	-11.5778
▁operates	-11.5779
▁converting	-11.5781
▁advertising	-11.5783
▁spherical	-11.5783
▁biggest	-11.5784
▁divine	-11.5784
▁invariant	-11.5785
▁Horse	-11.5785
▁ties	-11.579
▁mini	-11.5792
ה	-11.5794
▁Unfortunately	-11.5794
iri	-11.5797
▁با	-11.5798
0–2	-11.5798
decreasing	-11.5799
▁seasons	-11.5799
▁diagram	-11.5802
chloro	-11.5803
▁darkness	-11.5805
▁radial	-11.5805
▁dual	-11.5806
particle	-11.581
▁10^6	-11.581
ether	-11.581
render	-11.581
▁Maya	-11.5811
▁Books	-11.5812
▁Unlike	-11.5812
▁[7,	-11.5813
tip	-11.5813
▁Array	-11.5813
▁upgrade	-11.5816
▁stopped	-11.5818
▁Cup	-11.5819
▁minus	-11.5821
▁1–2	-11.5824
▁1993	-11.5824
▁unlike	-11.5826
▁archive	-11.5826
下	-11.5826
▁COM	-11.5827
gain	-11.5827
▁Treatment	-11.5829
gress	-11.5829
▁/*	-11.5829
▁rocks	-11.583
▁poems	-11.5831
▁traveling	-11.5832
▁splits	-11.5832
}{3	-11.5835
▁Trust	-11.5835
▁AWS	-11.5838
▁definitions	-11.584
▁shifting	-11.584
▁contexts	-11.5841
▁jẹ	-11.5841
▁Islam	-11.5841
▁config	-11.5843
lement	-11.5844
buffer	-11.5844
▁whenever	-11.5844
▁Frank	-11.5844
▁80%	-11.5846
▁එ	-11.5846
▁shut	-11.5848
▁balloon	-11.585
▁crash	-11.5851
cop	-11.5852
"""	-11.5853
rọ	-11.5853
▁exhibition	-11.5855
German	-11.5856
று	-11.5856
Integr	-11.5858
▁infinity	-11.586
▁pandas	-11.586
anna	-11.5864
▁pride	-11.5867
▁subarrays	-11.5867
▁protons	-11.5869
▁colonial	-11.5869
▁pr	-11.587
▁formulation	-11.5871
▁mere	-11.5871
inate	-11.5872
▁Collect	-11.5875
▁pace	-11.5876
▁Victoria	-11.5878
chen	-11.5881
ළ	-11.5882
▁sklearn	-11.5882
Thread	-11.589
chan	-11.5892
cultural	-11.5895
▁kilograms	-11.5898
▁म	-11.5898
▁Present	-11.5898
▁quest	-11.59
▁victims	-11.59
design	-11.5904
uru	-11.5906
▁Linear	-11.5906
▁pause	-11.5906
▁providers	-11.5908
▁2017	-11.5908
▁scroll	-11.5913
▁$12	-11.5915
Back	-11.5915
▁ill	-11.5916
[0]=2	-11.5917
▁Application	-11.5917
▁glowing	-11.5922
=4:	-11.5924
]))	-11.5924
প	-11.5926
▁appointment	-11.5926
▁resemble	-11.5926
▁encrypted	-11.5926
▁banks	-11.5926
2>	-11.5926
GC	-11.5927
?!	-11.5929
glyc	-11.5935
Base	-11.5937
▁Result	-11.5939
▁raising	-11.5942
when	-11.5942
▁islands	-11.5943
▁Joe	-11.5944
▁mice	-11.5945
▁Dark	-11.5945
pole	-11.5946
▁institution	-11.5946
▁bonus	-11.5948
▁emission	-11.5953
▁reflected	-11.5953
▁\$1	-11.5955
Health	-11.5955
dynamic	-11.5956
income	-11.5957
sync	-11.5958
sec	-11.5959
▁cupcakes	-11.5959
▁enemies	-11.5959
9.0	-11.596
▁excessive	-11.596
Tech	-11.596
powered	-11.5961
▁restored	-11.5962
rio	-11.5962
Ver	-11.5962
▁ik	-11.5963
▁(1-	-11.5966
}_1	-11.5967
ively	-11.5968
▁Hair	-11.5971
aught	-11.5971
publish	-11.5971
▁thu	-11.5972
▁attain	-11.5974
Module	-11.5975
▁LI	-11.5976
quarter	-11.5976
▁1992	-11.5978
▁prayer	-11.5978
▁॥	-11.5978
▁accounting	-11.5979
▁decreased	-11.5979
▁html	-11.5979
▁pathway	-11.5979
▁Sound	-11.598
对	-11.598
▁enhancing	-11.5981
▁apartment	-11.5982
▁persistent	-11.5983
▁dim	-11.5983
Milla	-11.5984
hun	-11.5985
▁Nick	-11.5987
тор	-11.599
▁Kat	-11.599
Big	-11.599
solution	-11.5991
196	-11.5991
equal	-11.5992
大	-11.5992
▁eastern	-11.5993
▁(20	-11.5993
వా	-11.5994
▁pat	-11.5997
▁Thursday	-11.5997
▁Five	-11.5997
chemical	-11.5998
▁streams	-11.5998
▁Saint	-11.6
FI	-11.6002
5.6	-11.6004
rule	-11.6005
▁addressed	-11.6007
▁ounces	-11.6008
▁spots	-11.6008
▁Pol	-11.6012
σ	-11.6013
history	-11.6014
Р	-11.6014
▁Different	-11.6014
▁carbons	-11.6015
▁Critical	-11.6016
question	-11.6018
▁rocket	-11.6018
love	-11.6018
▁ਦੀ	-11.6019
ਵਾ	-11.6019
102	-11.602
=20	-11.602
▁lexicographical	-11.6022
ios	-11.6022
▁jar	-11.6025
▁council	-11.6025
▁philosophical	-11.6025
▁Several	-11.6025
▁denoted	-11.6026
▁2:**	-11.6028
▁deter	-11.6029
lov	-11.6029
▁Egyptian	-11.6031
▁Santa	-11.6032
▁73	-11.6033
▁protagonist	-11.6036
smallest	-11.6037
apped	-11.6038
▁enforcement	-11.6038
Free	-11.6039
▁justify	-11.604
scription	-11.604
1.6	-11.6041
▁landing	-11.6042
lur	-11.6042
▁photographs	-11.6042
school	-11.6046
Dynamic	-11.6046
▁volunteer	-11.6049
▁Reg	-11.605
▁busy	-11.6053
▁Increase	-11.6053
▁т	-11.6053
rush	-11.6053
lk	-11.6054
▁feeding	-11.6054
flat	-11.6055
▁pushing	-11.6055
fin	-11.6056
▁Strong	-11.6058
▁COVID	-11.6059
entry	-11.6062
280	-11.6063
▁depict	-11.6063
binary	-11.6063
▁Ur	-11.6066
▁Experiment	-11.6066
сь	-11.6066
Post	-11.6067
pression	-11.6068
▁>>>	-11.6069
学	-11.6069
▁experiencing	-11.607
▁Spirit	-11.607
▁می	-11.607
▁LA	-11.6071
▁1.6	-11.6071
standing	-11.6072
▁Advanced	-11.6073
sun	-11.6073
888	-11.6075
▁mile	-11.6076
cute	-11.6078
ਰਾ	-11.6078
▁(18,	-11.6078
▁speakers	-11.6079
▁`(0,	-11.608
ું	-11.6081
▁ellipse	-11.6081
▁maximizing	-11.6081
▁alliance	-11.6081
λ	-11.6081
▁invert	-11.6086
▁analyzed	-11.6086
▁emphasizes	-11.6089
▁1991	-11.6089
▁recursion	-11.6092
rash	-11.6093
epoch	-11.6093
▁mimic	-11.6093
Good	-11.6094
▁Features	-11.6098
▁shots	-11.6098
11)	-11.6099
▁Mid	-11.6101
▁decode	-11.6103
ğ	-11.6103
package	-11.6104
ස්	-11.6105
▁authentic	-11.6111
▁las	-11.6111
▁Movement	-11.6113
▁nest	-11.6114
ඩ	-11.6115
ấ	-11.6115
III	-11.6118
▁confirming	-11.6119
▁tiles	-11.6119
allow	-11.6121
▁banana	-11.6122
▁elsewhere	-11.6122
1.8	-11.6124
▁formulate	-11.6124
▁cows	-11.6125
loop	-11.6125
▁pill	-11.6125
▁governance	-11.6126
π	-11.6127
▁[10,	-11.6128
▁79	-11.6129
San	-11.6132
▁{3,	-11.6133
stat	-11.6134
▁Sil	-11.6135
▁armor	-11.6136
▁bind	-11.6136
Dignity	-11.6137
▁releases	-11.6142
▁Repeat	-11.6143
▁VK	-11.6145
▁(1,1)	-11.6146
poly	-11.6146
▁similarity	-11.6148
ди	-11.6148
化	-11.6148
▁Movie	-11.6149
▁laptop	-11.6149
▁Wilson	-11.6149
▁Acid	-11.615
Controller	-11.6151
counter	-11.6151
▁под	-11.6152
▁dive	-11.6152
▁dependence	-11.6153
reach	-11.6158
▁speeds	-11.6159
▁willing	-11.616
▁Iron	-11.616
SR	-11.6161
▁vessels	-11.6165
–10	-11.6167
▁Okay	-11.6167
▁dishes	-11.6167
▁ж	-11.6168
^8	-11.6168
▁ي	-11.6168
▁sad	-11.6169
▁gains	-11.6169
▁cuts	-11.617
▁Stra	-11.617
]],	-11.617
ود	-11.6171
▁identifies	-11.6171
▁Arab	-11.6171
▁coastal	-11.6172
▁Later	-11.6172
→7	-11.6172
▁graphics	-11.6172
▁substituents	-11.6173
875	-11.6177
chem	-11.6179
'))	-11.6179
▁fishing	-11.6181
▁evolve	-11.6181
connect	-11.6182
▁sulfur	-11.6182
{9}	-11.6183
▁Had	-11.6183
▁submit	-11.6189
▁86	-11.6189
▁Pur	-11.619
[9])	-11.6191
▁mud	-11.6192
▁aromatic	-11.6194
party	-11.6194
▁*"	-11.6194
▁Matthew	-11.6194
▁inherently	-11.6194
▁secrets	-11.6195
may	-11.6196
▁Band	-11.6201
uki	-11.6202
ista	-11.6202
▁Psych	-11.6205
▁Range	-11.6205
▁generic	-11.6206
temperature	-11.6208
ulated	-11.6211
▁01	-11.6212
▁'*'	-11.6212
hot	-11.6213
deal	-11.6213
▁actively	-11.6215
luc	-11.6216
ви	-11.6216
▁Meanwhile	-11.6216
▁BI	-11.6222
▁strengths	-11.6222
▁mess	-11.6223
▁pseudo	-11.6224
▁tra	-11.6224
▁induced	-11.6227
▁edit	-11.6228
trim	-11.6229
▁Tools	-11.6229
{24}	-11.6233
▁spreading	-11.6235
160	-11.6235
6000	-11.6236
Maximize	-11.6239
▁colored	-11.6241
▁mor	-11.6241
▁clusters	-11.6244
2.1	-11.6246
Queue	-11.6246
short	-11.6249
ෝ	-11.625
▁incorporating	-11.625
▁legislation	-11.625
▁lit	-11.625
▁steal	-11.6251
▁71	-11.6252
▁$200	-11.6254
ज	-11.6255
surface	-11.6255
century	-11.6256
▁0.08	-11.6258
▁સ	-11.6258
Em	-11.6259
▁rough	-11.626
3.6	-11.6264
▁perturbation	-11.6264
buy	-11.6264
ITY	-11.6265
4.8	-11.6266
▁Azure	-11.6266
events	-11.6267
Super	-11.6267
▁emotion	-11.6269
▁Elizabeth	-11.627
▁$10,000	-11.627
▁Bang	-11.6271
▁baseline	-11.6272
▁alkyl	-11.6273
umi	-11.6274
ín	-11.6276
ugu	-11.6277
sentence	-11.6278
choice	-11.6279
▁Holy	-11.628
▁occasionally	-11.628
▁travels	-11.628
▁IV	-11.6281
▁peaceful	-11.6284
varepsilon	-11.6286
▁Death	-11.6289
▁ре	-11.629
▁asset	-11.6292
formed	-11.6293
▁1.8	-11.6296
ō	-11.6296
▁pursue	-11.6296
Case	-11.6296
▁defining	-11.6297
▁chips	-11.6298
▁sep	-11.6298
wall	-11.6298
▁ME	-11.6298
▁towns	-11.6299
▁oct	-11.63
▁img	-11.6302
▁mock	-11.6302
▁cal	-11.6305
ат	-11.6306
▁Arm	-11.6308
▁parentheses	-11.6309
-13	-11.631
SN	-11.6311
▁shopping	-11.6311
▁Sequence	-11.6312
delete	-11.6312
bottom	-11.6314
','	-11.6314
▁dash	-11.6314
tooth	-11.6315
▁Contact	-11.6316
▁communications	-11.6317
▁embedded	-11.6319
▁navigation	-11.6319
▁treasure	-11.6319
users	-11.6319
^{10}	-11.6319
▁executed	-11.6321
▁noun	-11.6321
▁2500	-11.6322
▁Mrs	-11.6322
▁stamp	-11.6323
bẹ	-11.6324
▁sectors	-11.6327
▁Condition	-11.6327
Swap	-11.6327
▁wise	-11.6327
ده	-11.6328
▁socio	-11.6329
▁Studio	-11.633
▁receptor	-11.633
▁adjustments	-11.6331
▁flour	-11.6331
▁preference	-11.6332
▁ketone	-11.6332
▁venue	-11.6332
olu	-11.6337
μ	-11.6337
aker	-11.6338
你	-11.6341
▁stays	-11.6342
ਡ	-11.6342
ств	-11.6343
▁investments	-11.6343
▁Alexander	-11.6344
build	-11.6347
▁mining	-11.6349
▁workplace	-11.6349
prov	-11.6352
▁entrance	-11.6353
▁storytelling	-11.6353
▁priest	-11.6354
cular	-11.6355
▁MI	-11.6355
▁Stay	-11.6356
▁succeed	-11.6357
▁molar	-11.6358
(20)	-11.636
lah	-11.636
Energy	-11.6361
ма	-11.6361
▁Lewis	-11.6365
▁sketch	-11.6365
▁Event	-11.6366
0–3	-11.6367
▁$0	-11.6367
tools	-11.6371
▁fluctuations	-11.6371
▁Tips	-11.6372
5,6	-11.6372
Local	-11.6374
lian	-11.6375
cam	-11.6375
GET	-11.6375
▁funny	-11.6375
▁notable	-11.6376
▁Dictionary	-11.6376
▁vocabulary	-11.6376
▁fees	-11.6378
▁Period	-11.6378
esse	-11.6379
agan	-11.638
DC	-11.6382
▁MS	-11.6383
topic	-11.6384
▁protecting	-11.6387
▁Fashion	-11.6388
▁supplier	-11.6388
▁Writing	-11.6388
▁roads	-11.6388
▁Arctic	-11.6388
2.8	-11.6389
▁transforms	-11.639
half	-11.6392
▁Cover	-11.6392
▁Wo	-11.6393
▁Newton	-11.6393
Hydro	-11.6395
▁rabbit	-11.6396
security	-11.6396
▁Combining	-11.6399
▁cartoon	-11.64
▁sibling	-11.64
▁ultimate	-11.6401
▁fleet	-11.6404
▁notation	-11.6406
poli	-11.6406
_{12}	-11.6408
▁encode	-11.641
▁BE	-11.6411
▁Indonesia	-11.6415
▁clue	-11.6416
3.2	-11.6416
▁Yellow	-11.642
▁Handle	-11.642
Label	-11.6422
▁Pla	-11.6422
▁Upon	-11.6423
▁substrate	-11.6423
га	-11.6424
▁Following	-11.6427
▁Lady	-11.6427
మా	-11.6428
▁Mia	-11.6429
▁Culture	-11.643
සි	-11.6431
▁Ash	-11.6431
double	-11.6431
▁pixels	-11.6432
▁EM	-11.6433
▁electromagnetic	-11.6434
▁dispute	-11.6435
▁encoding	-11.6435
ologists	-11.6435
activate	-11.6435
=0}^{	-11.6435
▁Mother	-11.6436
▁các	-11.6437
anger	-11.6437
▁cols	-11.6438
▁Box	-11.6439
▁nonlinear	-11.644
was	-11.6441
▁fart	-11.6442
Tag	-11.6446
▁Connect	-11.6447
worth	-11.6447
▁slice	-11.6448
▁rot	-11.6449
▁Email	-11.6449
▁posted	-11.645
▁settle	-11.6451
▁Trade	-11.6452
ту	-11.6452
▁CPU	-11.6455
gbe	-11.6456
ees	-11.6456
▁Pakistan	-11.6457
▁expenditure	-11.6457
NAME	-11.6458
Over	-11.6459
▁Down	-11.6459
▁mountains	-11.646
▁rendering	-11.646
2.3	-11.6462
ય	-11.6463
▁ears	-11.6463
128	-11.6465
978	-11.6466
▁exceptions	-11.6466
▁differently	-11.6467
}^-	-11.6468
"}]	-11.6468
▁ఆ	-11.6468
▁Scott	-11.6468
TT	-11.647
▁Member	-11.6472
uke	-11.6473
▁luck	-11.6474
▁whitespace	-11.6475
▁mas	-11.6475
40,000	-11.6477
▁login	-11.648
alan	-11.648
▁anime	-11.6481
▁replacing	-11.6482
▁athletes	-11.6487
▁wooden	-11.6488
AU	-11.6489
▁fantasy	-11.6492
▁sacrifice	-11.6492
ને	-11.6493
aze	-11.6493
stick	-11.6496
▁Effects	-11.6496
▁Quality	-11.6497
▁Ham	-11.65
▁(12	-11.6501
00000000	-11.6502
▁contradiction	-11.6503
▁advisor	-11.6504
bab	-11.6504
▁1920	-11.6506
ache	-11.6508
▁joke	-11.6511
▁conversations	-11.6512
▁Near	-11.6512
ł	-11.6516
▁Blood	-11.6516
мо	-11.6516
john	-11.6516
rov	-11.6517
▁Researchers	-11.6517
rom	-11.6517
▁beans	-11.6518
wal	-11.652
▁fragment	-11.6522
▁0):	-11.6522
360	-11.6522
▁Wikipedia	-11.6522
▁Collection	-11.6523
▁Spec	-11.6525
+9	-11.6528
chrom	-11.6529
▁ranging	-11.6529
165	-11.6529
Ph	-11.653
ily	-11.653
gba	-11.6531
▁∑_{	-11.6531
3.8	-11.6531
hill	-11.6534
[4]=2	-11.6535
225	-11.6537
hou	-11.6538
▁diff	-11.6538
▁introducing	-11.6539
▁relativity	-11.6539
▁Equations	-11.6539
▁Steve	-11.654
▁rect	-11.654
safe	-11.654
▁Gas	-11.6542
musician	-11.6544
▁startup	-11.6544
chin	-11.6544
▁multiplying	-11.6544
abilities	-11.6544
▁Effective	-11.6545
▁personnel	-11.6549
▁или	-11.6549
要	-11.6551
▁decomposition	-11.6551
Style	-11.6552
_1(	-11.6552
▁Louis	-11.6553
▁Details	-11.6556
▁$100	-11.6557
download	-11.6558
wen	-11.6559
-2-	-11.6559
GR	-11.656
▁Location	-11.6561
本	-11.6562
▁trembling	-11.6562
▁Ireland	-11.6563
▁covariance	-11.6563
▁rub	-11.6564
▁flame	-11.6567
▁(-2)	-11.6569
Wal	-11.6569
▁111	-11.6571
▁Est	-11.6571
mpl	-11.6573
માં	-11.6574
▁rigid	-11.6575
disjoint	-11.6575
▁obstacles	-11.6576
▁invite	-11.6579
▁Course	-11.6579
▁что	-11.6586
▁Lincoln	-11.6586
▁binomial	-11.6586
▁Justice	-11.6589
natural	-11.6589
▁insist	-11.659
▁resulted	-11.659
▁shoot	-11.659
▁explanations	-11.6592
Host	-11.6592
QU	-11.6593
{0.1	-11.6594
pur	-11.6595
▁canal	-11.6595
▁seal	-11.6596
▁Radio	-11.6597
views	-11.6597
▁÷	-11.6597
▁officers	-11.6598
▁erroneous	-11.6598
▁chiral	-11.6599
Click	-11.6599
▁evenly	-11.66
cb	-11.6602
▁topological	-11.6603
▁adjustment	-11.6603
▁stereo	-11.6605
▁Constant	-11.6606
▁similarly	-11.6606
hom	-11.6606
Role	-11.6606
Effect	-11.6608
▁Если	-11.6608
ATE	-11.6609
▁slip	-11.6609
时	-11.6609
há	-11.6609
env	-11.6611
fat	-11.6613
7,8	-11.6613
▁delight	-11.6616
reservation	-11.6616
▁rope	-11.6619
▁Never	-11.6622
▁filling	-11.6623
▁(20,	-11.6623
▁bands	-11.6624
Column	-11.6624
Level	-11.6624
still	-11.6626
▁Status	-11.663
▁viewers	-11.6632
▁sheets	-11.6632
Apple	-11.6633
tutorial	-11.6634
▁Father	-11.6634
▁Adventure	-11.6634
osa	-11.6635
posing	-11.6636
▁curl	-11.6637
اب	-11.6639
▁balls	-11.6641
Close	-11.6643
▁Boy	-11.6644
▁discriminant	-11.6645
▁Bond	-11.6646
▁scream	-11.6646
▁repeatedly	-11.6656
problems	-11.6656
▁rescue	-11.6657
▁87	-11.6658
EMA	-11.6659
▁3.0	-11.6663
▁undergo	-11.6665
▁analyses	-11.6666
▁scholars	-11.6669
▁mL	-11.6669
350	-11.6672
▁Mari	-11.6672
ubi	-11.6673
▁Dream	-11.6676
▁Hero	-11.6678
▁belonging	-11.6678
seconds	-11.668
▁sinusoidal	-11.6681
ની	-11.6681
▁Protection	-11.6683
▁evolutionary	-11.6685
▁demonstrates	-11.6686
స్	-11.6686
▁doors	-11.6686
▁involvement	-11.6686
▁birthday	-11.6688
gia	-11.6689
▁compromise	-11.6693
▁Edward	-11.6694
6,7	-11.6698
ân	-11.6698
▁inspire	-11.6699
stage	-11.6701
Monitor	-11.6704
▁editing	-11.6706
ము	-11.6706
▁conceptual	-11.6706
3,5	-11.6707
té	-11.6707
phrase	-11.6708
▁bars	-11.6709
asp	-11.6711
":"{\	-11.6713
▁Again	-11.6716
thumbnail	-11.6716
whisper	-11.6717
▁plasma	-11.6717
▁Lab	-11.6717
▁systematically	-11.6718
▁county	-11.6719
▁10^9	-11.6719
▁longitude	-11.6719
▁cooling	-11.6721
keyword	-11.6725
880	-11.6726
ள்	-11.6726
▁lag	-11.6732
ometric	-11.6733
ours	-11.6736
▁Single	-11.6737
ình	-11.6741
Flag	-11.6745
owl	-11.6746
▁advantages	-11.6746
▁guy	-11.6747
interval	-11.6748
作	-11.6752
▁ourselves	-11.6752
▁lots	-11.6753
▁arrow	-11.6755
▁கா	-11.6756
lime	-11.6756
▁ranking	-11.6756
worthy	-11.6758
|^2	-11.6759
▁inequalities	-11.6764
▁swimming	-11.6764
▁animated	-11.6765
▁encoded	-11.6765
stand	-11.6766
▁`4`	-11.6768
▁acute	-11.677
▁stickers	-11.677
▁drivers	-11.6771
▁(15	-11.6774
▁engineers	-11.6774
▁tape	-11.6775
▁Engineer	-11.6775
/6	-11.6776
▁grammar	-11.6776
▁psychology	-11.6776
▁breakfast	-11.6777
▁stake	-11.6777
▁patent	-11.6778
yne	-11.6778
прав	-11.6779
▁creature	-11.678
ется	-11.6781
▁Potential	-11.6782
component	-11.6782
▁logs	-11.6785
▁Mat	-11.6787
gene	-11.6787
oking	-11.6788
▁Vietnam	-11.6788
分	-11.6788
▁guitar	-11.6788
ਤੇ	-11.6789
▁sing	-11.6789
ري	-11.679
▁пере	-11.679
▁swaps	-11.6794
shot	-11.6795
▁struggles	-11.6796
ਉ	-11.6797
prefix	-11.6797
▁elected	-11.6799
▁catalyst	-11.68
▁residue	-11.68
▁tattoo	-11.68
▁Ken	-11.6804
call	-11.6804
▁Sales	-11.6806
remaining	-11.6807
▁nutrients	-11.6811
RU	-11.6811
▁studio	-11.6811
▁complications	-11.6812
▁pricing	-11.6812
▁genres	-11.6814
/7	-11.6815
▁Dar	-11.6816
3",	-11.6818
▁relies	-11.682
▁Attack	-11.682
pub	-11.6821
▁connects	-11.6821
▁removes	-11.6829
lapse	-11.6832
correct	-11.6832
▁Annual	-11.6835
▁negotiation	-11.6836
ু	-11.6836
Pdf	-11.6837
▁volumes	-11.6838
▁nth	-11.6842
Math	-11.6843
▁handled	-11.6845
▁laid	-11.6847
Individual	-11.6848
▁applicable	-11.6848
▁Convention	-11.6848
wikipedia	-11.6848
Anim	-11.6849
]])	-11.685
▁graphic	-11.685
▁spacecraft	-11.6851
▁achievement	-11.6852
udge	-11.6852
▁seasonal	-11.6852
ground	-11.6856
▁displays	-11.6857
؟	-11.686
▁Supreme	-11.686
▁Slade	-11.6861
▁divergence	-11.6861
வை	-11.6865
மா	-11.6867
ự	-11.6868
writing	-11.6869
Multi	-11.6869
▁streaming	-11.6871
▁Requirement	-11.6873
▁الأ	-11.6873
▁disabilities	-11.6873
▁verification	-11.6874
▁regard	-11.6874
▁`*`	-11.6875
▁glasses	-11.6876
▁220	-11.6877
▁Complete	-11.6877
banana	-11.6879
▁desk	-11.6882
3=	-11.6882
▁Save	-11.6883
▁то	-11.6883
▁Iris	-11.6884
▁tomorrow	-11.6885
▁activist	-11.6885
¬	-11.6885
physics	-11.6885
▁Ratio	-11.6886
▁SP	-11.6886
▁plates	-11.6888
acre	-11.6893
▁Tool	-11.6895
alism	-11.6896
▁teenager	-11.6897
resource	-11.6899
▁fostering	-11.69
▁metadata	-11.6901
▁poet	-11.6903
▁Fact	-11.6904
erman	-11.6904
public	-11.6905
▁Positive	-11.6908
▁Behavior	-11.691
Util	-11.6911
▁2014	-11.6913
▁granted	-11.6913
▁rivers	-11.6913
▁piles	-11.6918
Interval	-11.6918
=0)	-11.6919
▁volunteers	-11.692
INSERT	-11.6921
}{2\	-11.6922
[3]=3	-11.6927
▁Games	-11.6927
▁eigenvalue	-11.6928
会	-11.6932
album	-11.6933
▁basket	-11.6933
▁Size	-11.6933
▁lawyer	-11.6934
0.75	-11.6935
ных	-11.6935
tie	-11.6935
rah	-11.6937
▁prize	-11.6939
▁Milk	-11.6939
{20	-11.694
▁Cambridge	-11.6946
haz	-11.6946
children	-11.6946
▁Darwin	-11.6946
▁snake	-11.6946
;&	-11.6947
_2),	-11.6947
▁වි	-11.6949
▁cord	-11.6949
▁emerged	-11.6952
▁Wind	-11.6952
▁promotion	-11.6952
trip	-11.6955
▁participating	-11.6958
Plan	-11.6958
▁Archive	-11.696
▁grades	-11.6961
▁nationality	-11.6962
[1]=4	-11.6966
clean	-11.6966
pol	-11.6967
▁extraordinary	-11.697
▁fascinating	-11.697
▁diagnostic	-11.697
▁lymph	-11.697
▁Comment	-11.6971
],\	-11.6971
▁chill	-11.6971
Hold	-11.6972
▁landmark	-11.6972
▁82	-11.6977
▁ब	-11.6979
▁Material	-11.6981
deg	-11.6981
Sample	-11.6982
出	-11.6982
▁cybersecurity	-11.6982
▁Kai	-11.6983
Command	-11.6984
Kids	-11.6986
kel	-11.6986
▁மு	-11.6988
ण	-11.6989
peak	-11.6989
▁palm	-11.6989
^3}	-11.6993
∨	-11.6994
English	-11.6994
▁drain	-11.6998
▁thi	-11.7001
▁Side	-11.7003
▁Jones	-11.7004
▁Eco	-11.7006
neighbor	-11.7006
ution	-11.7006
ос	-11.7007
openai	-11.7007
textbf	-11.7007
Leaf	-11.7013
دا	-11.7015
▁developers	-11.7015
WE	-11.7016
^2}}	-11.7017
▁alkene	-11.7019
▁Creative	-11.7019
▁globally	-11.7019
▁gaming	-11.702
NT	-11.702
▁Daily	-11.7021
(8,	-11.7026
▁exclusive	-11.7029
▁diminish	-11.7031
−1)	-11.7031
011	-11.7032
▁empower	-11.7032
▁swapping	-11.7033
▁adapted	-11.7038
▁CI	-11.7038
!!!	-11.704
▁Know	-11.704
▁welfare	-11.7044
▁pairwise	-11.7047
▁gods	-11.7047
machine	-11.7047
lev	-11.7049
_1]	-11.705
ф	-11.7051
▁attitude	-11.7053
▁freq	-11.7056
▁corporation	-11.7056
▁remarkable	-11.7056
▁scoring	-11.7056
▁villain	-11.7056
gross	-11.7056
▁multiplied	-11.7056
மை	-11.7057
Wait	-11.7057
rock	-11.7059
▁Predict	-11.7063
ચ	-11.7068
▁unstable	-11.7069
vir	-11.7069
▁Ques	-11.7069
▁suppose	-11.7069
similar	-11.7072
▁Pour	-11.7072
ón	-11.7073
రు	-11.7077
▁Universe	-11.7078
▁reachable	-11.7079
▁ਨੂੰ	-11.7079
responsibilities	-11.7081
SF	-11.7081
▁225	-11.7081
Purpose	-11.7082
rink	-11.7084
▁dad	-11.7084
mag	-11.7085
▁harder	-11.7087
ility	-11.7089
nitro	-11.7091
^{2}	-11.7092
▁walked	-11.7092
▁dividend	-11.7093
น	-11.7093
▁torque	-11.7094
Expected	-11.7095
නි	-11.7096
ARE	-11.7099
Mode	-11.7099
▁Islamic	-11.7099
rose	-11.7101
స	-11.7103
▁Available	-11.7105
▁elaborate	-11.7105
▁hydroxyl	-11.7106
▁rotating	-11.7106
AAA	-11.7108
^{-0.05	-11.7108
▁staying	-11.7109
▁$150	-11.711
horizontally	-11.7111
▁Balance	-11.7112
ETH	-11.7114
abil	-11.7115
axial	-11.7116
▁Benjamin	-11.7118
▁companion	-11.7118
GS	-11.7119
се	-11.7121
▁breathe	-11.7123
Op	-11.7127
}$$	-11.7129
OO	-11.7129
能	-11.713
▁Spider	-11.7131
Quantum	-11.7133
onia	-11.7133
▁combines	-11.7134
training	-11.7136
ری	-11.7137
CF	-11.7138
esis	-11.7138
▁competitor	-11.7143
▁Ohio	-11.7144
ణ	-11.7144
▁drum	-11.7145
تر	-11.7148
▁mature	-11.715
▁Loss	-11.7153
上	-11.7155
▁quotient	-11.7155
▁heaven	-11.7155
▁viral	-11.7157
▁0`	-11.7157
through	-11.7158
▁difficulties	-11.716
▁mixing	-11.7161
▁$30	-11.7162
▁Phase	-11.7162
_1),	-11.7163
▁Objective	-11.7163
ext	-11.7166
▁worship	-11.7168
▁tap	-11.7168
▁dependencies	-11.7168
▁assembly	-11.7168
▁referring	-11.7169
▁crown	-11.7169
▁accelerate	-11.7169
median	-11.7169
▁pit	-11.717
sphere	-11.7173
-%	-11.7175
▁Summer	-11.7179
Character	-11.7179
▁forbidden	-11.718
▁−1	-11.7188
▁reacts	-11.719
▁absolutely	-11.719
ू	-11.7193
▁Swift	-11.7193
▁observable	-11.7193
▁blade	-11.7193
▁disconnect	-11.7194
▁cosine	-11.7194
▁McC	-11.7196
follower	-11.7196
ன்ற	-11.7197
method	-11.7197
employee	-11.7197
▁ਦਾ	-11.7198
2.2	-11.7199
tir	-11.72
tsy	-11.7201
▁urge	-11.7202
eyed	-11.7202
▁108	-11.7202
▁dz	-11.7203
Mill	-11.7204
▁Solutions	-11.7204
▁inhabitants	-11.7205
▁delicate	-11.7205
▁soccer	-11.7205
▁ligand	-11.7205
ල්	-11.7206
▁predator	-11.7207
▁coupled	-11.7207
odi	-11.7207
▁omit	-11.7209
▁Personal	-11.7211
=1..	-11.7212
OU	-11.7214
▁establishment	-11.7214
▁mineral	-11.7214
▁Normal	-11.7215
▁Đ	-11.7217
▁Girls	-11.7217
ொ	-11.7217
પ	-11.7217
▁administrative	-11.7218
▁oldest	-11.7219
▁passionate	-11.722
▁Len	-11.7221
210	-11.7222
▁criticism	-11.7226
[7]=1	-11.7226
7.8	-11.7227
▁habit	-11.7228
▁oo	-11.7228
kun	-11.7229
CU	-11.7229
▁restricted	-11.7229
FS	-11.723
▁Customer	-11.723
LU	-11.723
▁**6.	-11.7231
▁Albert	-11.7232
ech	-11.7234
▁baseball	-11.7234
had	-11.7234
▁picked	-11.7236
▁Jr	-11.7238
▁confront	-11.7238
▁Mont	-11.7239
▁bay	-11.7239
arse	-11.7239
fuel	-11.724
▁grain	-11.724
▁bacterial	-11.7241
ben	-11.7241
▁Pennsylvania	-11.7243
▁balancing	-11.7243
▁tongue	-11.7243
shadow	-11.7248
▁airport	-11.725
▁vk	-11.7251
▁2–3	-11.7254
AMP	-11.7256
▁mọ	-11.7256
btn	-11.7256
▁contracts	-11.7259
▁counted	-11.726
memory	-11.7261
▁fairly	-11.7262
zer	-11.7263
Star	-11.7265
astro	-11.7266
ਇ	-11.7268
▁shake	-11.7268
ध	-11.7268
▁certificate	-11.7268
▁Sonic	-11.7268
▁holiday	-11.727
▁ester	-11.7273
canvas	-11.7273
Update	-11.7275
▁notebook	-11.7276
▁Recent	-11.7277
▁Arabic	-11.7278
POST	-11.7278
jar	-11.728
्या	-11.728
450	-11.728
或	-11.7281
▁ecological	-11.7281
▁Defense	-11.7281
▁Zo	-11.7281
shing	-11.7282
▁Indians	-11.7284
▁Fer	-11.7284
Sheet	-11.7285
▁employer	-11.7285
Length	-11.7287
ке	-11.7291
Write	-11.7293
лу	-11.7294
▁stuck	-11.7296
4.2	-11.7296
▁odds	-11.7297
▁AU	-11.7297
STR	-11.7298
හි	-11.7298
▁discusses	-11.7299
spin	-11.7299
▁aged	-11.7303
beat	-11.7304
four	-11.7304
▁legitimate	-11.7306
▁severity	-11.7306
▁jumps	-11.7307
▁Ice	-11.7307
▁valley	-11.731
rav	-11.7311
▁Lastly	-11.7311
▁dice	-11.7311
▁awake	-11.7311
▁90%	-11.7311
aux	-11.7315
help	-11.7317
chlor	-11.7318
▁striking	-11.7319
▁gesture	-11.7319
▁bundle	-11.7319
▁settled	-11.7319
pad	-11.7319
▁carrier	-11.732
▁Multiple	-11.732
▁hospitals	-11.7321
Pos	-11.7321
▁Room	-11.7322
save	-11.7322
▁softly	-11.7324
_0^2	-11.7324
▁Flow	-11.7324
▁`5`	-11.7325
▁Hope	-11.7328
ائ	-11.7329
▁Fix	-11.7329
▁1/2	-11.7331
▁Framework	-11.7331
▁altitude	-11.7331
▁Kan	-11.7331
▁footprint	-11.7332
▁contradict	-11.7332
▁transmit	-11.7333
▁origins	-11.7333
[2]=4	-11.7333
▁registration	-11.7334
▁Harry	-11.7335
▁Foot	-11.7338
▁spoken	-11.7342
▁publicly	-11.7343
±	-11.7344
▁fracture	-11.7345
▁aligned	-11.7347
▁divisors	-11.7348
▁Season	-11.7349
numeric	-11.7352
25}	-11.7352
VER	-11.7352
sell	-11.7356
行	-11.7356
▁progressive	-11.7357
▁spill	-11.7358
▁tissues	-11.7359
▁clause	-11.7359
social	-11.7361
freq	-11.7362
src	-11.7362
comment	-11.7366
2`.	-11.7367
Reaction	-11.7369
boy	-11.7369
▁drought	-11.737
▁coordination	-11.737
▁deserve	-11.7371
▁Choices	-11.7372
▁depart	-11.7373
కా	-11.7374
▁મ	-11.7374
▁Offer	-11.7376
Chinese	-11.7378
exe	-11.738
ਬ	-11.7382
成	-11.7382
이	-11.7382
▁Oxford	-11.7382
▁distress	-11.7383
▁benzene	-11.7383
▁entertainment	-11.7383
▁neurons	-11.7383
▁uniformly	-11.7385
thread	-11.7386
▁Profit	-11.7386
flower	-11.7389
▁ग	-11.7389
▁definite	-11.739
▁Employee	-11.7392
▁1989	-11.7393
2·	-11.7395
▁mortality	-11.7395
▁opposition	-11.7397
▁Past	-11.7398
▁districts	-11.7399
140	-11.7399
quant	-11.7403
▁melt	-11.7403
ന	-11.7405
▁reset	-11.7406
▁SN	-11.7406
▁ф	-11.7407
▁recurrence	-11.7408
jan	-11.7409
Hand	-11.7409
▁135	-11.7409
{2}}	-11.7411
▁encouraged	-11.7414
▁Software	-11.7416
▁Cru	-11.7417
platform	-11.7417
ता	-11.7417
▁Austria	-11.742
▁imperial	-11.742
▁Being	-11.7422
▁league	-11.7425
addEventListener	-11.7433
▁derivation	-11.7433
commerce	-11.7433
▁Assessment	-11.7433
tti	-11.7434
▁раз	-11.7435
▁4000	-11.7436
▁victim	-11.7437
▁Mol	-11.7438
▁workflow	-11.7441
ழ	-11.7441
etter	-11.7441
igen	-11.7442
▁weaken	-11.7442
(“	-11.7443
▁Tor	-11.7444
ên	-11.7444
Usage	-11.7444
▁వి	-11.7445
ART	-11.7446
η	-11.7446
ados	-11.7448
dz	-11.7448
▁Republican	-11.7449
▁locally	-11.7449
▁Tan	-11.745
▁Channel	-11.745
▁sells	-11.745
cannot	-11.745
▁Spin	-11.7451
^{-0.5	-11.7451
▁threads	-11.7451
▁acquired	-11.7452
▁reviewed	-11.7454
▁vein	-11.7454
finite	-11.7455
pc	-11.7456
Cap	-11.7456
dio	-11.7457
ਧ	-11.7459
▁incidence	-11.7459
▁Relationship	-11.7459
▁minister	-11.7461
EUR	-11.7463
▁Andrew	-11.7463
aunt	-11.7467
▁decor	-11.7467
▁concerning	-11.7468
ாக	-11.7468
▁telling	-11.747
small	-11.747
▁manifest	-11.7471
batch	-11.7471
▁inflammation	-11.7472
Attribute	-11.7473
Best	-11.7473
graphical	-11.7474
▁thickness	-11.7476
)=3	-11.7477
▁behavioral	-11.7477
▁contractions	-11.7477
த்	-11.7478
published	-11.7479
நா	-11.7479
▁Qui	-11.7481
Mathematical	-11.7485
▁Programming	-11.7485
movie	-11.7487
▁Steel	-11.7487
hoe	-11.7489
modal	-11.7491
}","	-11.7492
▁NA	-11.7495
▁tire	-11.7496
пол	-11.7496
Project	-11.7497
▁Olympic	-11.7497
▁collaborative	-11.7497
▁separators	-11.7497
▁symmetries	-11.7497
access	-11.7498
▁overlapping	-11.7501
▁`9`	-11.7502
▁aside	-11.7504
▁Ray	-11.7504
▁Download	-11.7505
▁comedy	-11.7505
corn	-11.7506
uli	-11.7508
pal	-11.7508
headline	-11.7508
}{4}\	-11.7509
▁behave	-11.7509
Enable	-11.7509
し	-11.751
▁grateful	-11.751
ారు	-11.7512
▁maintains	-11.7513
login	-11.7514
▁musicians	-11.7515
▁dietary	-11.7516
▁premium	-11.7517
dataset	-11.7518
ophil	-11.7519
coin	-11.7519
aja	-11.7519
्य	-11.752
ELL	-11.7521
trop	-11.7522
chel	-11.7522
▁ONLY	-11.7523
20,000	-11.7524
▁acidic	-11.7525
▁shipping	-11.7525
Trans	-11.7526
▁$500	-11.7527
▁Irish	-11.7528
▁psycho	-11.753
ogue	-11.7532
▁letting	-11.7532
▁crush	-11.7532
0,1,2	-11.7532
▁examined	-11.7535
▁payments	-11.7535
▁jaw	-11.7535
▁conservative	-11.7536
▁OS	-11.7537
▁conjugate	-11.7537
▁0.06	-11.7543
▁ر	-11.7544
▁те	-11.7546
ớ	-11.7549
▁cautious	-11.7549
▁indigenous	-11.7549
▁Creating	-11.7549
▁genome	-11.7549
▁Custom	-11.755
▁Obama	-11.755
Process	-11.755
4,4	-11.7551
ති	-11.7551
▁profiles	-11.7551
▁Financial	-11.7552
▁insects	-11.7552
ற்ற	-11.7552
OpenAI	-11.7554
▁justification	-11.7558
▁farming	-11.7559
processing	-11.7559
pay	-11.756
▁asthma	-11.7561
▁floors	-11.7562
▁encouraging	-11.7562
▁turbine	-11.7562
▁ultra	-11.7563
material	-11.7563
uous	-11.7563
▁MB	-11.7564
▁Sciences	-11.7565
▁UTC	-11.7565
regex	-11.7566
هم	-11.7567
iber	-11.7571
scribe	-11.7571
setting	-11.7573
▁continuously	-11.7573
desc	-11.7573
▁ATP	-11.7574
▁آ	-11.7574
▁Hotel	-11.7574
▁supplied	-11.7575
ජ	-11.7575
▁enterprise	-11.7575
virus	-11.7575
2=1	-11.7576
▁10\	-11.7577
▁Cook	-11.7578
▁accent	-11.7578
▁Sec	-11.7579
ND	-11.758
▁explaining	-11.7581
▁Mind	-11.7582
▁1.4	-11.7582
▁intra	-11.7585
▁enabled	-11.7588
3,3	-11.7588
我	-11.7588
▁perpendicular	-11.7588
▁literacy	-11.7588
▁tactics	-11.7588
▁Brit	-11.7589
▁authentication	-11.7592
▁الت	-11.7593
▁إ	-11.7594
▁theater	-11.7594
4",	-11.7596
▁reminder	-11.7599
▁campus	-11.7599
▁opposed	-11.7599
▁Methods	-11.7601
Auto	-11.7601
▁ethics	-11.7601
▁bid	-11.7602
▁bite	-11.7603
▁φ	-11.7603
▁Expression	-11.7603
gnos	-11.7603
▁killing	-11.7609
▁gro	-11.7612
ਭ	-11.7612
▁consensus	-11.7614
▁harmony	-11.7615
▁recipes	-11.7616
▁diagnosed	-11.7616
Default	-11.7617
▁Rain	-11.7618
▁collecting	-11.7618
▁toys	-11.7619
▁slight	-11.762
▁Models	-11.7622
"></	-11.7622
plant	-11.7622
▁males	-11.7622
▁admit	-11.7628
▁marble	-11.7628
owner	-11.7628
▁Letter	-11.7629
▁occasion	-11.763
▁absent	-11.763
ECT	-11.7631
maker	-11.7634
▁bubble	-11.7634
▁rental	-11.7638
azi	-11.7639
mil	-11.764
▁comprise	-11.7641
▁portal	-11.7642
▁Dutch	-11.7642
▁reagent	-11.7645
▁privilege	-11.7646
PU	-11.7647
Life	-11.7648
func	-11.7648
▁foundational	-11.765
生	-11.7652
θ	-11.7653
▁enormous	-11.7653
▁Smart	-11.7653
}{9}	-11.7653
▁voting	-11.7653
openAccess	-11.7654
▁swim	-11.7655
▁Put	-11.7655
}}\	-11.7655
ब	-11.7656
▁analytics	-11.7657
▁surprised	-11.7657
3333	-11.7657
matches	-11.7658
chart	-11.7659
}{12}\	-11.7661
MIN	-11.7661
ichi	-11.7662
3.9	-11.7664
▁Tax	-11.7665
යි	-11.7668
VE	-11.7668
osh	-11.767
Items	-11.767
Function	-11.767
▁je	-11.7671
104	-11.7673
▁intersect	-11.7674
handler	-11.7674
▁homo	-11.7675
▁fin	-11.7675
Song	-11.7675
▁como	-11.7676
▁как	-11.7677
stein	-11.7677
0,1	-11.7679
May	-11.7679
▁donate	-11.7679
▁incredible	-11.768
▁neglect	-11.768
▁moisture	-11.768
▁unnecessary	-11.768
క్	-11.768
▁LED	-11.7682
ча	-11.7682
▁(0-	-11.7683
▁cameras	-11.7684
Delete	-11.7686
▁shelf	-11.7686
ugh	-11.7687
abba	-11.7688
▁writers	-11.769
hip	-11.7691
BE	-11.7691
ок	-11.7692
←	-11.7693
▁Nigeria	-11.7693
bil	-11.7693
▁contraction	-11.7695
▁Islands	-11.7697
▁Production	-11.77
wrap	-11.7701
Camera	-11.7702
▁departments	-11.7706
cel	-11.7706
▁cursor	-11.7709
▁rear	-11.7709
varphi	-11.771
си	-11.7712
▁overhead	-11.7712
ின்	-11.7713
▁75%	-11.7718
▁func	-11.7718
▁literally	-11.7718
▁celebration	-11.7719
▁utilizing	-11.7719
▁loyalty	-11.772
▁CON	-11.7721
followers	-11.7722
▁83	-11.7722
▁fox	-11.7722
MW	-11.7724
lore	-11.7727
▁Allow	-11.773
▁promising	-11.7732
▁skilled	-11.7733
▁farmer	-11.7733
{12}	-11.7734
▁Overview	-11.7734
▁Ram	-11.7736
}{4	-11.7738
▁conformation	-11.7739
Bound	-11.7741
Mob	-11.7741
andra	-11.7742
▁personalized	-11.7743
▁blanket	-11.7743
▁resident	-11.7743
nodes	-11.7744
▁Higher	-11.7744
)\):	-11.7746
▁Electronic	-11.7746
▁proved	-11.7747
ption	-11.7751
▁highlighted	-11.7755
▁tired	-11.7755
▁ancestor	-11.7756
▁endless	-11.7756
bur	-11.7756
▁lips	-11.7756
жа	-11.7756
earing	-11.7758
▁residual	-11.7759
EMAIL	-11.7759
pressed	-11.7761
▁owners	-11.7762
▁finishing	-11.7763
-22	-11.7764
After	-11.7765
kon	-11.7765
PD	-11.7766
{3}}{2}	-11.7767
ంది	-11.7769
▁brick	-11.7771
▁meme	-11.7772
▁outgoing	-11.7772
▁venture	-11.7772
edges	-11.7772
▁switching	-11.7773
▁compete	-11.7773
▁advise	-11.7775
direction	-11.7777
▁attraction	-11.7778
▁stretch	-11.7778
О	-11.7779
aver	-11.7779
sep	-11.7781
▁probe	-11.7781
-11-	-11.7781
0,0	-11.7782
▁Unique	-11.7784
日	-11.7785
Enhance	-11.7785
▁isolation	-11.7786
7.2	-11.7787
feed	-11.7788
▁trivial	-11.779
peek	-11.779
▁overwhelming	-11.779
positions	-11.7794
155	-11.7797
hir	-11.7797
▁imaginary	-11.7798
▁Gene	-11.7799
▁connectivity	-11.7799
▁thorough	-11.7802
▁750	-11.7802
0+	-11.7804
ун	-11.7805
lance	-11.7805
హ	-11.7805
▁Layer	-11.7805
▁chances	-11.7806
▁Notice	-11.781
▁Experience	-11.7811
▁pocket	-11.7812
Optimal	-11.7812
▁throat	-11.7812
iana	-11.7812
reference	-11.7813
▁Nu	-11.7813
−5	-11.7814
Please	-11.7819
▁races	-11.782
▁visually	-11.782
▁heroes	-11.7821
largest	-11.7821
Mean	-11.7821
▁Alpha	-11.7822
flag	-11.7824
▁unlikely	-11.7824
டை	-11.7824
与	-11.7825
▁ਕਿ	-11.7825
▁intelligent	-11.7825
▁panic	-11.7826
▁Prevention	-11.7826
▁thrive	-11.7827
▁legendary	-11.7827
▁missions	-11.7831
enta	-11.7832
▁mural	-11.7833
[0]=3	-11.7834
▁Anna	-11.7834
greg	-11.7837
alter	-11.7838
▁retention	-11.7838
disclaimer	-11.7838
▁interpreted	-11.784
▁manually	-11.784
_2]	-11.7841
sburg	-11.7841
▁Kim	-11.7843
anji	-11.7843
▁Years	-11.7843
▁scholarship	-11.7852
▁Assignments	-11.7852
रा	-11.7852
Segment	-11.7853
▁Bridge	-11.7854
{2}{	-11.7855
▁Poly	-11.7856
▁70%	-11.7858
▁Hyper	-11.786
idad	-11.7861
patient	-11.7862
▁QFT	-11.7862
▁voters	-11.7863
▁SpongeBob	-11.7863
▁Tro	-11.7864
-------------|	-11.7865
Frequency	-11.7865
widget	-11.7866
▁insulin	-11.7867
▁Zone	-11.7868
lag	-11.787
{25	-11.7871
▁outfit	-11.7871
have	-11.7871
▁kWh	-11.7872
▁painted	-11.7872
---	-11.7873
uba	-11.7873
Other	-11.7873
Stream	-11.7874
ANT	-11.7874
▁plenty	-11.7879
▁Copyright	-11.7879
▁Vision	-11.788
ür	-11.7881
Register	-11.7882
GBP	-11.7884
168	-11.7884
▁kills	-11.7884
▁absorbed	-11.7886
before	-11.7888
uzz	-11.7889
Fail	-11.7889
▁quietly	-11.789
▁Him	-11.789
850	-11.7891
于	-11.7892
δ	-11.7892
▁Capital	-11.7892
[...]
